{
  "version": "1.0",
  "truncation": {
    "direction": "Right",
    "max_length": 64,
    "strategy": "LongestFirst",
    "stride": 0
  },
  "padding": {
    "strategy": "BatchLongest",
    "direction": "Right",
    "pad_to_multiple_of": null,
    "pad_id": 16000,
    "pad_type_id": 0,
    "pad_token": "<|endoftext|>"
  },
  "added_tokens": [
    {
      "id": 16000,
      "content": "<|endoftext|>",
      "single_word": false,
      "lstrip": false,
      "rstrip": false,
      "normalized": false,
      "special": true
    },
    {
      "id": 16001,
      "content": "<pad>",
      "single_word": false,
      "lstrip": false,
      "rstrip": false,
      "normalized": false,
      "special": true
    }
  ],
  "normalizer": {
    "type": "Sequence",
    "normalizers": [
      {
        "type": "NFD"
      },
      {
        "type": "Lowercase"
      },
      {
        "type": "Strip",
        "strip_left": true,
        "strip_right": true
      }
    ]
  },
  "pre_tokenizer": {
    "type": "ByteLevel",
    "add_prefix_space": false,
    "trim_offsets": true,
    "use_regex": true
  },
  "post_processor": {
    "type": "ByteLevel",
    "add_prefix_space": true,
    "trim_offsets": true,
    "use_regex": true
  },
  "decoder": {
    "type": "ByteLevel",
    "add_prefix_space": true,
    "trim_offsets": true,
    "use_regex": true
  },
  "model": {
    "type": "BPE",
    "dropout": null,
    "unk_token": null,
    "continuing_subword_prefix": null,
    "end_of_word_suffix": null,
    "fuse_unk": false,
    "byte_fallback": false,
    "ignore_merges": false,
    "vocab": {
      "!": 0,
      "\"": 1,
      "#": 2,
      "$": 3,
      "%": 4,
      "&": 5,
      "'": 6,
      "(": 7,
      ")": 8,
      "*": 9,
      "+": 10,
      ",": 11,
      "-": 12,
      ".": 13,
      "/": 14,
      "0": 15,
      "1": 16,
      "2": 17,
      "3": 18,
      "4": 19,
      "5": 20,
      "6": 21,
      "7": 22,
      "8": 23,
      "9": 24,
      ":": 25,
      ";": 26,
      "=": 27,
      "?": 28,
      "@": 29,
      "[": 30,
      "]": 31,
      "_": 32,
      "`": 33,
      "a": 34,
      "b": 35,
      "c": 36,
      "d": 37,
      "e": 38,
      "f": 39,
      "g": 40,
      "h": 41,
      "i": 42,
      "j": 43,
      "k": 44,
      "l": 45,
      "m": 46,
      "n": 47,
      "o": 48,
      "p": 49,
      "q": 50,
      "r": 51,
      "s": 52,
      "t": 53,
      "u": 54,
      "v": 55,
      "w": 56,
      "x": 57,
      "y": 58,
      "z": 59,
      "|": 60,
      "~": 61,
      "¡": 62,
      "¤": 63,
      "¦": 64,
      "§": 65,
      "¨": 66,
      "ª": 67,
      "«": 68,
      "¬": 69,
      "°": 70,
      "±": 71,
      "²": 72,
      "·": 73,
      "¸": 74,
      "½": 75,
      "¿": 76,
      "Â": 77,
      "Ã": 78,
      "Ä": 79,
      "Å": 80,
      "É": 81,
      "Ê": 82,
      "Ë": 83,
      "Ì": 84,
      "â": 85,
      "ï": 86,
      "Ġ": 87,
      "Ģ": 88,
      "ģ": 89,
      "Ĥ": 90,
      "ĥ": 91,
      "Ħ": 92,
      "Ĩ": 93,
      "ĩ": 94,
      "Ī": 95,
      "Ĭ": 96,
      "ĭ": 97,
      "Į": 98,
      "Ĳ": 99,
      "ĳ": 100,
      "ĵ": 101,
      "Ķ": 102,
      "Ĺ": 103,
      "ĺ": 104,
      "Ļ": 105,
      "ļ": 106,
      "ľ": 107,
      "Ŀ": 108,
      "ŀ": 109,
      "Ł": 110,
      "ł": 111,
      "Ń": 112,
      "Ġt": 113,
      "he": 114,
      "Ġa": 115,
      "Ġi": 116,
      "Ġthe": 117,
      "ou": 118,
      "Ġw": 119,
      "re": 120,
      "Ġs": 121,
      "on": 122,
      "in": 123,
      "er": 124,
      "ha": 125,
      "Ġc": 126,
      "an": 127,
      "Ġb": 128,
      "Ġm": 129,
      "Ġo": 130,
      "Ġd": 131,
      "Ġf": 132,
      "or": 133,
      "en": 134,
      "Ġp": 135,
      "Ġy": 136,
      "ll": 137,
      "it": 138,
      "es": 139,
      "ing": 140,
      "Ġan": 141,
      "Ġin": 142,
      "ed": 143,
      "Ġto": 144,
      "Ġof": 145,
      "Ġg": 146,
      "Ġyou": 147,
      "is": 148,
      "hat": 149,
      "ar": 150,
      "Ġl": 151,
      "as": 152,
      "Ġ=": 153,
      "Ġn": 154,
      "at": 155,
      "Ġand": 156,
      "om": 157,
      "ic": 158,
      "Ġit": 159,
      "'s": 160,
      "ve": 161,
      "al": 162,
      "ow": 163,
      "Ġis": 164,
      "ot": 165,
      "us": 166,
      "Ġhe": 167,
      "le": 168,
      "Ġth": 169,
      "Ġthat": 170,
      "Ġh": 171,
      "ay": 172,
      "et": 173,
      "Ġha": 174,
      "Ġon": 175,
      "Ġbe": 176,
      "Ġwas": 177,
      "Ġe": 178,
      "ion": 179,
      "Ġr": 180,
      "Ġk": 181,
      "Ġwe": 182,
      "ent": 183,
      "ig": 184,
      "id": 185,
      "Ġre": 186,
      "ld": 187,
      "un": 188,
      "ut": 189,
      "ac": 190,
      "Ġfor": 191,
      "Ġj": 192,
      "'t": 193,
      "ver": 194,
      "the": 195,
      "and": 196,
      "Ġst": 197,
      "os": 198,
      "am": 199,
      "ly": 200,
      "ht": 201,
      "Ġ1": 202,
      "Ġme": 203,
      "ir": 204,
      "oo": 205,
      "ad": 206,
      "ur": 207,
      "ke": 208,
      "im": 209,
      "all": 210,
      "..": 211,
      "Ġdo": 212,
      "out": 213,
      "ct": 214,
      "now": 215,
      "op": 216,
      "Ġ2": 217,
      "Ġse": 218,
      "ight": 219,
      "ith": 220,
      "Ġfr": 221,
      "st": 222,
      "we": 223,
      "ce": 224,
      "il": 225,
      "Ġknow": 226,
      "Ġas": 227,
      "se": 228,
      "ould": 229,
      "Ġwith": 230,
      "ome": 231,
      "th": 232,
      "ch": 233,
      "Ġgo": 234,
      "ill": 235,
      "ea": 236,
      "Ġhave": 237,
      "Ġare": 238,
      "ro": 239,
      "ist": 240,
      "oun": 241,
      "Ġli": 242,
      "you": 243,
      "Ġat": 244,
      "Ġnot": 245,
      "ant": 246,
      "ge": 247,
      "Ġde": 248,
      "ust": 249,
      "Ġne": 250,
      "Ġthis": 251,
      "Ġ20": 252,
      "up": 253,
      "ber": 254,
      "Ġwh": 255,
      "Ġthere": 256,
      "ter": 257,
      "Ġer": 258,
      "Ġv": 259,
      "ol": 260,
      "Ġwhat": 261,
      "ation": 262,
      "our": 263,
      "Ġ19": 264,
      "Ġthey": 265,
      "Ġ(": 266,
      "ul": 267,
      "art": 268,
      "est": 269,
      "Ġcan": 270,
      "oh": 271,
      "Ġdon": 272,
      "ity": 273,
      "ie": 274,
      "Ġal": 275,
      "'re": 276,
      "ain": 277,
      "Ġab": 278,
      "Ġcom": 279,
      "Ġ\"": 280,
      "her": 281,
      "Ġun": 282,
      "ment": 283,
      "Ġfrom": 284,
      "Ġyour": 285,
      "if": 286,
      "Ġor": 287,
      "...": 288,
      "han": 289,
      "ri": 290,
      "Ġus": 291,
      "qu": 292,
      "'m": 293,
      "ore": 294,
      "Ġall": 295,
      "Ġcon": 296,
      "ink": 297,
      "eah": 298,
      "ally": 299,
      "um": 300,
      "Ġmy": 301,
      "res": 302,
      "ate": 303,
      "ork": 304,
      "no": 305,
      "pp": 306,
      "Ġso": 307,
      "Ġone": 308,
      "ry": 309,
      "ab": 310,
      "el": 311,
      "Ġwhe": 312,
      "Ġabout": 313,
      "Ġget": 314,
      "Ġno": 315,
      "so": 316,
      "Ġlike": 317,
      "te": 318,
      "ack": 319,
      "Ġpl": 320,
      "Ġsh": 321,
      "very": 322,
      "ud": 323,
      "ra": 324,
      "Ġshe": 325,
      "oug": 326,
      "Ġup": 327,
      "Ġby": 328,
      "one": 329,
      "ive": 330,
      "Ġbut": 331,
      "what": 332,
      "Ġjust": 333,
      "Ġpro": 334,
      "red": 335,
      "ast": 336,
      "ess": 337,
      "ood": 338,
      "Ġ201": 339,
      "Ġthink": 340,
      "ian": 341,
      "Ġout": 342,
      "Ġte": 343,
      "ake": 344,
      "Ġgot": 345,
      "ers": 346,
      "Ġwould": 347,
      "ort": 348,
      "ck": 349,
      "Ġhis": 350,
      "ook": 351,
      "Ġsa": 352,
      "end": 353,
      "ies": 354,
      "yeah": 355,
      "ame": 356,
      "ound": 357,
      "ure": 358,
      "'ve": 359,
      "Ġsay": 360,
      "well": 361,
      "ard": 362,
      "Ġher": 363,
      "'ll": 364,
      "orn": 365,
      "ip": 366,
      "Ġsp": 367,
      "ty": 368,
      "ren": 369,
      "Ġex": 370,
      "Ġsee": 371,
      "Ġtw": 372,
      "Ġdid": 373,
      "ous": 374,
      "fe": 375,
      "mber": 376,
      "Ġ.": 377,
      "Ġpe": 378,
      "ine": 379,
      "that": 380,
      "ime": 381,
      "Ġwant": 382,
      "od": 383,
      "Ġch": 384,
      "Ġif": 385,
      "ag": 386,
      "ind": 387,
      "Ġright": 388,
      "Ġag": 389,
      "Ġany": 390,
      "ong": 391,
      "Ġar": 392,
      "Ġhad": 393,
      "Ġthem": 394,
      "ap": 395,
      "ven": 396,
      "Ġsome": 397,
      "Ġcoun": 398,
      "ak": 399,
      "ose": 400,
      "ther": 401,
      "use": 402,
      "Ġhere": 403,
      "Ġqu": 404,
      "Ġam": 405,
      "ia": 406,
      "but": 407,
      "ople": 408,
      "ich": 409,
      "ord": 410,
      "Ġgr": 411,
      "Ġwere": 412,
      "hing": 413,
      "Ġfe": 414,
      "Ġle": 415,
      "ug": 416,
      "Ġpr": 417,
      "Ġerm": 418,
      "Ġlo": 419,
      "ost": 420,
      "ne": 421,
      "ca": 422,
      "Ġtr": 423,
      "Ġman": 424,
      "ice": 425,
      "Ġgre": 426,
      "na": 427,
      "Ġpeople": 428,
      "Ġthen": 429,
      "Ġtwo": 430,
      "ary": 431,
      "Ġbr": 432,
      "Ġwill": 433,
      "ree": 434,
      "ict": 435,
      "ub": 436,
      "Ġnow": 437,
      "Ġwork": 438,
      "Ġhim": 439,
      "are": 440,
      "og": 441,
      "Ġmean": 442,
      "Ġwhen": 443,
      "own": 444,
      "age": 445,
      "Ġ,": 446,
      "Ġdi": 447,
      "Ġhas": 448,
      "Ìģ": 449,
      "ough": 450,
      "Ġco": 451,
      "Ġpart": 452,
      "to": 453,
      "Ġtime": 454,
      "Ġnew": 455,
      "ear": 456,
      "ater": 457,
      "Ġoff": 458,
      "mp": 459,
      "Ġact": 460,
      "Ġro": 461,
      "act": 462,
      "Ġbeen": 463,
      "Ġwho": 464,
      "yes": 465,
      "ish": 466,
      "be": 467,
      "Ġsaid": 468,
      "Ġcomm": 469,
      "der": 470,
      "Ġback": 471,
      "Ġen": 472,
      "other": 473,
      "âĢ": 474,
      "way": 475,
      "cause": 476,
      "Ġcould": 477,
      "Ġaf": 478,
      "Ġcl": 479,
      "ace": 480,
      "ated": 481,
      "Ġvery": 482,
      "ect": 483,
      "mm": 484,
      "ep": 485,
      "ide": 486,
      "Ġlook": 487,
      "omet": 488,
      "ue": 489,
      "Ġgoing": 490,
      "Ġ'": 491,
      "Ġcha": 492,
      "ens": 493,
      "ance": 494,
      "Ġwell": 495,
      "ase": 496,
      "Ġwhich": 497,
      "Ġgood": 498,
      "ci": 499,
      "Ġmar": 500,
      "Ġother": 501,
      "Ġad": 502,
      "itt": 503,
      "Ġdist": 504,
      "irst": 505,
      "Ġmo": 506,
      "ans": 507,
      "ved": 508,
      "ite": 509,
      "day": 510,
      "ble": 511,
      "Ġcity": 512,
      "Ġmore": 513,
      "Ġhow": 514,
      "erm": 515,
      "land": 516,
      "ok": 517,
      "Ġday": 518,
      "Ġyear": 519,
      "Ġmay": 520,
      "Ġfirst": 521,
      "onna": 522,
      "Ġthan": 523,
      "'d": 524,
      "ick": 525,
      "ings": 526,
      "wh": 527,
      "Ġbl": 528,
      "ade": 529,
      "Ġcomp": 530,
      "Ġdown": 531,
      "Ġsomet": 532,
      "Ġneed": 533,
      "uch": 534,
      "ates": 535,
      "ond": 536,
      "Ġgonna": 537,
      "Ġcome": 538,
      "Ġyork": 539,
      "alk": 540,
      "Ġper": 541,
      "Ġbo": 542,
      "iss": 543,
      "right": 544,
      "Ġrep": 545,
      "Ġbecause": 546,
      "ican": 547,
      "Ġ2019": 548,
      "she": 549,
      "Ġover": 550,
      "ass": 551,
      "whe": 552,
      "cl": 553,
      "ited": 554,
      "Ġour": 555,
      "che": 556,
      "Ġgu": 557,
      "lf": 558,
      "Ġbet": 559,
      "Ġalso": 560,
      "Ġtheir": 561,
      "Ġyes": 562,
      "rict": 563,
      "come": 564,
      "they": 565,
      "Ġused": 566,
      "Ġdistrict": 567,
      "Ġcar": 568,
      "ought": 569,
      "icip": 570,
      "Ġtake": 571,
      "uck": 572,
      "thing": 573,
      "oin": 574,
      "Ġser": 575,
      "Ġdoes": 576,
      "ress": 577,
      "me": 578,
      "Ġla": 579,
      "aud": 580,
      "ign": 581,
      "ions": 582,
      "Ġtell": 583,
      "Ġwor": 584,
      "ff": 585,
      "Ġwhere": 586,
      "âĢĵ": 587,
      "Ġsomething": 588,
      "ving": 589,
      "Ġmun": 590,
      "Ġonly": 591,
      "Ġreally": 592,
      "Ġcall": 593,
      "com": 594,
      "wn": 595,
      "Ġac": 596,
      "do": 597,
      "get": 598,
      "Ġsw": 599,
      "Ġpol": 600,
      "ah": 601,
      "Ġinto": 602,
      "ach": 603,
      "Ġshould": 604,
      "icipal": 605,
      "Ġmunicipal": 606,
      "ild": 607,
      "ult": 608,
      "ually": 609,
      "Ġmake": 610,
      "ix": 611,
      "ouse": 612,
      "Ġnor": 613,
      "Ġplay": 614,
      "Ġthose": 615,
      "ohn": 616,
      "Ġamer": 617,
      "Ġput": 618,
      "Ġ202": 619,
      "Ġway": 620,
      "Ġhapp": 621,
      "Ġmin": 622,
      "Ġafter": 623,
      "00": 624,
      "there": 625,
      "iz": 626,
      "Ġagain": 627,
      "Ġthree": 628,
      "Ġdidn": 629,
      "fore": 630,
      "Ġind": 631,
      "iver": 632,
      "Ġdis": 633,
      "Ġph": 634,
      "Ġevery": 635,
      "Ġdep": 636,
      "per": 637,
      "ical": 638,
      "Ġres": 639,
      "how": 640,
      "Ġthese": 641,
      "ence": 642,
      "uc": 643,
      "ody": 644,
      "Ġ?": 645,
      "my": 646,
      "Ġask": 647,
      "Ġke": 648,
      "Ġunited": 649,
      "Ġthr": 650,
      "this": 651,
      "rent": 652,
      "Ġtalk": 653,
      "ire": 654,
      "ves": 655,
      "Ġ!": 656,
      "Ġ3": 657,
      "pt": 658,
      "ory": 659,
      "Ġunder": 660,
      "Ġapp": 661,
      "Ġsc": 662,
      "Ġcounty": 663,
      "ny": 664,
      "Ġcr": 665,
      "vel": 666,
      "Ġhun": 667,
      "ather": 668,
      "Ġsec": 669,
      "ks": 670,
      "ph": 671,
      "les": 672,
      "ward": 673,
      "Ġpres": 674,
      "¿½": 675,
      "ï¿½": 676,
      "Ġmuch": 677,
      "able": 678,
      "Ġwr": 679,
      "ft": 680,
      "oss": 681,
      "Ġhouse": 682,
      "Ġstates": 683,
      "Ġsup": 684,
      "Ġyeah": 685,
      "Ġchan": 686,
      "Ġ200": 687,
      "Ġcont": 688,
      "Ġamerican": 689,
      "ident": 690,
      "ool": 691,
      "pe": 692,
      "Ġbu": 693,
      "une": 694,
      "oint": 695,
      "Ġmunicipality": 696,
      "than": 697,
      "Ġlea": 698,
      "ĠĠ": 699,
      "urn": 700,
      "de": 701,
      "Ġdr": 702,
      "Ġlove": 703,
      "Ġpar": 704,
      "ations": 705,
      "Ġknown": 706,
      "mer": 707,
      "vis": 708,
      "ĠâĢĵ": 709,
      "Ġwon": 710,
      "Ġmon": 711,
      "ath": 712,
      "Ġvaud": 713,
      "Ġyears": 714,
      "ple": 715,
      "Ġpre": 716,
      "Ġfo": 717,
      "Ġset": 718,
      "bs": 719,
      "li": 720,
      "ober": 721,
      "ctober": 722,
      "ting": 723,
      "Ġfour": 724,
      "don": 725,
      "pr": 726,
      "Ġpop": 727,
      "ms": 728,
      "Ġmade": 729,
      "Ġdied": 730,
      "for": 731,
      "Ġoctober": 732,
      "ran": 733,
      "Ġ199": 734,
      "ittle": 735,
      "where": 736,
      "ull": 737,
      "Ġtoo": 738,
      "Ġwhy": 739,
      "Ġcle": 740,
      "Ġok": 741,
      "itz": 742,
      "let": 743,
      "\".": 744,
      "ps": 745,
      "tern": 746,
      "dred": 747,
      "ial": 748,
      "ï¿½ï¿½": 749,
      "not": 750,
      "Ġbit": 751,
      "orry": 752,
      "Ġhundred": 753,
      "Ġcour": 754,
      "Ġborn": 755,
      "Ġmost": 756,
      "Ġlet": 757,
      "ction": 758,
      "la": 759,
      "Ġbefore": 760,
      "Ġstart": 761,
      "Ġthrough": 762,
      "),": 763,
      "Ġche": 764,
      "Ġcons": 765,
      "Ġu": 766,
      "ily": 767,
      "atch": 768,
      "Ġ18": 769,
      "tain": 770,
      "Ġthing": 771,
      "Ġoh": 772,
      "ise": 773,
      "ile": 774,
      "ale": 775,
      "Ġbel": 776,
      "uary": 777,
      "Ġel": 778,
      "ious": 779,
      "Ġold": 780,
      "Ġjohn": 781,
      "Ġlong": 782,
      "Ġmany": 783,
      "by": 784,
      "Ġlittle": 785,
      "oc": 786,
      "Ġage": 787,
      "Ġhome": 788,
      "ady": 789,
      "Ġsm": 790,
      "Ġgive": 791,
      "man": 792,
      "ang": 793,
      "Ġgod": 794,
      "Ġfl": 795,
      "ois": 796,
      "Ġname": 797,
      "Ġthought": 798,
      "Ġrec": 799,
      "Ġspe": 800,
      "artment": 801,
      "Ġstate": 802,
      "body": 803,
      "can": 804,
      "Ġhel": 805,
      "Ġwee": 806,
      "Ġexp": 807,
      "xt": 808,
      "Ġdif": 809,
      "ational": 810,
      "Ġwar": 811,
      "Ġnight": 812,
      "vern": 813,
      "ons": 814,
      "Ġmr": 815,
      "Ġhar": 816,
      "ope": 817,
      "Ġnever": 818,
      "Ġtri": 819,
      "Ġarea": 820,
      "Ġcounc": 821,
      "ys": 822,
      "ors": 823,
      "Ġlast": 824,
      "Ġele": 825,
      "Ġactually": 826,
      "air": 827,
      "Ġfrance": 828,
      "Ġplan": 829,
      "oney": 830,
      "Ġgreater": 831,
      "Ġimp": 832,
      "Ġhan": 833,
      "igh": 834,
      "Ġquest": 835,
      "ubl": 836,
      "just": 837,
      "Ġsha": 838,
      "Ġits": 839,
      "Ġdepartment": 840,
      "Ġ198": 841,
      "Ġdoing": 842,
      "Ġchar": 843,
      "itzer": 844,
      "\",": 845,
      "son": 846,
      "tle": 847,
      "Ġfam": 848,
      "Ġda": 849,
      "Ġsep": 850,
      "Ġswitzer": 851,
      "Ġsupp": 852,
      "Ġcouncil": 853,
      "Ġswitzerland": 854,
      "Ġsch": 855,
      "Ġbus": 856,
      "Ġbest": 857,
      "arly": 858,
      "Ġlot": 859,
      "ait": 860,
      "Ġsix": 861,
      "ition": 862,
      "Ġhappen": 863,
      "thank": 864,
      "sh": 865,
      "Ġcare": 866,
      "Ġdone": 867,
      "Ġfound": 868,
      "Ġdou": 869,
      "Ġfig": 870,
      "Ġpopul": 871,
      "any": 872,
      "ura": 873,
      "tember": 874,
      "Ġfeel": 875,
      "Ġworld": 876,
      "Ġma": 877,
      "Ġbeing": 878,
      "ween": 879,
      "br": 880,
      "Ġcant": 881,
      "Ġjo": 882,
      "Ġanything": 883,
      "vie": 884,
      "Ġra": 885,
      "io": 886,
      "Ġ4": 887,
      "ning": 888,
      "ton": 889,
      "ician": 890,
      "oth": 891,
      "Ġgovern": 892,
      "Ġsub": 893,
      ").": 894,
      "Ġfin": 895,
      "okay": 896,
      "hed": 897,
      "ince": 898,
      "uss": 899,
      "Ġeven": 900,
      "ner": 901,
      "ities": 902,
      "Ġpolit": 903,
      "Ġhelp": 904,
      "Ġed": 905,
      "Ġend": 906,
      "Ġloc": 907,
      "Ġbetween": 908,
      "Ġcalled": 909,
      "iv": 910,
      "Ġsure": 911,
      "Ġseptember": 912,
      "ball": 913,
      "Ġju": 914,
      "Ġcanton": 915,
      "gr": 916,
      "vent": 917,
      "Ġbig": 918,
      "Ġeast": 919,
      "self": 920,
      "Ġ196": 921,
      "Ġeng": 922,
      "ivers": 923,
      "Ġnum": 924,
      "Ġ7": 925,
      "Ġwent": 926,
      "Ġfind": 927,
      "Ġpoint": 928,
      "Ġmember": 929,
      "Ġsays": 930,
      "Ġsame": 931,
      "Ġthings": 932,
      "ways": 933,
      "Ġgen": 934,
      "ute": 935,
      "Ġsecond": 936,
      "gan": 937,
      "Ġsit": 938,
      "ased": 939,
      "ments": 940,
      "Ġplace": 941,
      "erson": 942,
      "Ġ...": 943,
      "why": 944,
      "Ġmorn": 945,
      "em": 946,
      "irl": 947,
      "Ġatt": 948,
      "ces": 949,
      "Ġmight": 950,
      "Ġisn": 951,
      "19": 952,
      "look": 953,
      "Ġsorry": 954,
      "Ġaround": 955,
      "Ġpresident": 956,
      "Ġcourse": 957,
      "az": 958,
      "ars": 959,
      "Ġstill": 960,
      "imes": 961,
      "Ġgreen": 962,
      "Ġple": 963,
      "Ġrun": 964,
      "Ġkill": 965,
      "go": 966,
      "row": 967,
      "ta": 968,
      "Ġca": 969,
      "Ġtoday": 970,
      "ousand": 971,
      "aking": 972,
      "Ġ5": 973,
      "uring": 974,
      "lo": 975,
      "ts": 976,
      "Ġthousand": 977,
      "ames": 978,
      "Ġgrou": 979,
      "bab": 980,
      "born": 981,
      "Ġten": 982,
      "Ġaway": 983,
      "Ġshow": 984,
      "rect": 985,
      "Ġcre": 986,
      "Ġfive": 987,
      "Ġinv": 988,
      "Ġje": 989,
      "Ġcommune": 990,
      "cy": 991,
      "Ġtry": 992,
      "Ġcent": 993,
      "Ġjan": 994,
      "ib": 995,
      "ten": 996,
      "Ġ8": 997,
      "Ġuse": 998,
      "Ġnumber": 999,
      "Ġmorning": 1000,
      "Ġ197": 1001,
      "Ġcur": 1002,
      "Ġmiss": 1003,
      "Ġown": 1004,
      "Ġ195": 1005,
      "Ġgreat": 1006,
      "Ġlar": 1007,
      "Ġschool": 1008,
      "til": 1009,
      "ating": 1010,
      "ics": 1011,
      "Ġreg": 1012,
      "clud": 1013,
      "vision": 1014,
      "Ġdiffe": 1015,
      "du": 1016,
      "ied": 1017,
      "Ġdes": 1018,
      "cial": 1019,
      "ier": 1020,
      "Ġbre": 1021,
      "Ġmus": 1022,
      "Ġanother": 1023,
      "bel": 1024,
      "ont": 1025,
      "Ġlife": 1026,
      "Ġvill": 1027,
      "Ġfamily": 1028,
      "Ġob": 1029,
      "ister": 1030,
      "Ġmoney": 1031,
      "osed": 1032,
      "cer": 1033,
      "ures": 1034,
      "Ġ9": 1035,
      "Ġz": 1036,
      "Ġid": 1037,
      "Ġbar": 1038,
      "Ġdec": 1039,
      "Ġ2020": 1040,
      "Ġgi": 1041,
      "bert": 1042,
      "Ġokay": 1043,
      "av": 1044,
      "ger": 1045,
      "Ġop": 1046,
      "Ġpa": 1047,
      "Ġgirl": 1048,
      "Ġhead": 1049,
      "Ġreal": 1050,
      "Ġmeet": 1051,
      "outh": 1052,
      "ield": 1053,
      "Ġalways": 1054,
      "Ġunivers": 1055,
      "Ġjuly": 1056,
      "did": 1057,
      "velop": 1058,
      "Ġquestion": 1059,
      "cha": 1060,
      "ock": 1061,
      "Ġland": 1062,
      "oman": 1063,
      "uth": 1064,
      "fect": 1065,
      "Ġstop": 1066,
      "Ġquite": 1067,
      "Ġapr": 1068,
      "lle": 1069,
      "Ġho": 1070,
      "Ġdoesn": 1071,
      "Ġthir": 1072,
      "Ġfact": 1073,
      "Ġhigh": 1074,
      "Ġuntil": 1075,
      "Ġcount": 1076,
      "Ġapril": 1077,
      "ific": 1078,
      "Ġnorth": 1079,
      "good": 1080,
      "Ġeight": 1081,
      "Ġfri": 1082,
      "Ġnext": 1083,
      "Ġsaying": 1084,
      "Ġsettle": 1085,
      "--": 1086,
      "Ġcol": 1087,
      "Ġmust": 1088,
      "alth": 1089,
      "Ġdevelop": 1090,
      "Ġchild": 1091,
      "Ġmovie": 1092,
      "member": 1093,
      "gest": 1094,
      "ject": 1095,
      "Ġmother": 1096,
      "Ġlist": 1097,
      "Ġdog": 1098,
      "Ġproble": 1099,
      "Ġdays": 1100,
      "Ġbelie": 1101,
      "Ġjanuary": 1102,
      "rest": 1103,
      "eral": 1104,
      "Ġparty": 1105,
      "Ġkeep": 1106,
      "Ġhand": 1107,
      "Ġsort": 1108,
      "ason": 1109,
      "Ġ193": 1110,
      "ail": 1111,
      "fran": 1112,
      "ling": 1113,
      "akes": 1114,
      "ful": 1115,
      "Ġair": 1116,
      "enty": 1117,
      "Ġform": 1118,
      "Ġroad": 1119,
      "bo": 1120,
      "Ġ6": 1121,
      "Ġsur": 1122,
      "Ġins": 1123,
      "Ġstr": 1124,
      "Ġdirect": 1125,
      "Ġfriend": 1126,
      "Ġsign": 1127,
      "Ġcap": 1128,
      "Ġmil": 1129,
      "Ġfun": 1130,
      "Ġacc": 1131,
      "Ġcal": 1132,
      "Ġinclud": 1133,
      "Ġgame": 1134,
      "Ġfew": 1135,
      "Ġbetter": 1136,
      "bably": 1137,
      "Ġsl": 1138,
      "ina": 1139,
      "ins": 1140,
      "ative": 1141,
      "Ġrel": 1142,
      "Ġdisc": 1143,
      "Ġdoubs": 1144,
      "Ġfigure": 1145,
      "Ġpopulation": 1146,
      "Ġplease": 1147,
      "iness": 1148,
      "Ġmom": 1149,
      "Ġfif": 1150,
      "llow": 1151,
      "Ġprof": 1152,
      "Ġoffic": 1153,
      "Ġpolitician": 1154,
      "Ġwait": 1155,
      "Ġperson": 1156,
      "ital": 1157,
      "Ġry": 1158,
      "ible": 1159,
      "Ġduring": 1160,
      "Ġfather": 1161,
      "olog": 1162,
      "Ġadd": 1163,
      "Ġterm": 1164,
      "Ġill": 1165,
      "Ġlater": 1166,
      "ansas": 1167,
      "cle": 1168,
      "Ġtoget": 1169,
      "stand": 1170,
      "eak": 1171,
      "Ġtogether": 1172,
      "vid": 1173,
      "Ġmind": 1174,
      "Ġsmall": 1175,
      "Ġdifferent": 1176,
      "Ġtown": 1177,
      "Ġnational": 1178,
      "Ġking": 1179,
      "ever": 1180,
      "Ġsy": 1181,
      "ants": 1182,
      "Ġtalking": 1183,
      "Ġfoot": 1184,
      "Ġbusiness": 1185,
      "con": 1186,
      "ged": 1187,
      "Ġmet": 1188,
      "Ġwithin": 1189,
      "ourg": 1190,
      "Ġelse": 1191,
      "Ġweek": 1192,
      "cess": 1193,
      "Ġ194": 1194,
      "Ġtele": 1195,
      "Ġleave": 1196,
      "Ġlocal": 1197,
      "Ġ10": 1198,
      "Ġass": 1199,
      "Ġdeath": 1200,
      "Ġwanted": 1201,
      "Ġuniversity": 1202,
      "ma": 1203,
      "vers": 1204,
      "who": 1205,
      "Ġmaj": 1206,
      ".\"": 1207,
      "mr": 1208,
      "Ġtre": 1209,
      "ones": 1210,
      "Ġcame": 1211,
      "Ġpo": 1212,
      "Ġteam": 1213,
      "ogne": 1214,
      "Ġlooking": 1215,
      "Ġgroup": 1216,
      "Ġopen": 1217,
      "ues": 1218,
      "Ġcer": 1219,
      "Ġbourg": 1220,
      "Ġfar": 1221,
      "Ġtold": 1222,
      "cept": 1223,
      "Ġblack": 1224,
      "form": 1225,
      "ret": 1226,
      "har": 1227,
      "Ġmat": 1228,
      "Ġmag": 1229,
      "ene": 1230,
      "Ġge": 1231,
      "Ġhalf": 1232,
      "ief": 1233,
      "Ġprop": 1234,
      "comte": 1235,
      "ho": 1236,
      "Ġsim": 1237,
      "Ġmed": 1238,
      "Ġever": 1239,
      "Ġkid": 1240,
      "Ġkansas": 1241,
      "Ġstud": 1242,
      "str": 1243,
      "Ġcoming": 1244,
      "Ġleft": 1245,
      "ex": 1246,
      "Ġsouth": 1247,
      "Ġremember": 1248,
      "Ġboy": 1249,
      "when": 1250,
      "franche": 1251,
      "Ġbourgogne": 1252,
      "hey": 1253,
      "Ġsen": 1254,
      "Ġpri": 1255,
      "ator": 1256,
      "Ġagainst": 1257,
      "pl": 1258,
      "Ġhear": 1259,
      "Ġsomeone": 1260,
      "Ġprofess": 1261,
      "min": 1262,
      "Ġeverything": 1263,
      "ublic": 1264,
      "ired": 1265,
      "vice": 1266,
      "Ġter": 1267,
      "Ġturn": 1268,
      "ley": 1269,
      "Ġlived": 1270,
      "Ġprobably": 1271,
      "Ġbelieve": 1272,
      "ford": 1273,
      "Ġson": 1274,
      "vember": 1275,
      "Ġeas": 1276,
      "Ġround": 1277,
      "Ġret": 1278,
      "ye": 1279,
      "Ġsing": 1280,
      "lly": 1281,
      "icul": 1282,
      "Ġeur": 1283,
      "amp": 1284,
      "Ġlive": 1285,
      "Ġresp": 1286,
      "cent": 1287,
      "ual": 1288,
      "Ġty": 1289,
      "Ġhealth": 1290,
      "Ġrele": 1291,
      "your": 1292,
      "raz": 1293,
      "Ġmaybe": 1294,
      "Ġwind": 1295,
      "Ġinte": 1296,
      "see": 1297,
      "ize": 1298,
      "Ġann": 1299,
      "Ġseen": 1300,
      "Ġsaw": 1301,
      "Ġmeans": 1302,
      "Ġunderstand": 1303,
      "uff": 1304,
      "Ġboth": 1305,
      "Ġhaven": 1306,
      "ution": 1307,
      "Ġstay": 1308,
      "Ġgetting": 1309,
      "Ġbrother": 1310,
      "mar": 1311,
      "Ġsuch": 1312,
      "Ġhist": 1313,
      "eter": 1314,
      "Ġchair": 1315,
      "ient": 1316,
      "rist": 1317,
      "Ġpap": 1318,
      "ask": 1319,
      "Ġnine": 1320,
      "ety": 1321,
      "Ġste": 1322,
      "ste": 1323,
      "ugust": 1324,
      "Ġseries": 1325,
      "ave": 1326,
      "may": 1327,
      "ham": 1328,
      "Ġbook": 1329,
      "Ġdad": 1330,
      "ished": 1331,
      "ets": 1332,
      "Ġspec": 1333,
      "Ġsettlement": 1334,
      "dy": 1335,
      "een": 1336,
      "ges": 1337,
      "Ġest": 1338,
      "Ġword": 1339,
      "Ġcens": 1340,
      "ott": 1341,
      "Ġnothing": 1342,
      "ump": 1343,
      "Ġnovember": 1344,
      "Ġtwenty": 1345,
      "ught": 1346,
      "Ġhappened": 1347,
      "Ġgreenbel": 1348,
      "hi": 1349,
      "have": 1350,
      "Ġcor": 1351,
      "ank": 1352,
      "Ġtom": 1353,
      "Ġnice": 1354,
      "Ġeach": 1355,
      "Ġkind": 1356,
      "Ġseven": 1357,
      "ife": 1358,
      "raph": 1359,
      "Ġgreenbelt": 1360,
      "of": 1361,
      "uh": 1362,
      "ready": 1363,
      "Ġsou": 1364,
      "Ġsug": 1365,
      "Ġbad": 1366,
      "Ġpass": 1367,
      "llo": 1368,
      "Ġiss": 1369,
      "ility": 1370,
      "Ġwhile": 1371,
      "Ġmarch": 1372,
      "Ġthank": 1373,
      "Ġwasn": 1374,
      "Ġalong": 1375,
      "rence": 1376,
      "20": 1377,
      "led": 1378,
      "va": 1379,
      "Ġsince": 1380,
      "inois": 1381,
      "Ġrest": 1382,
      "Ġshort": 1383,
      "rench": 1384,
      "Ġcommun": 1385,
      "Ġlaw": 1386,
      "Ġphil": 1387,
      "Ġstarted": 1388,
      "Ġtripp": 1389,
      "Ġjob": 1390,
      "Ġve": 1391,
      "Ġital": 1392,
      "Ġref": 1393,
      "Ġwouldn": 1394,
      "Ġext": 1395,
      "thern": 1396,
      "Ġbuild": 1397,
      "Ġjean": 1398,
      "Ġfootball": 1399,
      "rain": 1400,
      "Ġton": 1401,
      "Ġlab": 1402,
      "Ġhous": 1403,
      "cember": 1404,
      "vi": 1405,
      "Ġwin": 1406,
      "Ġfil": 1407,
      "orrow": 1408,
      "Ġpat": 1409,
      "Ġstre": 1410,
      "Ġdem": 1411,
      "teen": 1412,
      "Ġspeak": 1413,
      "Ġrecord": 1414,
      "ying": 1415,
      "hes": 1416,
      "Ġball": 1417,
      "Ġformer": 1418,
      "ters": 1419,
      "Ġalready": 1420,
      "ounds": 1421,
      "Ġcensus": 1422,
      "ai": 1423,
      "ced": 1424,
      "duc": 1425,
      "vious": 1426,
      "Ġent": 1427,
      "Ġfood": 1428,
      "Ġhour": 1429,
      "stit": 1430,
      "Ġleg": 1431,
      "Ġprot": 1432,
      "Ġhard": 1433,
      "Ġillinois": 1434,
      "sw": 1435,
      "Ġur": 1436,
      "Ġauth": 1437,
      "Ġfrench": 1438,
      "iter": 1439,
      "Ġmove": 1440,
      "Ġelect": 1441,
      "Ġgovernor": 1442,
      "Ġtelevision": 1443,
      "ral": 1444,
      "ze": 1445,
      "Ġbed": 1446,
      "Ġdra": 1447,
      "ash": 1448,
      "ats": 1449,
      "Ġrequ": 1450,
      "ount": 1451,
      "Ġcommit": 1452,
      "Ġenough": 1453,
      "Ġplayed": 1454,
      "Ġcertain": 1455,
      "mb": 1456,
      "Ġbro": 1457,
      "Ġmill": 1458,
      "Ġhaving": 1459,
      "ional": 1460,
      "Ġwithout": 1461,
      "Ġorgan": 1462,
      "Ġlead": 1463,
      "Ġworked": 1464,
      "Ġmonth": 1465,
      "Ġuk": 1466,
      "Ġdevelopment": 1467,
      "john": 1468,
      "Ġaugust": 1469,
      "Ġbir": 1470,
      "ese": 1471,
      "Ġinter": 1472,
      "Ġtook": 1473,
      "Ġfrog": 1474,
      "resent": 1475,
      "Ġrepresent": 1476,
      "Ġ2022": 1477,
      "Ġauthor": 1478,
      "co": 1479,
      "came": 1480,
      "Ġmain": 1481,
      "Ġnin": 1482,
      "aye": 1483,
      "Ġ192": 1484,
      "Ġalright": 1485,
      "Ġart": 1486,
      "Ġroom": 1487,
      "Ġminister": 1488,
      "Ġsupport": 1489,
      "Ġcountry": 1490,
      "ipp": 1491,
      "with": 1492,
      "Ġ]": 1493,
      "Ġaward": 1494,
      "orge": 1495,
      "ature": 1496,
      "Ġbecame": 1497,
      "Ġrem": 1498,
      "Ġcanad": 1499,
      "Ġmusic": 1500,
      "lish": 1501,
      "here": 1502,
      "Ġwoman": 1503,
      "Ġpay": 1504,
      "its": 1505,
      "then": 1506,
      "Ġ17": 1507,
      "ists": 1508,
      "Ġdef": 1509,
      "Ġdecember": 1510,
      "ried": 1511,
      "ell": 1512,
      "side": 1513,
      "would": 1514,
      "Ġpos": 1515,
      "ural": 1516,
      "Ġsho": 1517,
      "Ġgovernment": 1518,
      "Ġvillage": 1519,
      "fr": 1520,
      "hm": 1521,
      "Ġwater": 1522,
      "Ġbab": 1523,
      "Ġtop": 1524,
      "Ġgl": 1525,
      "Ġriver": 1526,
      "Ġval": 1527,
      "Ġgotta": 1528,
      "Ġgrand": 1529,
      "Ġworking": 1530,
      "ï¿½ï¿½ï¿½ï¿½": 1531,
      "angu": 1532,
      "Ġinterest": 1533,
      "gen": 1534,
      "uct": 1535,
      "Ġmic": 1536,
      "Ġinc": 1537,
      "Ġear": 1538,
      "Ġstand": 1539,
      "Ġ16": 1540,
      "because": 1541,
      "ey": 1542,
      "some": 1543,
      "Ġswe": 1544,
      "Ġfield": 1545,
      "Ġhope": 1546,
      "rap": 1547,
      "Ġreport": 1548,
      "Ġidea": 1549,
      "Ġchildren": 1550,
      "gue": 1551,
      "ric": 1552,
      "Ġtimes": 1553,
      "Ġwalk": 1554,
      "Ġcos": 1555,
      "anny": 1556,
      "Ġmur": 1557,
      "Ġposs": 1558,
      "Ġforward": 1559,
      "Ġparticul": 1560,
      "Ġwhole": 1561,
      "gg": 1562,
      "gress": 1563,
      "ike": 1564,
      "rop": 1565,
      "hen": 1566,
      "Ġfair": 1567,
      "Ġpie": 1568,
      "Ġyoun": 1569,
      "atic": 1570,
      "Ġheart": 1571,
      "Ġruss": 1572,
      "ams": 1573,
      "Ġprov": 1574,
      "Ġguess": 1575,
      "Ġattack": 1576,
      "vill": 1577,
      "Ġes": 1578,
      "Ġsci": 1579,
      "Ġmid": 1580,
      "ortant": 1581,
      "Ġtrans": 1582,
      "Ġbrit": 1583,
      "Ġasked": 1584,
      "aw": 1585,
      "Ġmm": 1586,
      "als": 1587,
      "ote": 1588,
      "urg": 1589,
      "tee": 1590,
      "new": 1591,
      "Ġeurope": 1592,
      "ned": 1593,
      "Ġap": 1594,
      "Ġintern": 1595,
      "Ġthough": 1596,
      "Ġgoes": 1597,
      "aint": 1598,
      "Ġprodu": 1599,
      "Ġ2011": 1600,
      "Ġchange": 1601,
      "Ġfollow": 1602,
      "oice": 1603,
      "Ġwan": 1604,
      "Ġsk": 1605,
      "Ġsal": 1606,
      "Ġcou": 1607,
      "Ġox": 1608,
      "ised": 1609,
      "Ġjura": 1610,
      "Ġ11": 1611,
      "Ġdel": 1612,
      "Ġvie": 1613,
      "que": 1614,
      "Ġago": 1615,
      "Ġcoll": 1616,
      "Ġspecial": 1617,
      "Ġimportant": 1618,
      "maybe": 1619,
      "ium": 1620,
      "jo": 1621,
      "Ġwest": 1622,
      "Ġpast": 1623,
      "ita": 1624,
      "Ġlangu": 1625,
      "Ġrid": 1626,
      "Ġnear": 1627,
      "Ġconf": 1628,
      "ully": 1629,
      "Ġgeneral": 1630,
      "every": 1631,
      "iam": 1632,
      "nes": 1633,
      "nord": 1634,
      "Ġhum": 1635,
      "Ġ14": 1636,
      "wel": 1637,
      "Ġservice": 1638,
      "comm": 1639,
      "Ġdrink": 1640,
      "ocr": 1641,
      "Ġterr": 1642,
      "mhm": 1643,
      "Ġtest": 1644,
      "Ġcut": 1645,
      "Ġmen": 1646,
      "Ġmaking": 1647,
      "Ġoften": 1648,
      "ices": 1649,
      "ctor": 1650,
      "ribut": 1651,
      "ages": 1652,
      "actly": 1653,
      "Ġcouldn": 1654,
      "Ġguy": 1655,
      "Ġvaudois": 1656,
      "Ġfifty": 1657,
      "cc": 1658,
      "hip": 1659,
      "lin": 1660,
      "port": 1661,
      "ya": 1662,
      "ÌĢ": 1663,
      "Ġwife": 1664,
      "edale": 1665,
      "Ġgone": 1666,
      "Ġhur": 1667,
      "Ġbecome": 1668,
      "Ġemp": 1669,
      "ention": 1670,
      "Ġstar": 1671,
      "urs": 1672,
      "ster": 1673,
      "ption": 1674,
      "Ġenglish": 1675,
      "Ġcurrent": 1676,
      "Ġryedale": 1677,
      "conom": 1678,
      "tw": 1679,
      "work": 1680,
      "Ġtra": 1681,
      "haps": 1682,
      "Ġcase": 1683,
      "ither": 1684,
      "Ġgerm": 1685,
      "Ġonce": 1686,
      "Ġjoin": 1687,
      "Ġbring": 1688,
      "Ġindian": 1689,
      "bruary": 1690,
      "Ġaw": 1691,
      "ange": 1692,
      "Ġmer": 1693,
      "Ġdar": 1694,
      "Ġexper": 1695,
      "aken": 1696,
      "Ġcompany": 1697,
      "Ġwrong": 1698,
      "ughter": 1699,
      "Ġview": 1700,
      "aut": 1701,
      "ives": 1702,
      "most": 1703,
      "ove": 1704,
      "Ġ$": 1705,
      "Ġside": 1706,
      "inc": 1707,
      "Ġbody": 1708,
      "Ġhon": 1709,
      "Ġhot": 1710,
      "osp": 1711,
      "ury": 1712,
      "Ġdoor": 1713,
      "sel": 1714,
      "Ġdead": 1715,
      "Ġable": 1716,
      "Ġcomes": 1717,
      "Ġchief": 1718,
      "Ġlaura": 1719,
      "like": 1720,
      "Ġclearly": 1721,
      "Ġregion": 1722,
      "Ġproblems": 1723,
      "Ġterms": 1724,
      "Ġpaper": 1725,
      "viously": 1726,
      "Ġwanna": 1727,
      "Ġsat": 1728,
      "Ġsir": 1729,
      "inal": 1730,
      "Ġbased": 1731,
      "Ġpen": 1732,
      "Ġlost": 1733,
      "ower": 1734,
      "ida": 1735,
      "Ġread": 1736,
      "Ġ12": 1737,
      "oof": 1738,
      "Ġfront": 1739,
      "ilt": 1740,
      "oles": 1741,
      "Ġminute": 1742,
      "Ġtrying": 1743,
      "Ġreleased": 1744,
      "Ġtomorrow": 1745,
      "Ġsuggest": 1746,
      "cos": 1747,
      "Ġsong": 1748,
      "ern": 1749,
      "Ġfine": 1750,
      "Ġline": 1751,
      "Ġchrist": 1752,
      "Ġblood": 1753,
      "Ġcreated": 1754,
      "Ġmillion": 1755,
      "app": 1756,
      "cuse": 1757,
      "gu": 1758,
      "less": 1759,
      "med": 1760,
      "ped": 1761,
      "ron": 1762,
      "Ġ-": 1763,
      "Ġsun": 1764,
      "Ġcup": 1765,
      "Ġbas": 1766,
      "Ġbill": 1767,
      "Ġless": 1768,
      "ald": 1769,
      "Ġjune": 1770,
      "oph": 1771,
      "Ġdeal": 1772,
      "Ġ2014": 1773,
      "ney": 1774,
      "Ġrock": 1775,
      "Ġguys": 1776,
      "000": 1777,
      "Ġcharac": 1778,
      "Ġitalian": 1779,
      "Ġukrain": 1780,
      "af": 1781,
      "sp": 1782,
      "was": 1783,
      "ane": 1784,
      "Ġoper": 1785,
      "Ġface": 1786,
      "Ġint": 1787,
      "Ġreason": 1788,
      "amed": 1789,
      "Ġ15": 1790,
      "Ġwhite": 1791,
      "Ġvar": 1792,
      "Ġvict": 1793,
      "Ġorder": 1794,
      "Ġthirty": 1795,
      "Ġproblem": 1796,
      "Ġdiscuss": 1797,
      "Ġstreet": 1798,
      "got": 1799,
      "ik": 1800,
      "mon": 1801,
      "men": 1802,
      "mond": 1803,
      "ux": 1804,
      "ÌĪ": 1805,
      "Ġpick": 1806,
      "estern": 1807,
      "Ġansw": 1808,
      "Ġgave": 1809,
      "ica": 1810,
      "Ġhell": 1811,
      "Ġhosp": 1812,
      "Ġring": 1813,
      "iron": 1814,
      "iforn": 1815,
      "Ġthinking": 1816,
      "Ġpark": 1817,
      "Ġsites": 1818,
      "Ġtonight": 1819,
      "Ġbaby": 1820,
      "ging": 1821,
      "ris": 1822,
      "sur": 1823,
      "will": 1824,
      "rew": 1825,
      "ines": 1826,
      "Ġmod": 1827,
      "Ġdri": 1828,
      "aring": 1829,
      "ula": 1830,
      "ified": 1831,
      "Ġrepublic": 1832,
      "Ġcaliforn": 1833,
      "ared": 1834,
      "Ġsum": 1835,
      "Ġpot": 1836,
      "Ġyet": 1837,
      "Ġlou": 1838,
      "Ġeconom": 1839,
      "Ġ2017": 1840,
      "Ġagree": 1841,
      "Ġfebruary": 1842,
      "Ġoffice": 1843,
      "which": 1844,
      "thanks": 1845,
      "please": 1846,
      "Ġpret": 1847,
      "Ġgiven": 1848,
      "mo": 1849,
      "tr": 1850,
      "viron": 1851,
      "Ġsent": 1852,
      "hael": 1853,
      "Ġpal": 1854,
      "Ġpost": 1855,
      "omen": 1856,
      "icult": 1857,
      "Ġeat": 1858,
      "Ġearly": 1859,
      "Ġsell": 1860,
      "ately": 1861,
      "ograph": 1862,
      "Ġcolle": 1863,
      "ized": 1864,
      "Ġsecret": 1865,
      "Ġbuy": 1866,
      "Ġmajor": 1867,
      "Ġrequire": 1868,
      "Ġcommittee": 1869,
      "Ġcalifornia": 1870,
      "ffe": 1871,
      "ration": 1872,
      "sha": 1873,
      "sorry": 1874,
      "uit": 1875,
      "Ġtaken": 1876,
      "Ġsle": 1877,
      "Ġsend": 1878,
      "Ġbase": 1879,
      "Ġmot": 1880,
      "Ġport": 1881,
      "Ġng": 1882,
      "Ġanyway": 1883,
      "Ġlevel": 1884,
      "Ġactor": 1885,
      "Ġphone": 1886,
      "Ġpresent": 1887,
      "Ġexpect": 1888,
      "Ġbreak": 1889,
      "Ġdemocr": 1890,
      "Ġhospital": 1891,
      "ax": 1892,
      "ov": 1893,
      "Ġsol": 1894,
      "Ġmakes": 1895,
      "Ġdam": 1896,
      "Ġfore": 1897,
      "ories": 1898,
      "icy": 1899,
      "ush": 1900,
      "used": 1901,
      "Ġhit": 1902,
      "eth": 1903,
      "utes": 1904,
      "ample": 1905,
      "ooh": 1906,
      "Ġaren": 1907,
      "Ġmark": 1908,
      "Ġhappy": 1909,
      "Ġdesign": 1910,
      "Ġmeeting": 1911,
      "minist": 1912,
      "Ġbirth": 1913,
      "Ġyoung": 1914,
      "cut": 1915,
      "dle": 1916,
      "gy": 1917,
      "more": 1918,
      "ras": 1919,
      "Ġtap": 1920,
      "Ġsar": 1921,
      "Ġfur": 1922,
      "Ġpage": 1923,
      "Ġhi": 1924,
      "Ġbeaut": 1925,
      "Ġstep": 1926,
      "Ġstuff": 1927,
      "Ġ(;": 1928,
      "iful": 1929,
      "Ġprom": 1930,
      "Ġenviron": 1931,
      "Ġexpl": 1932,
      "Ġelection": 1933,
      "Ġissue": 1934,
      "Ġcouple": 1935,
      "Ġoxford": 1936,
      "Ġlanguage": 1937,
      "car": 1938,
      "sy": 1939,
      "Ġah": 1940,
      "Ġsan": 1941,
      "Ġcost": 1942,
      "Ġnat": 1943,
      "Ġheard": 1944,
      "aces": 1945,
      "Ġvis": 1946,
      "Ġprogr": 1947,
      "Ġproduc": 1948,
      "Ġwants": 1949,
      "Ġminutes": 1950,
      "Ġappro": 1951,
      "Ġclear": 1952,
      "Ġhousing": 1953,
      "Ġenvironment": 1954,
      "cri": 1955,
      "oor": 1956,
      "wait": 1957,
      "ĠâĢ": 1958,
      "Ġsil": 1959,
      "Ġmess": 1960,
      "Ġfull": 1961,
      "ically": 1962,
      "ows": 1963,
      "Ġhey": 1964,
      "iday": 1965,
      "Ġstra": 1966,
      "Ġ23": 1967,
      "chn": 1968,
      "Ġalb": 1969,
      "Ġusually": 1970,
      "Ġconstit": 1971,
      "els": 1972,
      "Ġshop": 1973,
      "Ġproject": 1974,
      "Ġ2016": 1975,
      "Ġcontin": 1976,
      "Ġcontro": 1977,
      "Ġlovely": 1978,
      "Ġdaughter": 1979,
      "Ġfigures": 1980,
      "Ġkilled": 1981,
      "ler": 1982,
      "ness": 1983,
      "Ġwatch": 1984,
      "Ġmad": 1985,
      "Ġopp": 1986,
      "Ġbeg": 1987,
      "Ġri": 1988,
      "Ġready": 1989,
      "acy": 1990,
      "Ġ24": 1991,
      "Ġ2013": 1992,
      "Ġexactly": 1993,
      "Ġbuilt": 1994,
      "Ġquestions": 1995,
      "Ġhold": 1996,
      "Ġdirector": 1997,
      "Ġmoment": 1998,
      "201": 1999,
      "Ġcommunity": 2000,
      "Ġfilm": 2001,
      "Ġprotect": 2002,
      "Ġcanada": 2003,
      "aha": 2004,
      "bor": 2005,
      "den": 2006,
      "fl": 2007,
      "ted": 2008,
      "take": 2009,
      "Ġhat": 2010,
      "ering": 2011,
      "Ġdate": 2012,
      "ism": 2013,
      "Ġlight": 2014,
      "Ġev": 2015,
      "Ġ()": 2016,
      "esty": 2017,
      "Ġsoon": 2018,
      "Ġwhether": 2019,
      "âĢĻ": 2020,
      "Ġadminist": 2021,
      "itting": 2022,
      "Ġsometimes": 2023,
      "Ġdiff": 2024,
      "Ġbritish": 2025,
      "Ġpretty": 2026,
      "chan": 2027,
      "ja": 2028,
      "Ġbraz": 2029,
      "Ġdin": 2030,
      "Ġdet": 2031,
      "Ġgar": 2032,
      "Ġevent": 2033,
      "Ġjames": 2034,
      "ama": 2035,
      "Ġ21": 2036,
      "Ġsex": 2037,
      "Ġorig": 2038,
      "ucking": 2039,
      "Ġ30": 2040,
      "Ġlarge": 2041,
      "dr": 2042,
      "pro": 2043,
      "sure": 2044,
      "Ġtaking": 2045,
      "Ġmart": 2046,
      "Ġfree": 2047,
      "Ġ25": 2048,
      "Ġgets": 2049,
      "Ġgros": 2050,
      "Ġworks": 2051,
      "Ġworth": 2052,
      "Ġcheck": 2053,
      "last": 2054,
      "por": 2055,
      "ract": 2056,
      "Ġver": 2057,
      "Ġtable": 2058,
      "head": 2059,
      "Ġsqu": 2060,
      "Ġocc": 2061,
      "Ġfight": 2062,
      "iting": 2063,
      "aymond": 2064,
      "Ġknew": 2065,
      "Ġrece": 2066,
      "Ġgold": 2067,
      "Ġliving": 2068,
      "ains": 2069,
      "Ġtex": 2070,
      "itten": 2071,
      "Ġnorm": 2072,
      "Ġchance": 2073,
      "Ġcareer": 2074,
      "Ġinvol": 2075,
      "Ġlisten": 2076,
      "Ġsouthern": 2077,
      "Ġcertainly": 2078,
      "Ġbrazil": 2079,
      "ele": 2080,
      "je": 2081,
      "ring": 2082,
      "sol": 2083,
      "uation": 2084,
      "vaud": 2085,
      "hello": 2086,
      "Ġsand": 2087,
      "Ġmud": 2088,
      "Ġmult": 2089,
      "Ġfed": 2090,
      "Ġpeter": 2091,
      "Ġlate": 2092,
      "Ġhen": 2093,
      "Ġhig": 2094,
      "Ġegg": 2095,
      "Ġstory": 2096,
      "Ġ13": 2097,
      "Ġprime": 2098,
      "Ġcold": 2099,
      "Ġpercent": 2100,
      "Ġbox": 2101,
      "Ġrepl": 2102,
      "wards": 2103,
      "Ġmembers": 2104,
      "Ġgirls": 2105,
      "Ġhistor": 2106,
      "Ġanswer": 2107,
      "iod": 2108,
      "pect": 2109,
      "ency": 2110,
      "Ġpubl": 2111,
      "Ġlos": 2112,
      "Ġlim": 2113,
      "Ġlady": 2114,
      "omas": 2115,
      "alright": 2116,
      "uture": 2117,
      "ird": 2118,
      "Ġlives": 2119,
      "Ġ2018": 2120,
      "Ġoutside": 2121,
      "Ġtechn": 2122,
      "ference": 2123,
      "Ġtrain": 2124,
      "Ġcoffe": 2125,
      "Ġclose": 2126,
      "Ġclass": 2127,
      "Ġperhaps": 2128,
      "Ġplaying": 2129,
      "Ġleague": 2130,
      "Ġsupposed": 2131,
      "Ġfriends": 2132,
      "Ġbuilding": 2133,
      "Ġcharacter": 2134,
      "Ġbeautiful": 2135,
      "Ġtexas": 2136,
      "cu": 2137,
      "eed": 2138,
      "gar": 2139,
      "ka": 2140,
      "miss": 2141,
      "tis": 2142,
      "time": 2143,
      "Ġx": 2144,
      "Ġtar": 2145,
      "Ġwood": 2146,
      "reed": 2147,
      "Ġbat": 2148,
      "Ġbought": 2149,
      "Ġmach": 2150,
      "Ġfall": 2151,
      "Ġfish": 2152,
      "Ġnamed": 2153,
      "Ġisland": 2154,
      "Ġbeh": 2155,
      "Ġrather": 2156,
      "unt": 2157,
      "ament": 2158,
      "Ġyourself": 2159,
      "tell": 2160,
      "Ġ2012": 2161,
      "Ġseem": 2162,
      "Ġsomebody": 2163,
      "aker": 2164,
      "Ġrobert": 2165,
      "ched": 2166,
      "Ġdistricts": 2167,
      "Ġgeorge": 2168,
      "Ġprofessional": 2169,
      "Ġrussian": 2170,
      "Ġjoined": 2171,
      "after": 2172,
      "Ġcollege": 2173,
      "Ġdifficult": 2174,
      "Ġcoffee": 2175,
      "\")": 2176,
      "cul": 2177,
      "tal": 2178,
      "ouch": 2179,
      "Ġwomen": 2180,
      "ined": 2181,
      "Ġdwell": 2182,
      "eng": 2183,
      "ots": 2184,
      "aced": 2185,
      "veral": 2186,
      "stop": 2187,
      "room": 2188,
      "iff": 2189,
      "Ġusing": 2190,
      "Ġchur": 2191,
      "Ġlear": 2192,
      "Ġ2021": 2193,
      "Ġhappens": 2194,
      "Ġcross": 2195,
      "Ġconsum": 2196,
      "Ġident": 2197,
      "Ġprofessor": 2198,
      "Ġtype": 2199,
      "Ġhistory": 2200,
      "ville": 2201,
      "Ġbehind": 2202,
      "fer": 2203,
      "give": 2204,
      "ii": 2205,
      "ived": 2206,
      "nie": 2207,
      "Ġav": 2208,
      "Ġain": 2209,
      "Ġimm": 2210,
      "really": 2211,
      "ery": 2212,
      "Ġcast": 2213,
      "Ġpack": 2214,
      "Ġya": 2215,
      "Ġinform": 2216,
      "Ġrad": 2217,
      "ided": 2218,
      "Ġred": 2219,
      "Ġjud": 2220,
      "Ġstage": 2221,
      "Ġnews": 2222,
      "Ġactress": 2223,
      "Ġdistribut": 2224,
      "Ġneeds": 2225,
      "ondon": 2226,
      "Ġperfect": 2227,
      "Ġperiod": 2228,
      "Ġaccept": 2229,
      "Ġwritten": 2230,
      "Ġjohnson": 2231,
      "Ġweeks": 2232,
      "Ġengine": 2233,
      "Ġinvest": 2234,
      "ology": 2235,
      "Ġmajesty": 2236,
      "Ġkids": 2237,
      "Ġmonths": 2238,
      "Ġprogram": 2239,
      "ban": 2240,
      "des": 2241,
      "ross": 2242,
      "sa": 2243,
      "ÌĮ": 2244,
      "âĻ": 2245,
      "Ġim": 2246,
      "Ġcard": 2247,
      "Ġcorn": 2248,
      "Ġband": 2249,
      "Ġbur": 2250,
      "Ġfill": 2251,
      "Ġpress": 2252,
      "Ġange": 2253,
      "Ġgames": 2254,
      "arch": 2255,
      "Ġeither": 2256,
      "ider": 2257,
      "Ġfort": 2258,
      "ooper": 2259,
      "Ġconcer": 2260,
      "Ġexample": 2261,
      "Ġtrue": 2262,
      "Ġmarried": 2263,
      "Ġobviously": 2264,
      "Ġthird": 2265,
      "Ġtreat": 2266,
      "hold": 2267,
      "Ġannoun": 2268,
      "Ġposition": 2269,
      "Ġpossible": 2270,
      "Ġcollect": 2271,
      "two": 2272,
      "selves": 2273,
      "Ġalbum": 2274,
      "solute": 2275,
      "âĻª": 2276,
      "burg": 2277,
      "da": 2278,
      "gre": 2279,
      "iot": 2280,
      "lar": 2281,
      "uk": 2282,
      "uz": 2283,
      "vies": 2284,
      "Ġsister": 2285,
      "ino": 2286,
      "ert": 2287,
      "Ġdanny": 2288,
      "Ġfire": 2289,
      "Ġlord": 2290,
      "Ġones": 2291,
      "Ġseason": 2292,
      "Ġcancer": 2293,
      "Ġalmost": 2294,
      "Ġallow": 2295,
      "Ġ2010": 2296,
      "Ġspend": 2297,
      "Ġmunicipalities": 2298,
      "bye": 2299,
      "Ġmatter": 2300,
      "Ġinternational": 2301,
      "Ġukraine": 2302,
      "Ġstraight": 2303,
      "band": 2304,
      "could": 2305,
      "fair": 2306,
      "van": 2307,
      "Ġsound": 2308,
      "Ġsite": 2309,
      "Ġcat": 2310,
      "Ġcamp": 2311,
      "aster": 2312,
      "Ġjack": 2313,
      "andy": 2314,
      "Ġ28": 2315,
      "Ġareas": 2316,
      "Ġdear": 2317,
      "Ġvi": 2318,
      "Ġvol": 2319,
      "umb": 2320,
      "Ġtemp": 2321,
      "Ġseems": 2322,
      "Ġagent": 2323,
      "Ġtruck": 2324,
      "Ġrole": 2325,
      "idered": 2326,
      "Ġwonder": 2327,
      "Ġcourt": 2328,
      "Ġconsidered": 2329,
      "Ġpopular": 2330,
      "Ġpolitical": 2331,
      "Ġdecis": 2332,
      "Ġcapital": 2333,
      "hard": 2334,
      "Ġreturn": 2335,
      "Ġauthority": 2336,
      "Ġprovince": 2337,
      "Ġsleep": 2338,
      "Ġchurch": 2339,
      "solutely": 2340,
      "ially": 2341,
      "somet": 2342,
      "Ġwish": 2343,
      "ination": 2344,
      "Ġbag": 2345,
      "Ġden": 2346,
      "orat": 2347,
      "Ġpur": 2348,
      "Ġpict": 2349,
      "Ġhor": 2350,
      "Ġequ": 2351,
      "Ġmex": 2352,
      "Ġdoctor": 2353,
      "Ġseat": 2354,
      "rian": 2355,
      "Ġpract": 2356,
      "Ġbrought": 2357,
      "Ġcommon": 2358,
      "Ġclot": 2359,
      "Ġparent": 2360,
      "Ġofficial": 2361,
      "excuse": 2362,
      "Ġeasy": 2363,
      "Ġmichael": 2364,
      "Ġlouis": 2365,
      "Ġdwellings": 2366,
      "ding": 2367,
      "ered": 2368,
      "field": 2369,
      "his": 2370,
      "pre": 2371,
      "sk": 2372,
      "Ġaust": 2373,
      "Ġcy": 2374,
      "Ġmass": 2375,
      "Ġfuture": 2376,
      "Ġpublic": 2377,
      "Ġlondon": 2378,
      "Ġbegan": 2379,
      "Ġru": 2380,
      "Ġstat": 2381,
      "urday": 2382,
      "Ġsevent": 2383,
      "Ġseveral": 2384,
      "Ġtherefore": 2385,
      "ourn": 2386,
      "Ġcomb": 2387,
      "ries": 2388,
      "elt": 2389,
      "ude": 2390,
      "Ġquick": 2391,
      "Ġtrump": 2392,
      "ogn": 2393,
      "cially": 2394,
      "Ġmovies": 2395,
      "ches": 2396,
      "ucky": 2397,
      "Ġserved": 2398,
      "Ġlaug": 2399,
      "Ġacross": 2400,
      "Ġkeith": 2401,
      "Ġmont": 2402,
      "Ġclean": 2403,
      "Ġmrs": 2404,
      "Ġplanning": 2405,
      "Ġmiles": 2406,
      "Ġspecies": 2407,
      "Ġelected": 2408,
      "from": 2409,
      "Ġsweet": 2410,
      "Ġscient": 2411,
      "Ġdemocratic": 2412,
      "night": 2413,
      "par": 2414,
      "ured": 2415,
      "west": 2416,
      "ream": 2417,
      "Ġsus": 2418,
      "Ġcop": 2419,
      "anc": 2420,
      "Ġben": 2421,
      "Ġooh": 2422,
      "Ġdie": 2423,
      "esus": 2424,
      "ison": 2425,
      "Ġkit": 2426,
      "Ġmyself": 2427,
      "ability": 2428,
      "Ġ2015": 2429,
      "Ġperform": 2430,
      "Ġphys": 2431,
      "Ġedge": 2432,
      "Ġsituation": 2433,
      "Ġrunning": 2434,
      "Ġgroups": 2435,
      "Ġpersonal": 2436,
      "vidence": 2437,
      "Ġspecific": 2438,
      "Ġestim": 2439,
      "Ġorganis": 2440,
      "Ġparticular": 2441,
      "welve": 2442,
      "Ġdinner": 2443,
      "bi": 2444,
      "god": 2445,
      "king": 2446,
      "Ġsn": 2447,
      "Ġsuc": 2448,
      "Ġmine": 2449,
      "Ġlat": 2450,
      "Ġep": 2451,
      "Ġjose": 2452,
      "cell": 2453,
      "Ġwhatever": 2454,
      "ored": 2455,
      "Ġqueen": 2456,
      "Ġclub": 2457,
      "Ġcomple": 2458,
      "Ġcomput": 2459,
      "Ġtelling": 2460,
      "Ġeverybody": 2461,
      "Ġresult": 2462,
      "Ġscr": 2463,
      "Ġdrop": 2464,
      "view": 2465,
      "Ġeduc": 2466,
      "Ġengland": 2467,
      "Ġcolor": 2468,
      "aff": 2469,
      "ior": 2470,
      "lic": 2471,
      "sc": 2472,
      "Ġtim": 2473,
      "Ġtwelve": 2474,
      "hal": 2475,
      "Ġdu": 2476,
      "enny": 2477,
      "usband": 2478,
      "Ġevidence": 2479,
      "cel": 2480,
      "Ġvice": 2481,
      "Ġalone": 2482,
      "Ġanyone": 2483,
      "Ġwilliam": 2484,
      "Ġaffect": 2485,
      "Ġcarry": 2486,
      "Ġhappening": 2487,
      "Ġaccident": 2488,
      "Ġinclude": 2489,
      "Ġterrit": 2490,
      "Ġsummer": 2491,
      "Ġtape": 2492,
      "aur": 2493,
      "bl": 2494,
      "iet": 2495,
      "ns": 2496,
      "over": 2497,
      "oke": 2498,
      "patch": 2499,
      "water": 2500,
      "yon": 2501,
      "Ġdue": 2502,
      "Ġpatch": 2503,
      "Ġgas": 2504,
      "owling": 2505,
      "Ġhill": 2506,
      "ung": 2507,
      "unch": 2508,
      "amer": 2509,
      "Ġmel": 2510,
      "Ġ27": 2511,
      "Ġ29": 2512,
      "upid": 2513,
      "terday": 2514,
      "Ġanybody": 2515,
      "Ġlooks": 2516,
      "Ġpolicy": 2517,
      "Ġnorthern": 2518,
      "Ġasking": 2519,
      "pecially": 2520,
      "Ġparis": 2521,
      "Ġdavid": 2522,
      "Ġfeeling": 2523,
      "Ġcentral": 2524,
      "Ġpaul": 2525,
      "Ġsurpr": 2526,
      "Ġwaiting": 2527,
      "Ġmagic": 2528,
      "Ġextra": 2529,
      "Ġshoes": 2530,
      "Ġpiece": 2531,
      "Ġmiddle": 2532,
      "Ġeuropean": 2533,
      "Ġgermany": 2534,
      "Ġconstitution": 2535,
      "fall": 2536,
      "wood": 2537,
      "hel": 2538,
      "Ġcry": 2539,
      "Ġcook": 2540,
      "Ġcooper": 2541,
      "Ġbene": 2542,
      "Ġoly": 2543,
      "itive": 2544,
      "ata": 2545,
      "ico": 2546,
      "Ġitem": 2547,
      "ales": 2548,
      "Ġroles": 2549,
      "uty": 2550,
      "Ġjul": 2551,
      "osh": 2552,
      "Ġ22": 2553,
      "Ġvoice": 2554,
      "riend": 2555,
      "iana": 2556,
      "Ġfell": 2557,
      "Ġmoved": 2558,
      "Ġworry": 2559,
      "does": 2560,
      "Ġphot": 2561,
      "Ġ2005": 2562,
      "shire": 2563,
      "Ġfinished": 2564,
      "Ġcurtis": 2565,
      "Ġdirected": 2566,
      "Ġfunny": 2567,
      "Ġaddition": 2568,
      "Ġrefer": 2569,
      "Ġsaturday": 2570,
      "Ġcontrol": 2571,
      "Ġannounced": 2572,
      "Ġolymp": 2573,
      "cher": 2574,
      "fo": 2575,
      "fort": 2576,
      "ience": 2577,
      "nel": 2578,
      "put": 2579,
      "uel": 2580,
      "Ġtouch": 2581,
      "Ġwestern": 2582,
      "Ġber": 2583,
      "Ġmention": 2584,
      "Ġpet": 2585,
      "Ġnon": 2586,
      "Ġran": 2587,
      "ential": 2588,
      "Ġforty": 2589,
      "stem": 2590,
      "ilar": 2591,
      "sey": 2592,
      "Ġ(\"": 2593,
      "raid": 2594,
      "raft": 2595,
      "Ġfeet": 2596,
      "Ġtrust": 2597,
      "aret": 2598,
      "Ġcover": 2599,
      "Ġchamp": 2600,
      "Ġhowever": 2601,
      "Ġthanks": 2602,
      "Ġperu": 2603,
      "Ġserious": 2604,
      "Ġkey": 2605,
      "people": 2606,
      "ointed": 2607,
      "nothing": 2608,
      "Ġshall": 2609,
      "Ġcharge": 2610,
      "Ġevening": 2611,
      "Ġlocated": 2612,
      "Ġgener": 2613,
      "Ġgiving": 2614,
      "Ġsigned": 2615,
      "Ġsenate": 2616,
      "Ġprize": 2617,
      "Ġretired": 2618,
      "Ġsinger": 2619,
      "Ġhours": 2620,
      "Ġninety": 2621,
      "Ġmurder": 2622,
      "Ġhuman": 2623,
      "Ġhenry": 2624,
      "Ġinformation": 2625,
      "18": 2626,
      "ecut": 2627,
      "pa": 2628,
      "Ìĥ": 2629,
      "Ġtha": 2630,
      "Ġtill": 2631,
      "erv": 2632,
      "Ġod": 2633,
      "Ġdun": 2634,
      "Ġfac": 2635,
      "Ġfly": 2636,
      "orth": 2637,
      "Ġpull": 2638,
      "Ġpower": 2639,
      "Ġgh": 2640,
      "Ġled": 2641,
      "Ġthomas": 2642,
      "Ġeyes": 2643,
      "Ġrace": 2644,
      "Ġroman": 2645,
      "Ġjer": 2646,
      "Ġstupid": 2647,
      "key": 2648,
      "iment": 2649,
      "Ġ26": 2650,
      "Ġsel": 2651,
      "Ġfriday": 2652,
      "Ġnecess": 2653,
      "ards": 2654,
      "Ġexecut": 2655,
      "Ġarmy": 2656,
      "Ġtruth": 2657,
      "Ġpartner": 2658,
      "Ġlooked": 2659,
      "Ġyesterday": 2660,
      "ilda": 2661,
      "Ġplayer": 2662,
      "Ġamerica": 2663,
      "Ġindust": 2664,
      "Ġrecogn": 2665,
      "199": 2666,
      "Ġdecided": 2667,
      "Ġincre": 2668,
      "Ġmotor": 2669,
      "Ġenvironmental": 2670,
      "dom": 2671,
      "ffect": 2672,
      "gent": 2673,
      "list": 2674,
      "ror": 2675,
      "vin": 2676,
      "yn": 2677,
      "Ġtakes": 2678,
      "Ġbike": 2679,
      "orm": 2680,
      "itary": 2681,
      "Ġhusband": 2682,
      "ouri": 2683,
      "soci": 2684,
      "iple": 2685,
      "Ġspain": 2686,
      "Ġagreed": 2687,
      "ugu": 2688,
      "Ġdial": 2689,
      "Ġcommand": 2690,
      "epend": 2691,
      "itted": 2692,
      "Ġmayor": 2693,
      "Ġindic": 2694,
      "Ġeveryone": 2695,
      "Ġ31": 2696,
      "Ġdrug": 2697,
      "range": 2698,
      "Ġeighty": 2699,
      "Ġincluding": 2700,
      "Ġsystem": 2701,
      "mrs": 2702,
      "Ġstudy": 2703,
      "Ġfollowing": 2704,
      "Ġsecretary": 2705,
      "Ġreceived": 2706,
      "Ġinvolved": 2707,
      "au": 2708,
      "fully": 2709,
      "gi": 2710,
      "gn": 2711,
      "swe": 2712,
      "Ġale": 2713,
      "rey": 2714,
      "Ġsitting": 2715,
      "only": 2716,
      "Ġbol": 2717,
      "Ġbud": 2718,
      "Ġbord": 2719,
      "ising": 2720,
      "asure": 2721,
      "Ġhair": 2722,
      "Ġrate": 2723,
      "Ġraymond": 2724,
      "Ġjr": 2725,
      "Ġstars": 2726,
      "Ġfrank": 2727,
      "stant": 2728,
      "Ġknows": 2729,
      "though": 2730,
      "Ġdecl": 2731,
      "Ġvo": 2732,
      "ripp": 2733,
      "riage": 2734,
      "Ġsocial": 2735,
      "about": 2736,
      "Ġplants": 2737,
      "ode": 2738,
      "aged": 2739,
      "Ġafraid": 2740,
      "Ġchanged": 2741,
      "Ġ1990": 2742,
      "Ġ1994": 2743,
      "love": 2744,
      "Ġmissouri": 2745,
      "Ġobject": 2746,
      "Ġrelations": 2747,
      "Ġmagaz": 2748,
      "Ġeastern": 2749,
      "Ġproduction": 2750,
      "Ġdarling": 2751,
      "ography": 2752,
      "Ġrequirement": 2753,
      "Ġtarget": 2754,
      "Ġparents": 2755,
      "Ġbenef": 2756,
      "hs": 2757,
      "hu": 2758,
      "mic": 2759,
      "sar": 2760,
      "vant": 2761,
      "Ġ#": 2762,
      "Ġsize": 2763,
      "ony": 2764,
      "ences": 2765,
      "Ġpence": 2766,
      "Ġant": 2767,
      "Ġanim": 2768,
      "Ġincome": 2769,
      "ators": 2770,
      "omb": 2771,
      "owing": 2772,
      "Ġeffect": 2773,
      "Ġrac": 2774,
      "Ġrese": 2775,
      "Ġassoci": 2776,
      "Ġvir": 2777,
      "ained": 2778,
      "Ġuncle": 2779,
      "agn": 2780,
      "apan": 2781,
      "Ġground": 2782,
      "Ġaffair": 2783,
      "Ġcompet": 2784,
      "clock": 2785,
      "Ġindeed": 2786,
      "Ġwrite": 2787,
      "Ġsuper": 2788,
      "Ġ1995": 2789,
      "Ġflag": 2790,
      "Ġdouble": 2791,
      "197": 2792,
      "razy": 2793,
      "stead": 2794,
      "Ġdaddy": 2795,
      "Ġhouses": 2796,
      "Ġurugu": 2797,
      "Ġproduct": 2798,
      "Ġbegin": 2799,
      "Ġadministration": 2800,
      "Ġpublished": 2801,
      "Ġmachine": 2802,
      "Ġcomplete": 2803,
      "Ġuruguay": 2804,
      "cus": 2805,
      "even": 2806,
      "house": 2807,
      "know": 2808,
      "yer": 2809,
      "Ġut": 2810,
      "Ġcust": 2811,
      "Ġbi": 2812,
      "Ġbott": 2813,
      "Ġdom": 2814,
      "asons": 2815,
      "Ġkong": 2816,
      "Ġstaff": 2817,
      "amb": 2818,
      "ili": 2819,
      "Ġlie": 2820,
      "Ġnotes": 2821,
      "Ġabove": 2822,
      "Ġyours": 2823,
      "Ġconne": 2824,
      "Ġprogress": 2825,
      "Ġchina": 2826,
      "Ġparts": 2827,
      "ensive": 2828,
      "Ġpolice": 2829,
      "Ġdisapp": 2830,
      "Ġkelly": 2831,
      "Ġwrote": 2832,
      "Ġchem": 2833,
      "Ġuh": 2834,
      "Ġlonger": 2835,
      "Ġrecent": 2836,
      "ublican": 2837,
      "Ġcentre": 2838,
      "Ġdescri": 2839,
      "chair": 2840,
      "Ġformula": 2841,
      "Ġstruct": 2842,
      "Ġsense": 2843,
      "Ġbaseball": 2844,
      "Ġbirthday": 2845,
      "Ġhate": 2846,
      "Ġhigher": 2847,
      "Ġradio": 2848,
      "Ġclothes": 2849,
      "aim": 2850,
      "ds": 2851,
      "ek": 2852,
      "jim": 2853,
      "run": 2854,
      "wan": 2855,
      "read": 2856,
      "Ġfelt": 2857,
      "Ġtotal": 2858,
      "Ġlay": 2859,
      "atives": 2860,
      "Ġhong": 2861,
      "Ġweren": 2862,
      "Ġjapan": 2863,
      "theast": 2864,
      "ades": 2865,
      "keep": 2866,
      "Ġfract": 2867,
      "illy": 2868,
      "berg": 2869,
      "Ġwhitt": 2870,
      "Ġalthough": 2871,
      "Ġconference": 2872,
      "abb": 2873,
      "Ġnobody": 2874,
      "astic": 2875,
      "ians": 2876,
      "Ġchoice": 2877,
      "Ġamount": 2878,
      "Ġprinc": 2879,
      "Ġloved": 2880,
      "Ġbrown": 2881,
      "Ġothers": 2882,
      "Ġbooth": 2883,
      "coming": 2884,
      "Ġindepend": 2885,
      "Ġappear": 2886,
      "lier": 2887,
      "Ġgodd": 2888,
      "Ġdavis": 2889,
      "Ġshows": 2890,
      "Ġmilitary": 2891,
      "Ġfifteen": 2892,
      "stru": 2893,
      "Ġrespect": 2894,
      "Ġdraw": 2895,
      "Ġinteresting": 2896,
      "Ġpalmer": 2897,
      "Ġstephen": 2898,
      "Ġangeles": 2899,
      "craft": 2900,
      "fact": 2901,
      "ias": 2902,
      "ming": 2903,
      "ply": 2904,
      "rom": 2905,
      "vices": 2906,
      "wa": 2907,
      "Ġtea": 2908,
      "Ġach": 2909,
      "Ġwall": 2910,
      "Ġsaint": 2911,
      "ana": 2912,
      "Ġbone": 2913,
      "Ġbones": 2914,
      "Ġmary": 2915,
      "Ġdance": 2916,
      "org": 2917,
      "Ġpound": 2918,
      "Ġgay": 2919,
      "Ġles": 2920,
      "asy": 2921,
      "Ġnames": 2922,
      "alie": 2923,
      "Ġric": 2924,
      "Ġjess": 2925,
      "Ġstore": 2926,
      "ooge": 2927,
      "keith": 2928,
      "Ġnote": 2929,
      "Ġvide": 2930,
      "Ġ190": 2931,
      "ended": 2932,
      "ips": 2933,
      "Ġcho": 2934,
      "Ġleast": 2935,
      "Ġprim": 2936,
      "iction": 2937,
      "Ġmob": 2938,
      "Ġrepublican": 2939,
      "Ġputting": 2940,
      "ĠĠĠ": 2941,
      "Ġjohnny": 2942,
      "Ġflor": 2943,
      "Ġfloor": 2944,
      "Ġfounded": 2945,
      "Ġfinal": 2946,
      "Ġcentury": 2947,
      "Ġaircraft": 2948,
      "Ġinside": 2949,
      "Ġpriv": 2950,
      "Ġrespons": 2951,
      "aska": 2952,
      "Ġninet": 2953,
      "Ġparticularly": 2954,
      "ropri": 2955,
      "Ġfurther": 2956,
      "Ġnormal": 2957,
      "Ġavail": 2958,
      "Ġdecision": 2959,
      "17": 2960,
      "bet": 2961,
      "bby": 2962,
      "cast": 2963,
      "din": 2964,
      "turn": 2965,
      "watch": 2966,
      "ÌĤ": 2967,
      "Ġou": 2968,
      "Ġta": 2969,
      "Ġtree": 2970,
      "Ġsu": 2971,
      "erty": 2972,
      "Ġcand": 2973,
      "Ġban": 2974,
      "Ġmor": 2975,
      "Ġmir": 2976,
      "Ġmater": 2977,
      "Ġpounds": 2978,
      "Ġhall": 2979,
      "idge": 2980,
      "ached": 2981,
      "anda": 2982,
      "Ġabsolutely": 2983,
      "Ġcomed": 2984,
      "Ġcongress": 2985,
      "Ġsold": 2986,
      "temp": 2987,
      "Ġleo": 2988,
      "Ġtrade": 2989,
      "Ġactiv": 2990,
      "Ġblue": 2991,
      "Ġcrit": 2992,
      "Ġcrime": 2993,
      "Ġwriter": 2994,
      "Ġ2006": 2995,
      "Ġexpress": 2996,
      "airs": 2997,
      "Ġpoints": 2998,
      "Ġinsur": 2999,
      "Ġaccord": 3000,
      "Ġincluded": 3001,
      "Ġpoor": 3002,
      "Ġsimilar": 3003,
      "Ġsingle": 3004,
      "Ġurban": 3005,
      "Ġbroad": 3006,
      "Ġmurde": 3007,
      "Ġsunday": 3008,
      "Ġvari": 3009,
      "Ġportug": 3010,
      "Ġconsumption": 3011,
      "Ġimag": 3012,
      "Ġtreaty": 3013,
      "Ġcomputer": 3014,
      "Ġdialect": 3015,
      "Ġwhittaker": 3016,
      "10": 3017,
      "fast": 3018,
      "uge": 3019,
      "val": 3020,
      "wr": 3021,
      "Ġtur": 3022,
      "Ġir": 3023,
      "Ġwed": 3024,
      "Ġcir": 3025,
      "Ġbowling": 3026,
      "Ġoil": 3027,
      "Ġdan": 3028,
      "Ġfa": 3029,
      "Ġfant": 3030,
      "Ġye": 3031,
      "Ġlu": 3032,
      "Ġlying": 3033,
      "Ġnom": 3034,
      "iced": 3035,
      "alist": 3036,
      "Ġhop": 3037,
      "Ġhorn": 3038,
      "Ġem": 3039,
      "Ġkm": 3040,
      "Ġmeant": 3041,
      "iry": 3042,
      "ceed": 3043,
      "three": 3044,
      "ateg": 3045,
      "Ġprovision": 3046,
      "Ġspace": 3047,
      "Ġprin": 3048,
      "Ġclosed": 3049,
      "Ġminor": 3050,
      "Ġ2002": 3051,
      "Ġleaving": 3052,
      "laura": 3053,
      "Ġsubur": 3054,
      "Ġended": 3055,
      "Ġcaused": 3056,
      "Ġlarita": 3057,
      "Ġoblast": 3058,
      "Ġstopped": 3059,
      "Ġairport": 3060,
      "Ġsimple": 3061,
      "Ġmedal": 3062,
      "Ġchairman": 3063,
      "Ġmarket": 3064,
      "Ġinvestig": 3065,
      "Ġcorner": 3066,
      "Ġepis": 3067,
      "Ġselby": 3068,
      "Ġmagazine": 3069,
      "Ġcustom": 3070,
      "200": 3071,
      "hist": 3072,
      "ken": 3073,
      "mother": 3074,
      "mont": 3075,
      "spe": 3076,
      "Ġess": 3077,
      "Ġï¿½ï¿½ï¿½ï¿½": 3078,
      "reme": 3079,
      "ini": 3080,
      "Ġcas": 3081,
      "Ġcult": 3082,
      "Ġcrazy": 3083,
      "ancy": 3084,
      "Ġbra": 3085,
      "Ġmist": 3086,
      "Ġdry": 3087,
      "Ġdress": 3088,
      "ense": 3089,
      "Ġperm": 3090,
      "Ġyo": 3091,
      "itch": 3092,
      "ark": 3093,
      "asion": 3094,
      "Ġnative": 3095,
      "Ġhy": 3096,
      "Ġwashing": 3097,
      "Ġeff": 3098,
      "Ġemer": 3099,
      "unk": 3100,
      "ado": 3101,
      "roy": 3102,
      "Ġlift": 3103,
      "ify": 3104,
      "quiry": 3105,
      "Ġsport": 3106,
      "Ġexist": 3107,
      "ago": 3108,
      "Ġhadn": 3109,
      "Ġgrace": 3110,
      "Ġoffer": 3111,
      "Ġacade": 3112,
      "Ġpolish": 3113,
      "Ġ2003": 3114,
      "Ġ2007": 3115,
      "Ġ2009": 3116,
      "Ġprep": 3117,
      "Ġ188": 3118,
      "Ġharry": 3119,
      "Ġshar": 3120,
      "ival": 3121,
      "Ġ1930": 3122,
      "Ġofficer": 3123,
      "Ġturned": 3124,
      "Ġbooks": 3125,
      "Ġwords": 3126,
      "Ġissues": 3127,
      "Ġlaborat": 3128,
      "Ġinterested": 3129,
      "Ġdark": 3130,
      "Ġpromise": 3131,
      "borah": 3132,
      "jean": 3133,
      "Ġdistribution": 3134,
      "listen": 3135,
      "Ġachie": 3136,
      "Ġflorida": 3137,
      "Ġnineteen": 3138,
      "ropriate": 3139,
      "Ġlaboratory": 3140,
      "bon": 3141,
      "ius": 3142,
      "kes": 3143,
      "mou": 3144,
      "mart": 3145,
      "nat": 3146,
      "off": 3147,
      "oft": 3148,
      "pes": 3149,
      "pos": 3150,
      "rup": 3151,
      "rade": 3152,
      "ua": 3153,
      "Ġ*": 3154,
      "Ġ[": 3155,
      "Ġwil": 3156,
      "rer": 3157,
      "Ġsick": 3158,
      "Ġce": 3159,
      "Ġcool": 3160,
      "Ġcell": 3161,
      "Ġbal": 3162,
      "Ġbot": 3163,
      "Ġpan": 3164,
      "Ġpain": 3165,
      "Ġpaint": 3166,
      "Ġgra": 3167,
      "Ġnyon": 3168,
      "Ġitself": 3169,
      "Ġhol": 3170,
      "Ġwash": 3171,
      "Ġeye": 3172,
      "Ġrul": 3173,
      "Ġkno": 3174,
      "Ġweap": 3175,
      "Ġneigh": 3176,
      "Ġvall": 3177,
      "ources": 3178,
      "Ġ(,": 3179,
      "rible": 3180,
      "Ġalloc": 3181,
      "ume": 3182,
      "Ġlikely": 3183,
      "Ġsafe": 3184,
      "ager": 3185,
      "Ġanywhere": 3186,
      "care": 3187,
      "Ġroll": 3188,
      "Ġclos": 3189,
      "Ġclim": 3190,
      "phone": 3191,
      "Ġconsider": 3192,
      "Ġsmith": 3193,
      "Ġ1986": 3194,
      "Ġcharles": 3195,
      "Ġraff": 3196,
      "Ġnumbers": 3197,
      "Ġlargest": 3198,
      "Ġryan": 3199,
      "Ġkingdom": 3200,
      "Ġsimply": 3201,
      "Ġcanadian": 3202,
      "Ġvalue": 3203,
      "Ġmerged": 3204,
      "Ġvictim": 3205,
      "Ġhistoric": 3206,
      "Ġscrooge": 3207,
      "Ġstructure": 3208,
      "Ġavailable": 3209,
      "Ġinsurance": 3210,
      "bed": 3211,
      "face": 3212,
      "first": 3213,
      "hou": 3214,
      "ky": 3215,
      "mom": 3216,
      "ping": 3217,
      "six": 3218,
      "too": 3219,
      "worth": 3220,
      "Ġaut": 3221,
      "Ġahead": 3222,
      "Ġsounds": 3223,
      "int": 3224,
      "has": 3225,
      "Ġburn": 3226,
      "Ġmal": 3227,
      "Ġmum": 3228,
      "Ġdream": 3229,
      "orpor": 3230,
      "Ġinstit": 3231,
      "Ġinstead": 3232,
      "oma": 3233,
      "Ġthre": 3234,
      "Ġrus": 3235,
      "Ġweird": 3236,
      "ents": 3237,
      "idual": 3238,
      "Ġjoint": 3239,
      "these": 3240,
      "osoph": 3241,
      "ador": 3242,
      "isters": 3243,
      "ountain": 3244,
      "Ġdeli": 3245,
      "Ġarri": 3246,
      "Ġfem": 3247,
      "Ġprice": 3248,
      "Ġtrou": 3249,
      "Ġmanage": 3250,
      "Ġhasn": 3251,
      "Ġcoach": 3252,
      "Ġaction": 3253,
      "Ġadm": 3254,
      "Ġservices": 3255,
      "Ġcrim": 3256,
      "Ġ2008": 3257,
      "Ġmostly": 3258,
      "Ġ1987": 3259,
      "Ġsuppose": 3260,
      "ground": 3261,
      "Ġcause": 3262,
      "Ġsettlements": 3263,
      "Ġhands": 3264,
      "Ġglass": 3265,
      "Ġpossib": 3266,
      "Ġrussia": 3267,
      "Ġespecially": 3268,
      "joy": 3269,
      "Ġgerman": 3270,
      "Ġintro": 3271,
      "Ġdiscussion": 3272,
      "Ġoriginal": 3273,
      "Ġeggs": 3274,
      "Ġmentioned": 3275,
      "Ġalex": 3276,
      "Ġvideo": 3277,
      "history": 3278,
      "bre": 3279,
      "bit": 3280,
      "hic": 3281,
      "ls": 3282,
      "nic": 3283,
      "wha": 3284,
      "western": 3285,
      "Ġaye": 3286,
      "Ġwa": 3287,
      "Ġbor": 3288,
      "Ġbound": 3289,
      "Ġbath": 3290,
      "Ġmig": 3291,
      "Ġmale": 3292,
      "Ġfucking": 3293,
      "enn": 3294,
      "Ġinj": 3295,
      "Ġgun": 3296,
      "arily": 3297,
      "Ġnk": 3298,
      "Ġhuh": 3299,
      "Ġrom": 3300,
      "ilities": 3301,
      "think": 3302,
      "robert": 3303,
      "olution": 3304,
      "ests": 3305,
      "ift": 3306,
      "Ġpeace": 3307,
      "Ġaged": 3308,
      "Ġquiet": 3309,
      "Ġgrant": 3310,
      "never": 3311,
      "Ġrob": 3312,
      "actually": 3313,
      "ission": 3314,
      "Ġdeputy": 3315,
      "Ġfinally": 3316,
      "Ġattention": 3317,
      "196": 3318,
      "Ġcenter": 3319,
      "Ġpaid": 3320,
      "Ġdogs": 3321,
      "board": 3322,
      "ological": 3323,
      "Ġassist": 3324,
      "Ġpatient": 3325,
      "Ġballs": 3326,
      "Ġfrogs": 3327,
      "Ġremind": 3328,
      "Ġearlier": 3329,
      "Ġscience": 3330,
      "Ġempire": 3331,
      "Ġdrive": 3332,
      "Ġmartin": 3333,
      "Ġbattle": 3334,
      "Ġlearn": 3335,
      "Ġjudge": 3336,
      "Ġmexico": 3337,
      "Ġsuccess": 3338,
      "Ġdunno": 3339,
      "Ġresearch": 3340,
      "Ġmaterial": 3341,
      "\"?": 3342,
      "bu": 3343,
      "gree": 3344,
      "hod": 3345,
      "mas": 3346,
      "ners": 3347,
      "yep": 3348,
      "Ġ0": 3349,
      "Ġet": 3350,
      "Ġtai": 3351,
      "Ġwild": 3352,
      "reen": 3353,
      "reras": 3354,
      "Ġsens": 3355,
      "Ġsuit": 3356,
      "anne": 3357,
      "Ġbay": 3358,
      "Ġbass": 3359,
      "Ġmike": 3360,
      "Ġpsy": 3361,
      "lled": 3362,
      "isn": 3363,
      "Ġlow": 3364,
      "Ġliter": 3365,
      "ality": 3366,
      "Ġhello": 3367,
      "Ġhost": 3368,
      "Ġstick": 3369,
      "antic": 3370,
      "pped": 3371,
      "Ġplaces": 3372,
      "Ġshut": 3373,
      "Ġarch": 3374,
      "Ġthemselves": 3375,
      "Ġquar": 3376,
      "Ġamong": 3377,
      "Ġtrad": 3378,
      "Ġmeaning": 3379,
      "Ġclient": 3380,
      "Ġadop": 3381,
      "oking": 3382,
      "Ġneeded": 3383,
      "Ġboard": 3384,
      "Ġappropriate": 3385,
      "Ġchanges": 3386,
      "Ġletter": 3387,
      "Ġstarting": 3388,
      "Ġ186": 3389,
      "Ġtried": 3390,
      "Ġhang": 3391,
      "Ġfinish": 3392,
      "Ġ1970": 3393,
      "Ġdifference": 3394,
      "Ġvillars": 3395,
      "Ġcaptain": 3396,
      "Ġrelated": 3397,
      "Ġgeorg": 3398,
      "Ġproposed": 3399,
      "Ġentire": 3400,
      "Ġawarded": 3401,
      "Ġesc": 3402,
      "Ġinternet": 3403,
      "Ġhurt": 3404,
      "Ġcurrently": 3405,
      "Ġexplain": 3406,
      "Ġfederal": 3407,
      "Ġreplaced": 3408,
      "Ġpicture": 3409,
      "Ġlaughs": 3410,
      "Ġorganisations": 3411,
      "Ġduke": 3412,
      "american": 3413,
      "Ġmotorcy": 3414,
      "Ġrelationship": 3415,
      "Ġbottom": 3416,
      "Ġjapanese": 3417,
      "moudon": 3418,
      "orporated": 3419,
      "aign": 3420,
      "arent": 3421,
      "bes": 3422,
      "cr": 3423,
      "ease": 3424,
      "fine": 3425,
      "ires": 3426,
      "ique": 3427,
      "las": 3428,
      "light": 3429,
      "line": 3430,
      "nis": 3431,
      "oy": 3432,
      "Ġvers": 3433,
      "Ġtit": 3434,
      "Ġtheat": 3435,
      "Ġwal": 3436,
      "Ġwid": 3437,
      "rel": 3438,
      "Ġsla": 3439,
      "inct": 3440,
      "had": 3441,
      "Ġfitz": 3442,
      "Ġpac": 3443,
      "inger": 3444,
      "Ġnet": 3445,
      "ato": 3446,
      "also": 3447,
      "oted": 3448,
      "lemen": 3449,
      "Ġham": 3450,
      "Ġride": 3451,
      "Ġrange": 3452,
      "Ġkar": 3453,
      "Ġkick": 3454,
      "aco": 3455,
      "Ġforce": 3456,
      "Ġforget": 3457,
      "Ġjones": 3458,
      "Ġjourn": 3459,
      "Ġstri": 3460,
      "Ġfranc": 3461,
      "ila": 3462,
      "eared": 3463,
      "rod": 3464,
      "Ġnotice": 3465,
      "Ġdev": 3466,
      "Ġdegree": 3467,
      "Ġalle": 3468,
      "Ġsoci": 3469,
      "Ġplans": 3470,
      "Ġteac": 3471,
      "cks": 3472,
      "Ġarrest": 3473,
      "Ġamaz": 3474,
      "Ġgrad": 3475,
      "Ġfeat": 3476,
      "Ġbrief": 3477,
      "bec": 3478,
      "Ġclar": 3479,
      "Ġboys": 3480,
      "Ġaccomm": 3481,
      "ptions": 3482,
      "atherine": 3483,
      "Ġcontract": 3484,
      "Ġfourth": 3485,
      "Ġ189": 3486,
      "Ġstatement": 3487,
      "Ġwarm": 3488,
      "Ġfamous": 3489,
      "Ġrail": 3490,
      "char": 3491,
      "Ġdeveloped": 3492,
      "Ġmilk": 3493,
      "Ġsmaller": 3494,
      "struct": 3495,
      "Ġbrothers": 3496,
      "Ġrestaur": 3497,
      "Ġleader": 3498,
      "Ġapolog": 3499,
      "Ġvarious": 3500,
      "shall": 3501,
      "Ġdamn": 3502,
      "Ġsarah": 3503,
      "ĠâĢĺ": 3504,
      "Ġorigin": 3505,
      "Ġexecutive": 3506,
      "Ġrichard": 3507,
      "Ġcandid": 3508,
      "Ġpsych": 3509,
      "Ġaccommod": 3510,
      ".,": 3511,
      "back": 3512,
      "bra": 3513,
      "danny": 3514,
      "each": 3515,
      "ju": 3516,
      "net": 3517,
      "pose": 3518,
      "say": 3519,
      "sir": 3520,
      "tripp": 3521,
      "ufact": 3522,
      "za": 3523,
      "zy": 3524,
      "Ġwide": 3525,
      "Ġsant": 3526,
      "Ġsme": 3527,
      "eration": 3528,
      "Ġcele": 3529,
      "anish": 3530,
      "Ġfix": 3531,
      "Ġang": 3532,
      "Ġgent": 3533,
      "Ġgord": 3534,
      "Ġhoney": 3535,
      "Ġweather": 3536,
      "ental": 3537,
      "igson": 3538,
      "Ġrev": 3539,
      "acc": 3540,
      "irm": 3541,
      "Ġdocu": 3542,
      "ston": 3543,
      "roat": 3544,
      "road": 3545,
      "istry": 3546,
      "george": 3547,
      "Ġ2000": 3548,
      "Ġunion": 3549,
      "noon": 3550,
      "ortun": 3551,
      "Ġsaf": 3552,
      "ends": 3553,
      "Ġexc": 3554,
      "Ġexcept": 3555,
      "Ġrights": 3556,
      "Ġargent": 3557,
      "aper": 3558,
      "Ġque": 3559,
      "Ġtrack": 3560,
      "Ġmanufact": 3561,
      "ishop": 3562,
      "Ġclaim": 3563,
      "Ġmarg": 3564,
      "Ġblock": 3565,
      "Ġrepe": 3566,
      "Ġguard": 3567,
      "Ġswim": 3568,
      "Ġ2023": 3569,
      "Ġindia": 3570,
      "Ġscot": 3571,
      "Ġscott": 3572,
      "Ġ1992": 3573,
      "Ġclef": 3574,
      "Ġraised": 3575,
      "Ġ1969": 3576,
      "198": 3577,
      "Ġze": 3578,
      "Ġcountries": 3579,
      "uesday": 3580,
      "play": 3581,
      "Ġwindfall": 3582,
      "Ġcorrect": 3583,
      "Ġlawyer": 3584,
      "duced": 3585,
      "Ġrepresentatives": 3586,
      "Ġglad": 3587,
      "Ġearth": 3588,
      "Ġsales": 3589,
      "everything": 3590,
      "Ġexperience": 3591,
      "Ġhonest": 3592,
      "Ġpenn": 3593,
      "Ġbreakfast": 3594,
      "Ġproduced": 3595,
      "Ġoppos": 3596,
      "Ġopportun": 3597,
      "Ġbrazilian": 3598,
      "Ġidentified": 3599,
      "Ġcampaign": 3600,
      "something": 3601,
      "Ġlouisiana": 3602,
      "Ġscientists": 3603,
      "Ġadditional": 3604,
      "Ġchampions": 3605,
      "Ġgoddard": 3606,
      "Ġprivate": 3607,
      "bt": 3608,
      "call": 3609,
      "ems": 3610,
      "five": 3611,
      "friend": 3612,
      "gon": 3613,
      "jesus": 3614,
      "lu": 3615,
      "ole": 3616,
      "py": 3617,
      "win": 3618,
      "wich": 3619,
      "wise": 3620,
      "yl": 3621,
      "Ġtv": 3622,
      "Ġtight": 3623,
      "Ġwoof": 3624,
      "onse": 3625,
      "ergy": 3626,
      "haw": 3627,
      "Ġcart": 3628,
      "ances": 3629,
      "Ġbon": 3630,
      "Ġmi": 3631,
      "Ġmix": 3632,
      "Ġos": 3633,
      "Ġfast": 3634,
      "Ġfail": 3635,
      "lls": 3636,
      "ishing": 3637,
      "Ġlad": 3638,
      "Ġluc": 3639,
      "Ġnic": 3640,
      "Ġnav": 3641,
      "ota": 3642,
      "Ġheld": 3643,
      "lect": 3644,
      "Ġrain": 3645,
      "Ġkap": 3646,
      "Ġstuck": 3647,
      "irt": 3648,
      "star": 3649,
      "cee": 3650,
      "christ": 3651,
      "Ġvan": 3652,
      "ours": 3653,
      "Ġcomment": 3654,
      "Ġcomments": 3655,
      "Ġorange": 3656,
      "abl": 3657,
      "ively": 3658,
      "Ġsave": 3659,
      "ardon": 3660,
      "Ġherself": 3661,
      "Ġseeing": 3662,
      "Ġchin": 3663,
      "Ġarm": 3664,
      "venworth": 3665,
      "Ġgrigson": 3666,
      "Ġbrain": 3667,
      "Ġactual": 3668,
      "ension": 3669,
      "Ġcompan": 3670,
      "ression": 3671,
      "Ġleavenworth": 3672,
      "Ġelton": 3673,
      "Ġ1985": 3674,
      "Ġ1960": 3675,
      "Ġ1968": 3676,
      "Ġmissed": 3677,
      "Ġbread": 3678,
      "Ġhole": 3679,
      "ification": 3680,
      "Ġstrong": 3681,
      "Ġofficers": 3682,
      "Ġrelease": 3683,
      "stein": 3684,
      "stems": 3685,
      "Ġsugar": 3686,
      "Ġphilipp": 3687,
      "Ġmovement": 3688,
      "ashion": 3689,
      "Ġshoot": 3690,
      "Ġrider": 3691,
      "Ġhotel": 3692,
      "ength": 3693,
      "Ġprogramme": 3694,
      "uzhou": 3695,
      "Ġaustral": 3696,
      "Ġstatist": 3697,
      "Ġeducation": 3698,
      "Ġaffected": 3699,
      "Ġolympics": 3700,
      "sarah": 3701,
      "Ġconnect": 3702,
      "Ġaccording": 3703,
      "Ġmistake": 3704,
      "Ġknock": 3705,
      "Ġdelivery": 3706,
      "Ġfemale": 3707,
      "Ġtaiwan": 3708,
      "13": 3709,
      "21": 3710,
      "bar": 3711,
      "ee": 3712,
      "fam": 3713,
      "fur": 3714,
      "ked": 3715,
      "oon": 3716,
      "pol": 3717,
      "rican": 3718,
      "ser": 3719,
      "since": 3720,
      "tom": 3721,
      "xim": 3722,
      "Ġ)": 3723,
      "Ġtick": 3724,
      "Ġtuesday": 3725,
      "inated": 3726,
      "Ġcath": 3727,
      "Ġcities": 3728,
      "Ġciv": 3729,
      "Ġbes": 3730,
      "Ġbod": 3731,
      "Ġbank": 3732,
      "Ġmountain": 3733,
      "Ġdest": 3734,
      "Ġfer": 3735,
      "Ġfav": 3736,
      "Ġpink": 3737,
      "Ġanne": 3738,
      "Ġtowards": 3739,
      "Ġgir": 3740,
      "Ġlose": 3741,
      "Ġnone": 3742,
      "vere": 3743,
      "Ġhid": 3744,
      "Ġhay": 3745,
      "Ġhamb": 3746,
      "Ġbeha": 3747,
      "Ġemb": 3748,
      "Ġrs": 3749,
      "Ġrap": 3750,
      "Ġwel": 3751,
      "Ġweight": 3752,
      "Ġredu": 3753,
      "ander": 3754,
      "Ġstone": 3755,
      "Ġ100": 3756,
      "heriff": 3757,
      "Ġwheel": 3758,
      "rens": 3759,
      "Ġexcuse": 3760,
      "Ġadvice": 3761,
      "issa": 3762,
      "Ġnortheast": 3763,
      "Ġafternoon": 3764,
      "Ġindiv": 3765,
      "Ġdisease": 3766,
      "phil": 3767,
      "Ġhousehold": 3768,
      "Ġcontreras": 3769,
      "Ġdrama": 3770,
      "Ġparli": 3771,
      "Ġ1993": 3772,
      "Ġ1981": 3773,
      "Ġbusy": 3774,
      "ship": 3775,
      "Ġjobs": 3776,
      "Ġ40": 3777,
      "emcee": 3778,
      "Ġ1950": 3779,
      "ificant": 3780,
      "vided": 3781,
      "Ġfarm": 3782,
      "Ġmedic": 3783,
      "Ġresponse": 3784,
      "ledge": 3785,
      "Ġvehic": 3786,
      "Ġwinter": 3787,
      "Ġbroken": 3788,
      "Ġmainly": 3789,
      "ippi": 3790,
      "Ġpositive": 3791,
      "Ġbloody": 3792,
      "Ġrequirements": 3793,
      "Ġvisit": 3794,
      "Ġproducer": 3795,
      "Ġislands": 3796,
      "Ġjoseph": 3797,
      "Ġterritory": 3798,
      "Ġnecessary": 3799,
      "Ġborder": 3800,
      "Ġbenefit": 3801,
      "Ġbeginning": 3802,
      "Ġmobile": 3803,
      "Ġcomedy": 3804,
      "writer": 3805,
      "Ġtrouble": 3806,
      "Ġquarter": 3807,
      "Ġfrancis": 3808,
      "roducky": 3809,
      "Ġparliament": 3810,
      "aren": 3811,
      "down": 3812,
      "four": 3813,
      "hin": 3814,
      "hmm": 3815,
      "honey": 3816,
      "lah": 3817,
      "mat": 3818,
      "nor": 3819,
      "po": 3820,
      "ray": 3821,
      "ros": 3822,
      "ril": 3823,
      "sch": 3824,
      "ued": 3825,
      "year": 3826,
      "Ġtall": 3827,
      "Ġsed": 3828,
      "Ġsam": 3829,
      "Ġcateg": 3830,
      "Ġmes": 3831,
      "Ġmap": 3832,
      "Ġoce": 3833,
      "Ġdoug": 3834,
      "Ġfashion": 3835,
      "ened": 3836,
      "Ġpig": 3837,
      "Ġinit": 3838,
      "Ġly": 3839,
      "Ġnurs": 3840,
      "Ġandrade": 3841,
      "aled": 3842,
      "Ġhuck": 3843,
      "Ġron": 3844,
      "Ġrub": 3845,
      "Ġwearing": 3846,
      "ids": 3847,
      "Ġren": 3848,
      "Ġjam": 3849,
      "Ġjim": 3850,
      "their": 3851,
      "amen": 3852,
      "Ġmem": 3853,
      "urity": 3854,
      "Ġsea": 3855,
      "ource": 3856,
      "Ġconvers": 3857,
      "ably": 3858,
      "Ġshit": 3859,
      "ending": 3860,
      "Ġspent": 3861,
      "Ġspir": 3862,
      "Ġarrow": 3863,
      "akh": 3864,
      "Ġload": 3865,
      "Ġmanager": 3866,
      "early": 3867,
      "Ġacting": 3868,
      "Ġcompl": 3869,
      "Ġcarol": 3870,
      "Ġworse": 3871,
      "Ġshouldn": 3872,
      "Ġplays": 3873,
      "Ġresign": 3874,
      "Ġresources": 3875,
      "Ġappointed": 3876,
      "Ġprem": 3877,
      "Ġfocus": 3878,
      "Ġ1996": 3879,
      "Ġoklah": 3880,
      "Ġolder": 3881,
      "Ġ1988": 3882,
      "Ġcareful": 3883,
      "Ġ50": 3884,
      "Ġthirteen": 3885,
      "Ġsignificant": 3886,
      "Ġcalcul": 3887,
      "Ġrelig": 3888,
      "Ġofficially": 3889,
      "Ġaddress": 3890,
      "Ġmetal": 3891,
      "Ġpoll": 3892,
      "Ġteams": 3893,
      "Ġtony": 3894,
      "mbol": 3895,
      "Ġstandard": 3896,
      "Ġexperiment": 3897,
      "roniz": 3898,
      "Ġmodel": 3899,
      "Ġpotential": 3900,
      "Ġadministr": 3901,
      "Ġdetect": 3902,
      "Ġsquare": 3903,
      "Ġlimited": 3904,
      "sometimes": 3905,
      "Ġlatin": 3906,
      "Ġprepared": 3907,
      "Ġsharp": 3908,
      "arently": 3909,
      "Ġpacific": 3910,
      "Ġsociety": 3911,
      "Ġcivil": 3912,
      "Ġbodies": 3913,
      "Ġoklahoma": 3914,
      "15": 3915,
      "30": 3916,
      "ael": 3917,
      "ba": 3918,
      "bal": 3919,
      "cont": 3920,
      "dam": 3921,
      "ev": 3922,
      "hilda": 3923,
      "ios": 3924,
      "mad": 3925,
      "mind": 3926,
      "pence": 3927,
      "ram": 3928,
      "su": 3929,
      "heim": 3930,
      "Ġwha": 3931,
      "reci": 3932,
      "Ġsilly": 3933,
      "erous": 3934,
      "Ġba": 3935,
      "Ġbac": 3936,
      "Ġfre": 3937,
      "Ġfit": 3938,
      "Ġpian": 3939,
      "Ġpers": 3940,
      "itan": 3941,
      "itar": 3942,
      "itions": 3943,
      "Ġinfl": 3944,
      "edi": 3945,
      "Ġtool": 3946,
      "isk": 3947,
      "ises": 3948,
      "Ġnature": 3949,
      "Ġandrew": 3950,
      "vey": 3951,
      "Ġhaw": 3952,
      "Ġell": 3953,
      "Ġkn": 3954,
      "Ġkiss": 3955,
      "igaret": 3956,
      "Ġrecomm": 3957,
      "Ġjesus": 3958,
      "thew": 3959,
      "uries": 3960,
      "Ġdoll": 3961,
      "step": 3962,
      "stairs": 3963,
      "olic": 3964,
      "Ġcannot": 3965,
      "iez": 3966,
      "aine": 3967,
      "Ġuninc": 3968,
      "ategy": 3969,
      "Ġsoft": 3970,
      "ables": 3971,
      "Ġplant": 3972,
      "udp": 3973,
      "Ġspl": 3974,
      "Ġspanish": 3975,
      "odes": 3976,
      "Ġgrow": 3977,
      "Ġfellow": 3978,
      "Ġhimself": 3979,
      "Ġdivision": 3980,
      "Ġactive": 3981,
      "Ġcommer": 3982,
      "Ġenjoy": 3983,
      "Ġchamber": 3984,
      "Ġmoving": 3985,
      "Ġplayers": 3986,
      "perhaps": 3987,
      "Ġappeared": 3988,
      "Ġsecurity": 3989,
      "Ġcontest": 3990,
      "Ġcontact": 3991,
      "Ġcontribut": 3992,
      "Ġ180": 3993,
      "Ġ185": 3994,
      "Ġ1964": 3995,
      "azz": 3996,
      "Ġ1979": 3997,
      "Ġdecide": 3998,
      "Ġroads": 3999,
      "Ġstrategy": 4000,
      "Ġincludes": 4001,
      "Ġweekend": 4002,
      "Ġassum": 4003,
      "Ġpropos": 4004,
      "Ġmedia": 4005,
      "Ġstudies": 4006,
      "Ġtypes": 4007,
      "Ġwindow": 4008,
      "Ġitaly": 4009,
      "Ġtransport": 4010,
      "Ġbritain": 4011,
      "nesday": 4012,
      "Ġindiana": 4013,
      "Ġvictor": 4014,
      "Ġeconomic": 4015,
      "Ġselling": 4016,
      "probably": 4017,
      "Ġgolden": 4018,
      "Ġwoods": 4019,
      "Ġimmig": 4020,
      "design": 4021,
      "Ġconcern": 4022,
      "Ġallowed": 4023,
      "Ġspending": 4024,
      "Ġtemper": 4025,
      "Ġrule": 4026,
      "Ġseventy": 4027,
      "Ġsuspect": 4028,
      "Ġperformance": 4029,
      "Ġindustry": 4030,
      "Ġbolt": 4031,
      "iasm": 4032,
      "Ġhorne": 4033,
      "Ġwashington": 4034,
      "Ġrusso": 4035,
      "Ġmotorcycle": 4036,
      "Ġcelebr": 4037,
      "Ġdocument": 4038,
      "Ġchampionship": 4039,
      "Ġindividual": 4040,
      "Ġunincorporated": 4041,
      "37": 4042,
      "aa": 4043,
      "bc": 4044,
      "core": 4045,
      "cise": 4046,
      "cons": 4047,
      "dad": 4048,
      "eh": 4049,
      "ez": 4050,
      "found": 4051,
      "gic": 4052,
      "hn": 4053,
      "james": 4054,
      "ni": 4055,
      "old": 4056,
      "pet": 4057,
      "person": 4058,
      "sm": 4059,
      "sen": 4060,
      "yond": 4061,
      "Ġtan": 4062,
      "Ġtal": 4063,
      "Ġtour": 4064,
      "Ġtired": 4065,
      "hest": 4066,
      "Ġath": 4067,
      "Ġii": 4068,
      "Ġsad": 4069,
      "Ġsca": 4070,
      "ona": 4071,
      "ontain": 4072,
      "Ġbang": 4073,
      "Ġmouth": 4074,
      "Ġoptions": 4075,
      "Ġder": 4076,
      "Ġdut": 4077,
      "Ġdump": 4078,
      "Ġfool": 4079,
      "Ġfuzhou": 4080,
      "itude": 4081,
      "Ġtow": 4082,
      "Ġlt": 4083,
      "Ġlam": 4084,
      "Ġlength": 4085,
      "Ġnations": 4086,
      "Ġitems": 4087,
      "Ġhes": 4088,
      "Ġonto": 4089,
      "Ġrug": 4090,
      "Ġkne": 4091,
      "ides": 4092,
      "Ġreact": 4093,
      "acity": 4094,
      "Ġforces": 4095,
      "those": 4096,
      "Ġnoted": 4097,
      "Ġdeep": 4098,
      "iel": 4099,
      "Ġuses": 4100,
      "Ġbye": 4101,
      "Ġspread": 4102,
      "april": 4103,
      "Ġsomewhere": 4104,
      "Ġamb": 4105,
      "Ġlock": 4106,
      "Ġcoast": 4107,
      "Ġafford": 4108,
      "Ġafrican": 4109,
      "mmy": 4110,
      "Ġadv": 4111,
      "Ġcompound": 4112,
      "Ġboil": 4113,
      "issippi": 4114,
      "cles": 4115,
      "chen": 4116,
      "Ġcars": 4117,
      "ignment": 4118,
      "comes": 4119,
      "ization": 4120,
      "Ġwrit": 4121,
      "Ġwriting": 4122,
      "Ġ2004": 4123,
      "lax": 4124,
      "Ġconsult": 4125,
      "Ġbelt": 4126,
      "ighs": 4127,
      "Ġsubject": 4128,
      "grand": 4129,
      "Ġattract": 4130,
      "Ġcaught": 4131,
      "Ġ1959": 4132,
      "Ġgreatest": 4133,
      "Ġschools": 4134,
      "Ġmusician": 4135,
      "Ġformed": 4136,
      "Ġsymbol": 4137,
      "Ġbusinessman": 4138,
      "Ġmethod": 4139,
      "Ġopened": 4140,
      "Ġkidding": 4141,
      "Ġboyfriend": 4142,
      "Ġprior": 4143,
      "Ġrespond": 4144,
      "johnny": 4145,
      "Ġauthorities": 4146,
      "Ġartist": 4147,
      "Ġdefin": 4148,
      "Ġfielding": 4149,
      "Ġwalking": 4150,
      "Ġterror": 4151,
      "Ġaware": 4152,
      "overed": 4153,
      "Ġbasis": 4154,
      "Ġapproach": 4155,
      "Ġmadam": 4156,
      "Ġprotection": 4157,
      "uckingham": 4158,
      "Ġcombat": 4159,
      "Ġhills": 4160,
      "Ġreferred": 4161,
      "paul": 4162,
      "hui": 4163,
      "Ġassociation": 4164,
      "Ġrecently": 4165,
      "Ġimagine": 4166,
      "Ġacademy": 4167,
      "Ġneighb": 4168,
      "Ġcrimea": 4169,
      "Ġtheatre": 4170,
      "Ġjournalist": 4171,
      "Ġgentlemen": 4172,
      "Ġopportunity": 4173,
      "Ġcompanies": 4174,
      "Ġrecommend": 4175,
      "',": 4176,
      "24": 4177,
      "bing": 4178,
      "burn": 4179,
      "bones": 4180,
      "cour": 4181,
      "far": 4182,
      "hum": 4183,
      "jul": 4184,
      "mi": 4185,
      "met": 4186,
      "mend": 4187,
      "nia": 4188,
      "rie": 4189,
      "rate": 4190,
      "sup": 4191,
      "tion": 4192,
      "wow": 4193,
      "yle": 4194,
      "yres": 4195,
      "ÂŃ": 4196,
      "Ġought": 4197,
      "Ġtough": 4198,
      "Ġtax": 4199,
      "heart": 4200,
      "Ġaph": 4201,
      "Ġwo": 4202,
      "Ġward": 4203,
      "remember": 4204,
      "Ġsuff": 4205,
      "onom": 4206,
      "iny": 4207,
      "Ġbin": 4208,
      "Ġmis": 4209,
      "Ġpry": 4210,
      "Ġpool": 4211,
      "Ġofthe": 4212,
      "Ġoffe": 4213,
      "arras": 4214,
      "Ġlines": 4215,
      "Ġnad": 4216,
      "Ġandy": 4217,
      "vell": 4218,
      "uses": 4219,
      "usion": 4220,
      "Ġhero": 4221,
      "leis": 4222,
      "Ġthin": 4223,
      "Ġhors": 4224,
      "Ġrose": 4225,
      "uncle": 4226,
      "Ġforgot": 4227,
      "Ġstock": 4228,
      "Ġmechan": 4229,
      "adium": 4230,
      "Ġsection": 4231,
      "Ġfruit": 4232,
      "rove": 4233,
      "Ġdeborah": 4234,
      "ular": 4235,
      "Ġdonald": 4236,
      "Ġalbert": 4237,
      "Ġunless": 4238,
      "ores": 4239,
      "Ġcond": 4240,
      "ppy": 4241,
      "text": 4242,
      "Ġshot": 4243,
      "whatever": 4244,
      "enda": 4245,
      "Ġtwice": 4246,
      "ograp": 4247,
      "Ġparticip": 4248,
      "Ġroy": 4249,
      "Ġcommission": 4250,
      "Ġenergy": 4251,
      "âĢĿ": 4252,
      "ept": 4253,
      "ensburg": 4254,
      "cient": 4255,
      "Ġmarion": 4256,
      "Ġguar": 4257,
      "Ġcarriage": 4258,
      "Ġtells": 4259,
      "Ġminim": 4260,
      "Ġscreen": 4261,
      "Ġchannel": 4262,
      "death": 4263,
      "Ġ1991": 4264,
      "ocleis": 4265,
      "Ġsixty": 4266,
      "iversary": 4267,
      "Ġshowed": 4268,
      "Ġ1972": 4269,
      "Ġ1955": 4270,
      "Ġlarger": 4271,
      "Ġ90": 4272,
      "Ġrealize": 4273,
      "Ġhandle": 4274,
      "Ġ1933": 4275,
      "Ġcapacity": 4276,
      "Ġfunction": 4277,
      "Ġsystems": 4278,
      "harry": 4279,
      "Ġproperty": 4280,
      "Ġanniversary": 4281,
      "otted": 4282,
      "Ġpassed": 4283,
      "Ġwinning": 4284,
      "Ġspeakers": 4285,
      "Ġenter": 4286,
      "Ġlegs": 4287,
      "Ġrepresentative": 4288,
      "elliot": 4289,
      "someone": 4290,
      "Ġattacked": 4291,
      "awa": 4292,
      "Ġdeliver": 4293,
      "Ġhonor": 4294,
      "Ġreading": 4295,
      "Ġeconomics": 4296,
      "Ġagreement": 4297,
      "Ġexpected": 4298,
      "Ġsarcom": 4299,
      "Ġnatural": 4300,
      "ĠâĢľ": 4301,
      "Ġsilver": 4302,
      "elsarras": 4303,
      "Ġnormally": 4304,
      "Ġmultiple": 4305,
      "Ġhighest": 4306,
      "Ġreplace": 4307,
      "Ġtraining": 4308,
      "Ġpictures": 4309,
      "Ġequip": 4310,
      "Ġodd": 4311,
      "known": 4312,
      "Ġcritic": 4313,
      "Ġweapon": 4314,
      "Ġthreat": 4315,
      "Ġmanagement": 4316,
      "Ġgeorgia": 4317,
      "Ġsafety": 4318,
      "Ġchinese": 4319,
      "Ġscared": 4320,
      "Ġoffered": 4321,
      "Ġhorses": 4322,
      ",\"": 4323,
      "14": 4324,
      "22": 4325,
      "27": 4326,
      "col": 4327,
      "father": 4328,
      "gin": 4329,
      "hy": 4330,
      "ija": 4331,
      "jan": 4332,
      "ki": 4333,
      "ko": 4334,
      "raymond": 4335,
      "set": 4336,
      "tt": 4337,
      "tha": 4338,
      "uce": 4339,
      "vo": 4340,
      "won": 4341,
      "war": 4342,
      "Ġub": 4343,
      "Ġeth": 4344,
      "Ġudp": 4345,
      "Ġts": 4346,
      "Ġaud": 4347,
      "Ġwat": 4348,
      "Ġwoo": 4349,
      "Ġwol": 4350,
      "real": 4351,
      "Ġsource": 4352,
      "Ġcow": 4353,
      "Ġcass": 4354,
      "Ġcigaret": 4355,
      "ano": 4356,
      "another": 4357,
      "Ġbid": 4358,
      "Ġbart": 4359,
      "Ġbum": 4360,
      "Ġbicy": 4361,
      "Ġbishop": 4362,
      "Ġmc": 4363,
      "Ġmort": 4364,
      "Ġmatch": 4365,
      "Ġduck": 4366,
      "Ġfred": 4367,
      "Ġfiction": 4368,
      "Ġpurs": 4369,
      "Ġanhui": 4370,
      "Ġinst": 4371,
      "Ġgraph": 4372,
      "Ġgift": 4373,
      "arr": 4374,
      "Ġlower": 4375,
      "Ġlucky": 4376,
      "astern": 4377,
      "Ġnose": 4378,
      "icago": 4379,
      "albert": 4380,
      "uset": 4381,
      "Ġhilda": 4382,
      "Ġkil": 4383,
      "Ġkaz": 4384,
      "Ġkept": 4385,
      "Ġwear": 4386,
      "enth": 4387,
      "Ġreasons": 4388,
      "Ġreduced": 4389,
      "uts": 4390,
      "Ġjump": 4391,
      "Ġjenny": 4392,
      "irty": 4393,
      "allel": 4394,
      "Ġknowledge": 4395,
      "Ġliked": 4396,
      "gel": 4397,
      "Ġneur": 4398,
      "Ġ(),": 4399,
      "aints": 4400,
      "ria": 4401,
      "Ġconse": 4402,
      "Ġnobel": 4403,
      "udden": 4404,
      "rav": 4405,
      "Ġjustin": 4406,
      "asty": 4407,
      "ession": 4408,
      "ortion": 4409,
      "urer": 4410,
      "Ġtwin": 4411,
      "aging": 4412,
      "Ġagric": 4413,
      "Ġarroniz": 4414,
      "Ġprison": 4415,
      "Ġnewsp": 4416,
      "before": 4417,
      "Ġenquiry": 4418,
      "ueva": 4419,
      "Ġgoods": 4420,
      "Ġcomplet": 4421,
      "Ġyorkshire": 4422,
      "chester": 4423,
      "Ġswed": 4424,
      "achuset": 4425,
      "Ġdispos": 4426,
      "Ġresident": 4427,
      "Ġappreci": 4428,
      "Ġparallel": 4429,
      "Ġprefer": 4430,
      "Ġpregn": 4431,
      "Ġfourteen": 4432,
      "Ġ1997": 4433,
      "Ġletters": 4434,
      "Ġcheap": 4435,
      "Ġconsignment": 4436,
      "Ġoldest": 4437,
      "Ġimpact": 4438,
      "Ġshawn": 4439,
      "Ġ1980": 4440,
      "Ġschol": 4441,
      "anyway": 4442,
      "braska": 4443,
      "Ġjoey": 4444,
      "Ġ1967": 4445,
      "Ġpresidential": 4446,
      "Ġpleasure": 4447,
      "Ġtennis": 4448,
      "Ġmissing": 4449,
      "Ġgives": 4450,
      "Ġcolumb": 4451,
      "Ġ60": 4452,
      "Ġinspect": 4453,
      "Ġaccount": 4454,
      "Ġdiscovered": 4455,
      "Ġtowns": 4456,
      "Ġ1941": 4457,
      "Ġtrees": 4458,
      "Ġpoet": 4459,
      "Ġterrible": 4460,
      "Ġcorpor": 4461,
      "Ġcommunic": 4462,
      "Ġphilip": 4463,
      "Ġspeaking": 4464,
      "Ġlegend": 4465,
      "Ġdraft": 4466,
      "Ġartic": 4467,
      "Ġsupported": 4468,
      "Ġremain": 4469,
      "Ġsweets": 4470,
      "Ġfairly": 4471,
      "Ġskin": 4472,
      "Ġtravel": 4473,
      "Ġsuggested": 4474,
      "Ġukrainian": 4475,
      "william": 4476,
      "Ġdesigned": 4477,
      "Ġmessage": 4478,
      "Ġwatching": 4479,
      "Ġoccur": 4480,
      "untary": 4481,
      "larita": 4482,
      "Ġpurpose": 4483,
      "Ġpractice": 4484,
      "Ġmassachuset": 4485,
      "Ġkitchen": 4486,
      "cellent": 4487,
      "Ġgenerally": 4488,
      "Ġprinciple": 4489,
      "Ġmurderer": 4490,
      "Ġportugal": 4491,
      "Ġepisodes": 4492,
      "Ġexisting": 4493,
      "Ġbottle": 4494,
      "Ġvalley": 4495,
      "Ġamazing": 4496,
      "Ġapologize": 4497,
      "Ġkapoor": 4498,
      "Ġcatholic": 4499,
      "Ġmedicine": 4500,
      "Ġspirit": 4501,
      "Ġinflu": 4502,
      "Ġaphroducky": 4503,
      "Ġsarcoma": 4504,
      "Ġequipment": 4505,
      "Ġagricult": 4506,
      "Ġmassachusetts": 4507,
      "11": 4508,
      "50": 4509,
      "hon": 4510,
      "jose": 4511,
      "lor": 4512,
      "mil": 4513,
      "nan": 4514,
      "pop": 4515,
      "rants": 4516,
      "san": 4517,
      "sous": 4518,
      "want": 4519,
      "wide": 4520,
      "oumo": 4521,
      "Ġwake": 4522,
      "Ġsr": 4523,
      "oned": 4524,
      "onia": 4525,
      "erly": 4526,
      "Ġcam": 4527,
      "anueva": 4528,
      "Ġboss": 4529,
      "Ġbask": 4530,
      "Ġmac": 4531,
      "Ġmos": 4532,
      "Ġdim": 4533,
      "Ġdyn": 4534,
      "Ġfat": 4535,
      "Ġfest": 4536,
      "Ġfuck": 4537,
      "Ġfully": 4538,
      "ening": 4539,
      "Ġpup": 4540,
      "Ġlas": 4541,
      "Ġlake": 4542,
      "atul": 4543,
      "usanne": 4544,
      "Ġbeyond": 4545,
      "Ġrat": 4546,
      "Ġrud": 4547,
      "Ġrang": 4548,
      "Ġweb": 4549,
      "iga": 4550,
      "igan": 4551,
      "Ġreview": 4552,
      "Ġrelax": 4553,
      "Ġstation": 4554,
      "osen": 4555,
      "Ġself": 4556,
      "ilies": 4557,
      "illip": 4558,
      "uster": 4559,
      "Ġva": 4560,
      "ola": 4561,
      "ulty": 4562,
      "Ġabs": 4563,
      "Ġordin": 4564,
      "riz": 4565,
      "rier": 4566,
      "ques": 4567,
      "Ġconcent": 4568,
      "Ġconstant": 4569,
      "umn": 4570,
      "Ġnovel": 4571,
      "Ġbutt": 4572,
      "Ġbutter": 4573,
      "Ġprocess": 4574,
      "Ġthinks": 4575,
      "iane": 4576,
      "Ġspr": 4577,
      "Ġspok": 4578,
      "Ġspring": 4579,
      "Ġchicago": 4580,
      "Ġagency": 4581,
      "Ġarts": 4582,
      "Ġargu": 4583,
      "Ġquit": 4584,
      "Ġdiv": 4585,
      "Ġpartners": 4586,
      "Ġchap": 4587,
      "Ġmaria": 4588,
      "Ġadult": 4589,
      "lands": 4590,
      "Ġboat": 4591,
      "lfriend": 4592,
      "Ġcarried": 4593,
      "Ġacqu": 4594,
      "Ġ36": 4595,
      "Ġhunt": 4596,
      "Ġ2001": 4597,
      "Ġmonday": 4598,
      "Ġsett": 4599,
      "Ġsetting": 4600,
      "Ġexpensive": 4601,
      "Ġwars": 4602,
      "Ġtribe": 4603,
      "Ġeleven": 4604,
      "Ġimpeach": 4605,
      "Ġ1982": 4606,
      "Ġ1989": 4607,
      "should": 4608,
      "Ġfeels": 4609,
      "Ġ1962": 4610,
      "Ġinvasion": 4611,
      "Ġmississippi": 4612,
      "Ġregions": 4613,
      "didn": 4614,
      "Ġlands": 4615,
      "Ġ1939": 4616,
      "Ġslight": 4617,
      "ologist": 4618,
      "Ġ1940": 4619,
      "Ġpoly": 4620,
      "Ġmatthew": 4621,
      "exactly": 4622,
      "amples": 4623,
      "Ġstaying": 4624,
      "Ġsteal": 4625,
      "Ġestate": 4626,
      "Ġextreme": 4627,
      "aii": 4628,
      "Ġentered": 4629,
      "Ġinterview": 4630,
      "Ġ1925": 4631,
      "Ġprovide": 4632,
      "Ġskull": 4633,
      "commit": 4634,
      "idae": 4635,
      "Ġchristian": 4636,
      "Ġbasically": 4637,
      "speak": 4638,
      "syl": 4639,
      "Ġnatalie": 4640,
      "Ġvoluntary": 4641,
      "Ġhorse": 4642,
      "Ġsusp": 4643,
      "Ġsurprised": 4644,
      "Ġberlin": 4645,
      "michael": 4646,
      "Ġcompletely": 4647,
      "Ġchemistry": 4648,
      "Ġindependent": 4649,
      "Ġindependence": 4650,
      "Ġyellow": 4651,
      "Ġsuburb": 4652,
      "Ġcustomer": 4653,
      "martin": 4654,
      "Ġinstitute": 4655,
      "Ġnetwork": 4656,
      "Ġrailroad": 4657,
      "Ġgordon": 4658,
      "Ġmargaret": 4659,
      "Ġwindfalls": 4660,
      "Ġocean": 4661,
      "Ġdouglas": 4662,
      "Ġdetective": 4663,
      "Ġathlet": 4664,
      "Ġguarant": 4665,
      "elsarrasin": 4666,
      "Ġordinary": 4667,
      "\").": 4668,
      "88": 4669,
      "ares": 4670,
      "aven": 4671,
      "cup": 4672,
      "dan": 4673,
      "during": 4674,
      "fin": 4675,
      "ga": 4676,
      "ji": 4677,
      "lot": 4678,
      "lam": 4679,
      "lings": 4680,
      "life": 4681,
      "must": 4682,
      "made": 4683,
      "oen": 4684,
      "pan": 4685,
      "pret": 4686,
      "wv": 4687,
      "yo": 4688,
      "Ġtun": 4689,
      "Ġtorn": 4690,
      "Ġaunt": 4691,
      "Ġire": 4692,
      "Ġiron": 4693,
      "Ġtheory": 4694,
      "Ġsac": 4695,
      "Ġsale": 4696,
      "Ġsisters": 4697,
      "Ġcore": 4698,
      "anch": 4699,
      "Ġbren": 4700,
      "Ġbuck": 4701,
      "Ġbuckingham": 4702,
      "Ġmate": 4703,
      "Ġmich": 4704,
      "Ġmile": 4705,
      "Ġobs": 4706,
      "Ġoption": 4707,
      "Ġfu": 4708,
      "Ġpun": 4709,
      "Ġpad": 4710,
      "Ġpra": 4711,
      "Ġpush": 4712,
      "lla": 4713,
      "itor": 4714,
      "Ġinstru": 4715,
      "Ġgall": 4716,
      "isoft": 4717,
      "aries": 4718,
      "Ġluck": 4719,
      "leo": 4720,
      "Ġhu": 4721,
      "etball": 4722,
      "Ġhamp": 4723,
      "Ġbeat": 4724,
      "Ġbecomes": 4725,
      "Ġray": 4726,
      "Ġrush": 4727,
      "Ġreck": 4728,
      "under": 4729,
      "ando": 4730,
      "Ġstrange": 4731,
      "Ġstadium": 4732,
      "osie": 4733,
      "ada": 4734,
      "Ġseasons": 4735,
      "were": 4736,
      "Ġasse": 4737,
      "sec": 4738,
      "rog": 4739,
      "Ġatl": 4740,
      "Ġnoticed": 4741,
      "Ġalter": 4742,
      "inking": 4743,
      "ums": 4744,
      "Ġplenty": 4745,
      "Ġshock": 4746,
      "Ġteeth": 4747,
      "Ġchris": 4748,
      "agent": 4749,
      "Ġfear": 4750,
      "cier": 4751,
      "Ġadvis": 4752,
      "while": 4753,
      "Ġcomprom": 4754,
      "Ġourselves": 4755,
      "Ġcarl": 4756,
      "Ġcris": 4757,
      "ossens": 4758,
      "Ġ1998": 4759,
      "Ġbits": 4760,
      "law": 4761,
      "Ġharris": 4762,
      "Ġshare": 4763,
      "Ġsepar": 4764,
      "shut": 4765,
      "Ġraise": 4766,
      "Ġbiggest": 4767,
      "Ġ1966": 4768,
      "Ġgenus": 4769,
      "Ġ1974": 4770,
      "Ġ1956": 4771,
      "Ġ1957": 4772,
      "ierre": 4773,
      "avid": 4774,
      "champ": 4775,
      "goodbye": 4776,
      "Ġcapability": 4777,
      "Ġslow": 4778,
      "Ġdeaths": 4779,
      "versham": 4780,
      "harm": 4781,
      "Ġsouthwestern": 4782,
      "Ġsenator": 4783,
      "Ġlawrence": 4784,
      "Ġpattern": 4785,
      "Ġrecords": 4786,
      "Ġdrag": 4787,
      "Ġrepresented": 4788,
      "gency": 4789,
      "Ġstanding": 4790,
      "Ġwalked": 4791,
      "Ġapart": 4792,
      "Ġlanguages": 4793,
      "Ġtests": 4794,
      "Ġrocks": 4795,
      "Ġcharacters": 4796,
      "Ġvictory": 4797,
      "Ġpicked": 4798,
      "Ġdriving": 4799,
      "Ġapproxim": 4800,
      "Ġcontinue": 4801,
      "Ġgarth": 4802,
      "mission": 4803,
      "Ġimmedi": 4804,
      "Ġmexican": 4805,
      "Ġquickly": 4806,
      "Ġedgewater": 4807,
      "Ġresults": 4808,
      "Ġterritories": 4809,
      "Ġjulia": 4810,
      "Ġghost": 4811,
      "Ġnecessarily": 4812,
      "Ġprimary": 4813,
      "Ġmirror": 4814,
      "Ġfantasy": 4815,
      "Ġhoping": 4816,
      "Ġeffort": 4817,
      "natalie": 4818,
      "Ġboundary": 4819,
      "Ġinjuries": 4820,
      "Ġpatients": 4821,
      "Ġtradition": 4822,
      "Ġadopted": 4823,
      "Ġversion": 4824,
      "Ġdevil": 4825,
      "Ġarrested": 4826,
      "Ġgradu": 4827,
      "Ġadministrative": 4828,
      "stephen": 4829,
      "iasmocleis": 4830,
      "corey": 4831,
      "Ġkazakh": 4832,
      "Ġdisposable": 4833,
      "Ġbasketball": 4834,
      "Ġimpeachment": 4835,
      "Ġireland": 4836,
      "Ġapproximately": 4837,
      ",.": 4838,
      "12": 4839,
      "47": 4840,
      "bur": 4841,
      "cal": 4842,
      "cool": 4843,
      "di": 4844,
      "ded": 4845,
      "gas": 4846,
      "gie": 4847,
      "iers": 4848,
      "kar": 4849,
      "lt": 4850,
      "mitted": 4851,
      "nd": 4852,
      "oll": 4853,
      "peter": 4854,
      "rase": 4855,
      "von": 4856,
      "var": 4857,
      "vict": 4858,
      "yr": 4859,
      "Ġtu": 4860,
      "Ġtor": 4861,
      "Ġtend": 4862,
      "Ġide": 4863,
      "Ġign": 4864,
      "Ġwax": 4865,
      "Ġsuck": 4866,
      "Ġsudden": 4867,
      "Ġcab": 4868,
      "Ġcatch": 4869,
      "Ġbul": 4870,
      "Ġbri": 4871,
      "Ġbug": 4872,
      "Ġbrian": 4873,
      "Ġbored": 4874,
      "Ġbomb": 4875,
      "Ġmaster": 4876,
      "Ġdre": 4877,
      "Ġdotted": 4878,
      "Ġfle": 4879,
      "Ġfern": 4880,
      "enc": 4881,
      "Ġpel": 4882,
      "Ġpred": 4883,
      "Ġpois": 4884,
      "itty": 4885,
      "ester": 4886,
      "Ġinch": 4887,
      "Ġinvent": 4888,
      "Ġtot": 4889,
      "Ġgard": 4890,
      "Ġyouth": 4891,
      "isher": 4892,
      "asing": 4893,
      "Ġnar": 4894,
      "Ġnest": 4895,
      "ici": 4896,
      "owers": 4897,
      "otes": 4898,
      "Ġeating": 4899,
      "Ġrd": 4900,
      "Ġrot": 4901,
      "Ġrich": 4902,
      "Ġrough": 4903,
      "Ġrates": 4904,
      "Ġkore": 4905,
      "idency": 4906,
      "Ġreference": 4907,
      "theastern": 4908,
      "Ġstorm": 4909,
      "ira": 4910,
      "aded": 4911,
      "imp": 4912,
      "imate": 4913,
      "ighter": 4914,
      "stacy": 4915,
      "Ġdefe": 4916,
      "Ġneg": 4917,
      "Ġneck": 4918,
      "Ġnearly": 4919,
      "Ġneither": 4920,
      "olate": 4921,
      "Ġdonson": 4922,
      "Ġalber": 4923,
      "Ġalaska": 4924,
      "Ġaller": 4925,
      "Ġcontext": 4926,
      "absolutely": 4927,
      "eli": 4928,
      "Ġship": 4929,
      "Ġarms": 4930,
      "Ġgram": 4931,
      "Ġfeature": 4932,
      "next": 4933,
      "ogue": 4934,
      "Ġcox": 4935,
      "Ġcoal": 4936,
      "Ġclin": 4937,
      "Ġclock": 4938,
      "mmm": 4939,
      "Ġotherwise": 4940,
      "Ġbob": 4941,
      "Ġguil": 4942,
      "Ġcarrier": 4943,
      "ffic": 4944,
      "door": 4945,
      "aho": 4946,
      "Ġresist": 4947,
      "Ġthrowing": 4948,
      "Ġcrown": 4949,
      "Ġprevious": 4950,
      "leton": 4951,
      "Ġconserv": 4952,
      "Ġ187": 4953,
      "ocolate": 4954,
      "Ġexpand": 4955,
      "Ġ1984": 4956,
      "Ġlots": 4957,
      "Ġsixteen": 4958,
      "Ġjoe": 4959,
      "Ġbigger": 4960,
      "Ġ1961": 4961,
      "Ġ1963": 4962,
      "Ġkilling": 4963,
      "Ġ1975": 4964,
      "Ġcurtain": 4965,
      "Ġ1952": 4966,
      "Ġ1954": 4967,
      "Ġvillages": 4968,
      "Ġvillanueva": 4969,
      "Ġzone": 4970,
      "Ġholly": 4971,
      "although": 4972,
      "Ġbelieved": 4973,
      "Ġsigns": 4974,
      "Ġ1942": 4975,
      "Ġstudied": 4976,
      "march": 4977,
      "ledon": 4978,
      "Ġlegal": 4979,
      "Ġbedroom": 4980,
      "Ġartists": 4981,
      "Ġrooms": 4982,
      "Ġreported": 4983,
      "rica": 4984,
      "Ġprovin": 4985,
      "everybody": 4986,
      "welcome": 4987,
      "Ġdrinking": 4988,
      "Ġtraffic": 4989,
      "Ġchristmas": 4990,
      "Ġmodern": 4991,
      "shawn": 4992,
      "Ġdamage": 4993,
      "Ġdetail": 4994,
      "Ġoccup": 4995,
      "Ġlistening": 4996,
      "Ġsanders": 4997,
      "Ġtechnology": 4998,
      "Ġidentify": 4999,
      "Ġcastle": 5000,
      "Ġconcerned": 5001,
      "great": 5002,
      "Ġjackson": 5003,
      "Ġseventeen": 5004,
      "Ġcopy": 5005,
      "Ġkitty": 5006,
      "Ġphysical": 5007,
      "Ġsurprise": 5008,
      "fortun": 5009,
      "Ġincrease": 5010,
      "Ġdrugs": 5011,
      "lovely": 5012,
      "Ġracing": 5013,
      "Ġaffairs": 5014,
      "Ġchemical": 5015,
      "struction": 5016,
      "Ġresponsib": 5017,
      "Ġwednesday": 5018,
      "Ġinvestigation": 5019,
      "speed": 5020,
      "Ġcultural": 5021,
      "Ġemergency": 5022,
      "Ġachieve": 5023,
      "Ġpossibly": 5024,
      "Ġintrodu": 5025,
      "Ġassistant": 5026,
      "Ġteacher": 5027,
      "becca": 5028,
      "Ġcandidate": 5029,
      "Ġexciting": 5030,
      "Ġgirlfriend": 5031,
      "Ġhouseholds": 5032,
      "designated": 5033,
      "Ġrugby": 5034,
      "Ġbarton": 5035,
      "atulations": 5036,
      "Ġspoken": 5037,
      "oenix": 5038,
      "Ġassemb": 5039,
      "august": 5040,
      "bad": 5041,
      "both": 5042,
      "bwv": 5043,
      "cor": 5044,
      "die": 5045,
      "fontain": 5046,
      "hib": 5047,
      "iat": 5048,
      "ker": 5049,
      "lou": 5050,
      "lan": 5051,
      "luc": 5052,
      "mit": 5053,
      "mount": 5054,
      "nice": 5055,
      "ob": 5056,
      "round": 5057,
      "rick": 5058,
      "sing": 5059,
      "sat": 5060,
      "ule": 5061,
      "vully": 5062,
      "wall": 5063,
      "wick": 5064,
      "Ġ..": 5065,
      "Ġted": 5066,
      "Ġtiss": 5067,
      "hered": 5068,
      "Ġaver": 5069,
      "inson": 5070,
      "erve": 5071,
      "happy": 5072,
      "Ġcord": 5073,
      "Ġcree": 5074,
      "Ġcater": 5075,
      "Ġble": 5076,
      "Ġbother": 5077,
      "Ġborrow": 5078,
      "Ġdig": 5079,
      "Ġdang": 5080,
      "Ġfal": 5081,
      "Ġfought": 5082,
      "Ġpit": 5083,
      "Ġpair": 5084,
      "Ġpharm": 5085,
      "lling": 5086,
      "ites": 5087,
      "itation": 5088,
      "iture": 5089,
      "itect": 5090,
      "itors": 5091,
      "Ġanish": 5092,
      "Ġancient": 5093,
      "eding": 5094,
      "Ġtommy": 5095,
      "Ġgal": 5096,
      "Ġgut": 5097,
      "Ġglo": 5098,
      "Ġgoumo": 5099,
      "isl": 5100,
      "arm": 5101,
      "Ġlink": 5102,
      "Ġlyn": 5103,
      "icient": 5104,
      "Ġheav": 5105,
      "Ġheaven": 5106,
      "leep": 5107,
      "leans": 5108,
      "Ġthier": 5109,
      "Ġhug": 5110,
      "ays": 5111,
      "etch": 5112,
      "Ġhahn": 5113,
      "Ġhaversham": 5114,
      "Ġrow": 5115,
      "Ġrout": 5116,
      "Ġrisk": 5117,
      "Ġrefe": 5118,
      "unting": 5119,
      "ache": 5120,
      "Ġjosh": 5121,
      "verse": 5122,
      "them": 5123,
      "Ġstu": 5124,
      "Ġmeat": 5125,
      "oop": 5126,
      "open": 5127,
      "stay": 5128,
      "still": 5129,
      "rov": 5130,
      "roit": 5131,
      "Ġnebraska": 5132,
      "Ġven": 5133,
      "olk": 5134,
      "Ġalive": 5135,
      "Ġund": 5136,
      "hang": 5137,
      "Ġplus": 5138,
      "Ġplaced": 5139,
      "Ġprove": 5140,
      "Ġexer": 5141,
      "ously": 5142,
      "Ġchick": 5143,
      "agan": 5144,
      "Ġagenda": 5145,
      "Ġqual": 5146,
      "Ġbrun": 5147,
      "Ġbrandy": 5148,
      "Ġwillie": 5149,
      "mple": 5150,
      "bell": 5151,
      "Ġbackground": 5152,
      "Ġafrica": 5153,
      "ensity": 5154,
      "Ġmarine": 5155,
      "Ġmoreno": 5156,
      "Ġcompar": 5157,
      "Ġcompos": 5158,
      "Ġcompared": 5159,
      "Ġours": 5160,
      "Ġguitar": 5161,
      "Ġphrase": 5162,
      "lesh": 5163,
      "Ġchanging": 5164,
      "Ġparam": 5165,
      "Ġmonster": 5166,
      "Ġpope": 5167,
      "Ġohio": 5168,
      "Ġbelong": 5169,
      "Ġsmart": 5170,
      "Ġtrial": 5171,
      "Ġplane": 5172,
      "Ġimpression": 5173,
      "Ġhanging": 5174,
      "Ġfamilies": 5175,
      "Ġdoubt": 5176,
      "anything": 5177,
      "Ġlocation": 5178,
      "looks": 5179,
      "looking": 5180,
      "Ġcreate": 5181,
      "Ġ1977": 5182,
      "Ġmusical": 5183,
      "certain": 5184,
      "Ġcolumn": 5185,
      "Ġ1936": 5186,
      "Ġsurface": 5187,
      "Ġfewer": 5188,
      "Ġaddams": 5189,
      "standing": 5190,
      "Ġmatters": 5191,
      "Ġstudio": 5192,
      "Ġsouthwest": 5193,
      "Ġsenior": 5194,
      "Ġwindows": 5195,
      "Ġpapers": 5196,
      "Ġalongside": 5197,
      "Ġlegisl": 5198,
      "zech": 5199,
      "Ġbroye": 5200,
      "Ġleading": 5201,
      "Ġ1928": 5202,
      "Ġsupporting": 5203,
      "Ġawards": 5204,
      "Ġpaying": 5205,
      "Ġvalent": 5206,
      "Ġgrande": 5207,
      "Ġtransfer": 5208,
      "Ġhurry": 5209,
      "Ġempty": 5210,
      "Ġstarred": 5211,
      "twenty": 5212,
      "Ġtrail": 5213,
      "Ġbringing": 5214,
      "Ġawful": 5215,
      "Ġoperation": 5216,
      "Ġoperational": 5217,
      "Ġevans": 5218,
      "Ġfalling": 5219,
      "Ġperfectly": 5220,
      "vania": 5221,
      "Ġtemple": 5222,
      "Ġwonderful": 5223,
      "Ġbags": 5224,
      "biography": 5225,
      "Ġsucceed": 5226,
      "lications": 5227,
      "black": 5228,
      "foot": 5229,
      "Ġodawa": 5230,
      "Ġjersey": 5231,
      "Ġdeclared": 5232,
      "Ġvirgin": 5233,
      "Ġproducts": 5234,
      "Ġutah": 5235,
      "Ġdisappointed": 5236,
      "Ġfractures": 5237,
      "Ġchoose": 5238,
      "Ġresponsible": 5239,
      "Ġactivist": 5240,
      "Ġbroadcast": 5241,
      "Ġmurdered": 5242,
      "Ġï¿½ï¿½ï¿½ï¿½ï¿½ï¿½ï¿½ï¿½": 5243,
      "Ġcases": 5244,
      "Ġwilks": 5245,
      "Ġgraham": 5246,
      "Ġholiday": 5247,
      "career": 5248,
      "Ġmigration": 5249,
      "Ġrestaurant": 5250,
      "Ġaccommodate": 5251,
      "Ġmanufacturer": 5252,
      "Ġpennsyl": 5253,
      "Ġphilippa": 5254,
      "Ġaustralia": 5255,
      "Ġstatistical": 5256,
      "Ġdestroy": 5257,
      "Ġhambledon": 5258,
      "Ġpremier": 5259,
      "heimer": 5260,
      "Ġsplit": 5261,
      "Ġimmigrants": 5262,
      "Ġdumped": 5263,
      "Ġwriters": 5264,
      "vellous": 5265,
      "ographer": 5266,
      "Ġubisoft": 5267,
      "Ġethnic": 5268,
      "Ġbicycle": 5269,
      "Ġpregnant": 5270,
      "Ġdimension": 5271,
      "Ġfestival": 5272,
      "Ġmichigan": 5273,
      "Ġassembly": 5274,
      "Ġpennsylvania": 5275,
      "23": 5276,
      "25": 5277,
      "29": 5278,
      "48": 5279,
      "90": 5280,
      "bas": 5281,
      "cow": 5282,
      "cong": 5283,
      "eur": 5284,
      "eija": 5285,
      "fant": 5286,
      "fred": 5287,
      "gl": 5288,
      "gt": 5289,
      "gal": 5290,
      "gues": 5291,
      "jess": 5292,
      "june": 5293,
      "kitty": 5294,
      "long": 5295,
      "oz": 5296,
      "pha": 5297,
      "part": 5298,
      "rid": 5299,
      "tes": 5300,
      "try": 5301,
      "tical": 5302,
      "via": 5303,
      "word": 5304,
      "yla": 5305,
      "zig": 5306,
      "Ġtas": 5307,
      "Ġtib": 5308,
      "Ġice": 5309,
      "Ġiran": 5310,
      "Ġille": 5311,
      "Ġiii": 5312,
      "Ġwi": 5313,
      "Ġske": 5314,
      "erry": 5315,
      "Ġcay": 5316,
      "Ġcred": 5317,
      "Ġcous": 5318,
      "Ġcode": 5319,
      "Ġczech": 5320,
      "ancial": 5321,
      "Ġbent": 5322,
      "Ġmck": 5323,
      "Ġol": 5324,
      "Ġdea": 5325,
      "Ġfres": 5326,
      "Ġfame": 5327,
      "Ġfester": 5328,
      "orter": 5329,
      "orial": 5330,
      "enced": 5331,
      "Ġpin": 5332,
      "Ġped": 5333,
      "Ġpus": 5334,
      "Ġanal": 5335,
      "Ġanno": 5336,
      "Ġtox": 5337,
      "Ġgam": 5338,
      "Ġloss": 5339,
      "asters": 5340,
      "Ġnation": 5341,
      "Ġnick": 5342,
      "omi": 5343,
      "oming": 5344,
      "omatic": 5345,
      "vered": 5346,
      "aland": 5347,
      "alous": 5348,
      "owa": 5349,
      "lear": 5350,
      "leland": 5351,
      "Ġhook": 5352,
      "Ġeh": 5353,
      "Ġrings": 5354,
      "Ġkir": 5355,
      "Ġkatherine": 5356,
      "Ġreached": 5357,
      "uten": 5358,
      "Ġforth": 5359,
      "Ġjon": 5360,
      "Ġjay": 5361,
      "Ġstories": 5362,
      "Ġmeas": 5363,
      "Ġmeal": 5364,
      "iring": 5365,
      "kevin": 5366,
      "imet": 5367,
      "opical": 5368,
      "Ġselect": 5369,
      "stone": 5370,
      "celer": 5371,
      "Ġgoal": 5372,
      "Ġdeb": 5373,
      "Ġdebut": 5374,
      "Ġvs": 5375,
      "Ġvote": 5376,
      "olo": 5377,
      "olph": 5378,
      "ulation": 5379,
      "Ġalt": 5380,
      "Ġaltern": 5381,
      "Ġability": 5382,
      "Ġorleans": 5383,
      "rial": 5384,
      "Ġuser": 5385,
      "Ġconven": 5386,
      "uman": 5387,
      "nobody": 5388,
      "pper": 5389,
      "Ġnoise": 5390,
      "Ġplains": 5391,
      "Ġshown": 5392,
      "raw": 5393,
      "redible": 5394,
      "Ġtext": 5395,
      "ender": 5396,
      "uren": 5397,
      "Ġexcellent": 5398,
      "Ġchop": 5399,
      "Ġchocolate": 5400,
      "again": 5401,
      "Ġcounter": 5402,
      "akota": 5403,
      "Ġlew": 5404,
      "ugg": 5405,
      "Ġpros": 5406,
      "Ġtropical": 5407,
      "Ġmanning": 5408,
      "Ġgrey": 5409,
      "Ġbrand": 5410,
      "ube": 5411,
      "Ġdire": 5412,
      "Ìģ,": 5413,
      "Ġmarriage": 5414,
      "Ġblo": 5415,
      "Ġboots": 5416,
      "Ġbobby": 5417,
      "Ġserve": 5418,
      "Ġlaff": 5419,
      "Ġswing": 5420,
      "Ġnorma": 5421,
      "Ġameric": 5422,
      "Ġphoenix": 5423,
      "Ġthrow": 5424,
      "Ġtalks": 5425,
      "Ġcrow": 5426,
      "Ġsecre": 5427,
      "Ġchang": 5428,
      "Ġleaves": 5429,
      "dered": 5430,
      "Ġparcel": 5431,
      "liad": 5432,
      "former": 5433,
      "ï¿½ï¿½ï¿½": 5434,
      "Ġthroughout": 5435,
      "ockey": 5436,
      "mann": 5437,
      "Ġflat": 5438,
      "Ġhelps": 5439,
      "xtrav": 5440,
      "Ġwarning": 5441,
      "Ġsubstant": 5442,
      "Ġfinancial": 5443,
      "govern": 5444,
      "lov": 5445,
      "Ġjew": 5446,
      "Ġ88": 5447,
      "Ġuseful": 5448,
      "Ġ1978": 5449,
      "Ġregard": 5450,
      "ava": 5451,
      "gery": 5452,
      "Ġuniversal": 5453,
      "Ġkeeping": 5454,
      "Ġstrugg": 5455,
      "Ġadded": 5456,
      "Ġ1945": 5457,
      "uese": 5458,
      "ception": 5459,
      "Ġmatches": 5460,
      "Ġmagician": 5461,
      "Ġproportion": 5462,
      "plus": 5463,
      "Ġturning": 5464,
      "Ġeurof": 5465,
      "mark": 5466,
      "Ġsteven": 5467,
      "Ġcorre": 5468,
      "Ġcorps": 5469,
      "viet": 5470,
      "Ġ1927": 5471,
      "Ġ1929": 5472,
      "Ġdefence": 5473,
      "Ġdefined": 5474,
      "Ġincident": 5475,
      "Ġpieces": 5476,
      "Ġfollowed": 5477,
      "Ġhurst": 5478,
      "Ġindians": 5479,
      "Ġpenny": 5480,
      "Ġsongs": 5481,
      "Ġreasonable": 5482,
      "Ġsolve": 5483,
      "Ġforeign": 5484,
      "Ġapproved": 5485,
      "ĠâĢĶ": 5486,
      "Ġdetroit": 5487,
      "Ġpercentage": 5488,
      "Ġcathed": 5489,
      "Ġpractical": 5490,
      "Ġmontreal": 5491,
      "Ġmelissa": 5492,
      "Ġphotograph": 5493,
      "Ġolympic": 5494,
      "Ġcommander": 5495,
      "sweets": 5496,
      "Ġobjectives": 5497,
      "Ġanti": 5498,
      "Ġanimals": 5499,
      "agnos": 5500,
      "Ġdisappear": 5501,
      "Ġportuguese": 5502,
      "Ġcirc": 5503,
      "Ġfantastic": 5504,
      "Ġessential": 5505,
      "Ġhyp": 5506,
      "Ġsports": 5507,
      "Ġborough": 5508,
      "Ġliterature": 5509,
      "Ġarchitect": 5510,
      "Ġfeatures": 5511,
      "Ġoriginally": 5512,
      "Ġrevolution": 5513,
      "furber": 5514,
      "Ġreduction": 5515,
      "Ġwheelchair": 5516,
      "Ġvehicle": 5517,
      "Ġbacon": 5518,
      "Ġtemperature": 5519,
      "Ġtower": 5520,
      "Ġnewspaper": 5521,
      "Ġscholar": 5522,
      "Ġcorporation": 5523,
      "committee": 5524,
      "Ġreckon": 5525,
      "Ġtotally": 5526,
      "Ġguilty": 5527,
      "Ġexercise": 5528,
      "Ġlafferty": 5529,
      "xtravagan": 5530,
      "Ġeurofighter": 5531,
      "'.": 5532,
      "62": 5533,
      "away": 5534,
      "bow": 5535,
      "bus": 5536,
      "bro": 5537,
      "bble": 5538,
      "bury": 5539,
      "cre": 5540,
      "cur": 5541,
      "dp": 5542,
      "dale": 5543,
      "david": 5544,
      "eight": 5545,
      "fun": 5546,
      "fish": 5547,
      "hol": 5548,
      "iac": 5549,
      "kov": 5550,
      "lie": 5551,
      "phal": 5552,
      "rd": 5553,
      "rad": 5554,
      "rated": 5555,
      "ratulations": 5556,
      "top": 5557,
      "vation": 5558,
      "zen": 5559,
      "Ġ;": 5560,
      "Ġxtravagan": 5561,
      "Ġtat": 5562,
      "Ġtourn": 5563,
      "heh": 5564,
      "Ġiv": 5565,
      "oul": 5566,
      "Ġwis": 5567,
      "Ġwine": 5568,
      "Ġwich": 5569,
      "Ġwales": 5570,
      "Ġwards": 5571,
      "regon": 5572,
      "Ġsust": 5573,
      "Ġsul": 5574,
      "Ġsab": 5575,
      "Ġsack": 5576,
      "Ġsheriff": 5577,
      "inet": 5578,
      "inion": 5579,
      "Ġcit": 5580,
      "Ġcine": 5581,
      "Ġcash": 5582,
      "Ġbast": 5583,
      "Ġbost": 5584,
      "Ġbach": 5585,
      "Ġoregon": 5586,
      "Ġdip": 5587,
      "Ġdare": 5588,
      "Ġdying": 5589,
      "Ġdakota": 5590,
      "Ġfict": 5591,
      "Ġfurn": 5592,
      "Ġfirm": 5593,
      "Ġflesh": 5594,
      "enar": 5595,
      "enoh": 5596,
      "enough": 5597,
      "Ġpardon": 5598,
      "llen": 5599,
      "especially": 5600,
      "Ġinquiry": 5601,
      "Ġinstruct": 5602,
      "Ġger": 5603,
      "Ġgro": 5604,
      "Ġgain": 5605,
      "Ġyous": 5606,
      "Ġlap": 5607,
      "Ġnaz": 5608,
      "omach": 5609,
      "vet": 5610,
      "using": 5611,
      "Ġhide": 5612,
      "Ġhuge": 5613,
      "Ġhockey": 5614,
      "ayer": 5615,
      "etter": 5616,
      "Ġbeats": 5617,
      "Ġbecoming": 5618,
      "Ġeld": 5619,
      "Ġegy": 5620,
      "Ġrh": 5621,
      "Ġrio": 5622,
      "Ġrank": 5623,
      "Ġkim": 5624,
      "idad": 5625,
      "Ġjenn": 5626,
      "Ġstomach": 5627,
      "amin": 5628,
      "lying": 5629,
      "Ġmeme": 5630,
      "oops": 5631,
      "adel": 5632,
      "opher": 5633,
      "Ġknowles": 5634,
      "thur": 5635,
      "thomas": 5636,
      "chiasmocleis": 5637,
      "ills": 5638,
      "Ġliver": 5639,
      "Ġalma": 5640,
      "Ġalpha": 5641,
      "Ġconvent": 5642,
      "abeth": 5643,
      "eless": 5644,
      "tered": 5645,
      "teenth": 5646,
      "Ġplat": 5647,
      "Ġproceed": 5648,
      "ipe": 5649,
      "Ġspark": 5650,
      "Ġchuck": 5651,
      "agraph": 5652,
      "Ġarrange": 5653,
      "Ġquant": 5654,
      "Ġgray": 5655,
      "Ġgrate": 5656,
      "Ġleon": 5657,
      "caa": 5658,
      "Ġtru": 5659,
      "Ġgreek": 5660,
      "Ġdivided": 5661,
      "Ġcoat": 5662,
      "Ġmarry": 5663,
      "Ġmarshall": 5664,
      "itely": 5665,
      "Ġblow": 5666,
      "Ġcompare": 5667,
      "ultan": 5668,
      "Ġways": 5669,
      "Ġtalked": 5670,
      "Ġscore": 5671,
      "Ġscene": 5672,
      "Ġsupreme": 5673,
      "Ġdrosoph": 5674,
      "Ġparagraph": 5675,
      "vised": 5676,
      "ranger": 5677,
      "Ġ1999": 5678,
      "Ġchest": 5679,
      "many": 5680,
      "Ġsixth": 5681,
      "Ġcarefully": 5682,
      "Ġworldwide": 5683,
      "Ġ45": 5684,
      "Ġhelped": 5685,
      "Ġjuice": 5686,
      "ventry": 5687,
      "Ġ79": 5688,
      "Ġattorn": 5689,
      "Ġkiller": 5690,
      "going": 5691,
      "loy": 5692,
      "baby": 5693,
      "Ġjeff": 5694,
      "Ġ80": 5695,
      "Ġ1973": 5696,
      "Ġ1951": 5697,
      "Ġ1953": 5698,
      "Ġbreast": 5699,
      "belie": 5700,
      "Ġfactor": 5701,
      "Ġhighway": 5702,
      "Ġ1932": 5703,
      "Ġinsane": 5704,
      "Ġfuneral": 5705,
      "Ġillust": 5706,
      "Ġsyl": 5707,
      "Ġmedical": 5708,
      "except": 5709,
      "Ġprix": 5710,
      "Ġintell": 5711,
      "Ġsteam": 5712,
      "Ġestabl": 5713,
      "Ġshortly": 5714,
      "Ġlabour": 5715,
      "Ġspeaker": 5716,
      "Ġelectric": 5717,
      "elling": 5718,
      "uctive": 5719,
      "Ġincredible": 5720,
      "Ġattacks": 5721,
      "villars": 5722,
      "Ġtransl": 5723,
      "Ġconfirm": 5724,
      "everyone": 5725,
      "Ġemper": 5726,
      "Ġexperi": 5727,
      "Ġexpert": 5728,
      "Ġhonour": 5729,
      "Ġbasic": 5730,
      "Ġpalace": 5731,
      "icultural": 5732,
      "Ġoxfordshire": 5733,
      "Ġconstitu": 5734,
      "Ġshops": 5735,
      "Ġholding": 5736,
      "Ġsexy": 5737,
      "Ġmulti": 5738,
      "Ġlimit": 5739,
      "Ġcastelsarrasin": 5740,
      "Ġengineer": 5741,
      "Ġengineering": 5742,
      "said": 5743,
      "Ġmontana": 5744,
      "Ġestimate": 5745,
      "Ġestimator": 5746,
      "Ġorganisation": 5747,
      "Ġtimor": 5748,
      "blood": 5749,
      "Ġperuv": 5750,
      "Ġindustrial": 5751,
      "Ġwedding": 5752,
      "Ġfault": 5753,
      "Ġnomination": 5754,
      "Ġepisode": 5755,
      "Ġcustomers": 5756,
      "Ġbalcon": 5757,
      "Ġallocated": 5758,
      "Ġclimate": 5759,
      "Ġarrived": 5760,
      "break": 5761,
      "Ġromantic": 5762,
      "Ġescap": 5763,
      "Ġtitle": 5764,
      "july": 5765,
      "Ġsmell": 5766,
      "Ġargentina": 5767,
      "Ġzealand": 5768,
      "Ġopposition": 5769,
      "Ġlucy": 5770,
      "Ġembarr": 5771,
      "Ġarrows": 5772,
      "Ġelliot": 5773,
      "Ġcommercial": 5774,
      "azzag": 5775,
      "Ġtanks": 5776,
      "Ġterrorists": 5777,
      "Ġcigarette": 5778,
      "Ġappreciate": 5779,
      "Ġcolumbia": 5780,
      "Ġmoscow": 5781,
      "Ġextremely": 5782,
      "Ġpoison": 5783,
      "Ġallergic": 5784,
      "Ġvalentine": 5785,
      "congratulations": 5786,
      "Ġcayo": 5787,
      "Ġcousin": 5788,
      "Ġcathedral": 5789,
      "Ġtournament": 5790,
      "Ġwichita": 5791,
      "Ġboston": 5792,
      "Ġfictional": 5793,
      "enohyla": 5794,
      "Ġegypt": 5795,
      "Ġembarrass": 5796,
      "!\"": 5797,
      "70": 5798,
      "bill": 5799,
      "bian": 5800,
      "bish": 5801,
      "dis": 5802,
      "ders": 5803,
      "dep": 5804,
      "fa": 5805,
      "fwa": 5806,
      "hot": 5807,
      "huh": 5808,
      "iant": 5809,
      "ilet": 5810,
      "jane": 5811,
      "kansas": 5812,
      "lad": 5813,
      "lades": 5814,
      "mod": 5815,
      "making": 5816,
      "non": 5817,
      "nin": 5818,
      "nal": 5819,
      "ova": 5820,
      "page": 5821,
      "pool": 5822,
      "possens": 5823,
      "rome": 5824,
      "sit": 5825,
      "sed": 5826,
      "sid": 5827,
      "uing": 5828,
      "ym": 5829,
      "zo": 5830,
      "Â°": 5831,
      "Ġtel": 5832,
      "Ġastr": 5833,
      "Ġarap": 5834,
      "Ġaux": 5835,
      "oud": 5836,
      "oux": 5837,
      "Ġwound": 5838,
      "Ġwings": 5839,
      "Ġcra": 5840,
      "Ġcrap": 5841,
      "anth": 5842,
      "Ġmam": 5843,
      "Ġoj": 5844,
      "Ġot": 5845,
      "Ġost": 5846,
      "Ġdal": 5847,
      "Ġdum": 5848,
      "ori": 5849,
      "oral": 5850,
      "oria": 5851,
      "ena": 5852,
      "enne": 5853,
      "Ġpul": 5854,
      "Ġpure": 5855,
      "Ġpunk": 5856,
      "llock": 5857,
      "Ġanton": 5858,
      "Ġinner": 5859,
      "eds": 5860,
      "Ġgang": 5861,
      "isa": 5862,
      "Ġlic": 5863,
      "Ġlel": 5864,
      "Ġlack": 5865,
      "Ġlunch": 5866,
      "icide": 5867,
      "always": 5868,
      "Ġheat": 5869,
      "leave": 5870,
      "Ġhou": 5871,
      "Ġhind": 5872,
      "eton": 5873,
      "Ġonline": 5874,
      "Ġrand": 5875,
      "Ġross": 5876,
      "Ġken": 5877,
      "Ġwebs": 5878,
      "ented": 5879,
      "idance": 5880,
      "idence": 5881,
      "Ġreach": 5882,
      "Ġreject": 5883,
      "Ġjail": 5884,
      "Ġjaco": 5885,
      "theren": 5886,
      "Ġstyle": 5887,
      "amics": 5888,
      "uri": 5889,
      "Ġdol": 5890,
      "ctions": 5891,
      "Ġsearch": 5892,
      "Ġfraud": 5893,
      "station": 5894,
      "week": 5895,
      "Ġknowing": 5896,
      "Ġasleep": 5897,
      "illo": 5898,
      "eau": 5899,
      "Ġliber": 5900,
      "geon": 5901,
      "Ġwhom": 5902,
      "Ġwhose": 5903,
      "olved": 5904,
      "olitan": 5905,
      "Ġalto": 5906,
      "Ġcomfort": 5907,
      "Ġuns": 5908,
      "Ġunit": 5909,
      "iffe": 5910,
      "Ġnov": 5911,
      "tees": 5912,
      "Ġupon": 5913,
      "Ġupstairs": 5914,
      "Ġproced": 5915,
      "Ġsail": 5916,
      "ipzig": 5917,
      "Ġspin": 5918,
      "Ġchile": 5919,
      "Ġchosen": 5920,
      "Ġarthur": 5921,
      "Ġquality": 5922,
      "Ġleipzig": 5923,
      "Ġproof": 5924,
      "Ġloose": 5925,
      "Ġtrish": 5926,
      "Ġworker": 5927,
      "Ġcoff": 5928,
      "Ġcovers": 5929,
      "Ġbacks": 5930,
      "âĢĶ": 5931,
      "Ġclipp": 5932,
      "Ġchallen": 5933,
      "Ġadver": 5934,
      "Ġadrian": 5935,
      "ansion": 5936,
      "erman": 5937,
      "Ġoverall": 5938,
      "Ġguidance": 5939,
      "Ġbetty": 5940,
      "Ġcarly": 5941,
      "Ġlausanne": 5942,
      "Ġworst": 5943,
      "Ġplaystation": 5944,
      "izabeth": 5945,
      "Ġeverywhere": 5946,
      "Ġappoint": 5947,
      "Ġscale": 5948,
      "Ġpresidency": 5949,
      "pelle": 5950,
      "deborah": 5951,
      "Ġstarts": 5952,
      "Ġbelize": 5953,
      "Ġwarner": 5954,
      "Ġtrip": 5955,
      "Ġtribes": 5956,
      "Ġelement": 5957,
      "Ġplanned": 5958,
      "Ġshape": 5959,
      "Ġ1983": 5960,
      "Ġfoundation": 5961,
      "Ġsubmitted": 5962,
      "Ġjuan": 5963,
      "Ġfinds": 5964,
      "Ġtenor": 5965,
      "Ġcreation": 5966,
      "Ġ1971": 5967,
      "Ġ1976": 5968,
      "Ġdesc": 5969,
      "Ġ92": 5970,
      "Ġbarrow": 5971,
      "Ġlanding": 5972,
      "Ġholy": 5973,
      "Ġcounties": 5974,
      "Ġ1931": 5975,
      "boy": 5976,
      "Ġsurround": 5977,
      "Ġsurgery": 5978,
      "inae": 5979,
      "Ġ1946": 5980,
      "Ġtelephone": 5981,
      "Ġopening": 5982,
      "Ġmagn": 5983,
      "enezy": 5984,
      "Ġkidney": 5985,
      "Ġstudent": 5986,
      "Ġstudents": 5987,
      "Ġretire": 5988,
      "Ġstayed": 5989,
      "Ġsteel": 5990,
      "Ġsouls": 5991,
      "Ġveget": 5992,
      "Ġreficul": 5993,
      "Ġlabeija": 5994,
      "Ġprotests": 5995,
      "Ġcommitments": 5996,
      "Ġcountryside": 5997,
      "Ġmicros": 5998,
      "somebody": 5999,
      "Ġfields": 6000,
      "Ġforwards": 6001,
      "Ġfairmount": 6002,
      "Ġconfident": 6003,
      "Ġemphas": 6004,
      "ursday": 6005,
      "Ġviews": 6006,
      "apparently": 6007,
      "Ġbillion": 6008,
      "Ġrocket": 6009,
      "Ġoperations": 6010,
      "Ġpotato": 6011,
      "Ġeconomy": 6012,
      "Ġsending": 6013,
      "ovic": 6014,
      "Ġfurber": 6015,
      "Ġcosta": 6016,
      "Ġevil": 6017,
      "âĢĻ,": 6018,
      "change": 6019,
      "Ġevents": 6020,
      "Ġfreez": 6021,
      "Ġsquad": 6022,
      "Ġoccasion": 6023,
      "Ġfighting": 6024,
      "Ġfederation": 6025,
      "Ġavo": 6026,
      "Ġdistributed": 6027,
      "Ġaccepted": 6028,
      "Ġpressure": 6029,
      "Ġviol": 6030,
      "Ġreturns": 6031,
      "Ġsleeping": 6032,
      "Ġclothing": 6033,
      "Ġofficials": 6034,
      "ski": 6035,
      "Ġstatus": 6036,
      "Ġscientist": 6037,
      "Ġphysics": 6038,
      "Ġcolorado": 6039,
      "Ġcarrying": 6040,
      "Ġcooking": 6041,
      "Ġseriously": 6042,
      "ervation": 6043,
      "Ġrecognized": 6044,
      "Ġincreasing": 6045,
      "Ġindication": 6046,
      "Ġindicate": 6047,
      "sweet": 6048,
      "Ġbudget": 6049,
      "Ġvoices": 6050,
      "Ġcompetition": 6051,
      "Ġlieuten": 6052,
      "Ġconnection": 6053,
      "Ġdescribe": 6054,
      "Ġprinceton": 6055,
      "Ġappears": 6056,
      "Ġturk": 6057,
      "Ġprincess": 6058,
      "Ġrules": 6059,
      "Ġalexander": 6060,
      "Ġescort": 6061,
      "related": 6062,
      "Ġslave": 6063,
      "Ġsanta": 6064,
      "Ġargentine": 6065,
      "Ġhonestly": 6066,
      "Ġopposite": 6067,
      "Ġladies": 6068,
      "Ġticket": 6069,
      "Ġmountains": 6070,
      "Ġbehalf": 6071,
      "Ġconversation": 6072,
      "Ġcomplaints": 6073,
      "Ġreligious": 6074,
      "contin": 6075,
      "Ġhawk": 6076,
      "Ġbanglades": 6077,
      "Ġnadine": 6078,
      "Ġbiden": 6079,
      "Ġarticle": 6080,
      "honest": 6081,
      "Ġsprings": 6082,
      "speaking": 6083,
      "Ġathletic": 6084,
      "Ġalteration": 6085,
      "cierges": 6086,
      "Ġcrisis": 6087,
      "Ġimmediately": 6088,
      "Ġgraduated": 6089,
      "Ġsuddenly": 6090,
      "Ġdreams": 6091,
      "Ġprovinces": 6092,
      "Ġresponsibility": 6093,
      "Ġroute": 6094,
      "Ġtibet": 6095,
      "Ġcredit": 6096,
      "Ġdebate": 6097,
      "Ġsubstantial": 6098,
      "Ġxtravaganza": 6099,
      "Ġfurniture": 6100,
      "Ġgrateful": 6101,
      "Ġattorney": 6102,
      "Ġestablished": 6103,
      "Ġperuvian": 6104,
      "Ġarapaho": 6105,
      "Ġantonio": 6106,
      "therenges": 6107,
      "26": 6108,
      "40": 6109,
      "80": 6110,
      "95": 6111,
      "big": 6112,
      "bea": 6113,
      "bles": 6114,
      "cas": 6115,
      "div": 6116,
      "drop": 6117,
      "eva": 6118,
      "gles": 6119,
      "girl": 6120,
      "hus": 6121,
      "hos": 6122,
      "hood": 6123,
      "ij": 6124,
      "lict": 6125,
      "mus": 6126,
      "nam": 6127,
      "nine": 6128,
      "oe": 6129,
      "ox": 6130,
      "pill": 6131,
      "pick": 6132,
      "press": 6133,
      "ptember": 6134,
      "pired": 6135,
      "rus": 6136,
      "rum": 6137,
      "rvi": 6138,
      "rhin": 6139,
      "song": 6140,
      "sounds": 6141,
      "sheriff": 6142,
      "sighs": 6143,
      "tre": 6144,
      "tim": 6145,
      "tod": 6146,
      "uer": 6147,
      "vic": 6148,
      "vard": 6149,
      "zheimer": 6150,
      "Ġ&": 6151,
      "Ġq": 6152,
      "Ġum": 6153,
      "Ġtip": 6154,
      "Ġtied": 6155,
      "Ġtales": 6156,
      "Ġtiny": 6157,
      "Ġara": 6158,
      "Ġwow": 6159,
      "Ġsnot": 6160,
      "Ġsample": 6161,
      "Ġsession": 6162,
      "Ġsamples": 6163,
      "onto": 6164,
      "includ": 6165,
      "Ġcroat": 6166,
      "ani": 6167,
      "anation": 6168,
      "Ġbun": 6169,
      "Ġbog": 6170,
      "Ġbuc": 6171,
      "Ġmuse": 6172,
      "Ġmcc": 6173,
      "Ġdata": 6174,
      "Ġditch": 6175,
      "Ġdenezy": 6176,
      "Ġfing": 6177,
      "Ġfab": 6178,
      "Ġfib": 6179,
      "encer": 6180,
      "Ġpazzag": 6181,
      "Ġanx": 6182,
      "Ġanswe": 6183,
      "ede": 6184,
      "Ġtoast": 6185,
      "Ġtoilet": 6186,
      "Ġgamb": 6187,
      "hatt": 6188,
      "Ġlith": 6189,
      "asc": 6190,
      "Ġnd": 6191,
      "Ġnuts": 6192,
      "Ġncaa": 6193,
      "Ġanderson": 6194,
      "alma": 6195,
      "Ġheh": 6196,
      "Ġthroat": 6197,
      "Ġhom": 6198,
      "Ġhaut": 6199,
      "Ġbee": 6200,
      "Ġbeer": 6201,
      "Ġwaste": 6202,
      "Ġec": 6203,
      "Ġeug": 6204,
      "Ġecu": 6205,
      "Ġrod": 6206,
      "Ġrivers": 6207,
      "Ġka": 6208,
      "igen": 6209,
      "igail": 6210,
      "Ġreve": 6211,
      "unc": 6212,
      "unless": 6213,
      "aching": 6214,
      "Ġford": 6215,
      "verdon": 6216,
      "Ġstress": 6217,
      "kelly": 6218,
      "alle": 6219,
      "Ġsequ": 6220,
      "Ġsevere": 6221,
      "Ġsemi": 6222,
      "Ġsemple": 6223,
      "stal": 6224,
      "sea": 6225,
      "september": 6226,
      "thirty": 6227,
      "roe": 6228,
      "rol": 6229,
      "Ġlies": 6230,
      "Ġliability": 6231,
      "Ġattemp": 6232,
      "Ġatoll": 6233,
      "geography": 6234,
      "Ġneb": 6235,
      "Ġneyr": 6236,
      "Ġvac": 6237,
      "Ġvoc": 6238,
      "Ġvotes": 6239,
      "olas": 6240,
      "Ġalzheimer": 6241,
      "Ġordered": 6242,
      "...\"": 6243,
      "hand": 6244,
      "hansk": 6245,
      "quite": 6246,
      "Ġconstr": 6247,
      "Ġsoda": 6248,
      "Ġsoviet": 6249,
      "Ġplastic": 6250,
      "Ġshirt": 6251,
      "Ġprovided": 6252,
      "iance": 6253,
      "Ġexact": 6254,
      "Ġpeyres": 6255,
      "Ġchung": 6256,
      "Ġaggress": 6257,
      "Ġarmed": 6258,
      "apoo": 6259,
      "aki": 6260,
      "osem": 6261,
      "Ġquid": 6262,
      "Ġquote": 6263,
      "ordin": 6264,
      "Ġprose": 6265,
      "nee": 6266,
      "Ġtrick": 6267,
      "Ġbridge": 6268,
      "Ġwillmore": 6269,
      "Ġdiagn": 6270,
      "Ġcole": 6271,
      "Ġoffering": 6272,
      "Ġencour": 6273,
      "Ġchapelle": 6274,
      "Ġmarks": 6275,
      "Ġmarino": 6276,
      "Ġmartherenges": 6277,
      "Ġadj": 6278,
      "Ġadvant": 6279,
      "okes": 6280,
      "Ġblues": 6281,
      "Ġcomplic": 6282,
      "Ġperf": 6283,
      "Ġcarav": 6284,
      "Ġcalling": 6285,
      "Ġsworn": 6286,
      "iverse": 6287,
      "Ġdepos": 6288,
      "Ġdepends": 6289,
      "uclear": 6290,
      "Ġ35": 6291,
      "Ġundert": 6292,
      "Ġunderst": 6293,
      "Ġappend": 6294,
      "Ġapparently": 6295,
      "Ġscrew": 6296,
      "Ġcrack": 6297,
      "Ġcrash": 6298,
      "phia": 6299,
      "Ġchane": 6300,
      "Ġdrain": 6301,
      "liable": 6302,
      "Ġbelow": 6303,
      "Ġelsa": 6304,
      "Ġflowers": 6305,
      "Ġharvey": 6306,
      "shield": 6307,
      "bring": 6308,
      "Ġraz": 6309,
      "Ġruns": 6310,
      "Ġshowing": 6311,
      "Ġcream": 6312,
      "Ġjewell": 6313,
      "Ġjealous": 6314,
      "Ġowner": 6315,
      "Ġowned": 6316,
      "Ġ1958": 6317,
      "duct": 6318,
      "ierce": 6319,
      "Ġmush": 6320,
      "Ġzack": 6321,
      "Ġopinion": 6322,
      "Ġhighly": 6323,
      "Ġkeeps": 6324,
      "box": 6325,
      "Ġslam": 6326,
      "Ġslice": 6327,
      "Ġ1947": 6328,
      "Ġ1948": 6329,
      "Ġ1949": 6330,
      "Ġassess": 6331,
      "Ġtreble": 6332,
      "Ġtreasure": 6333,
      "Ġcert": 6334,
      "holly": 6335,
      "place": 6336,
      "Ġterry": 6337,
      "central": 6338,
      "Ġsoutheast": 6339,
      "Ġpassion": 6340,
      "Ġcommunities": 6341,
      "Ġphiladel": 6342,
      "Ġbuilders": 6343,
      "Ġfootballer": 6344,
      "Ġwinner": 6345,
      "Ġpatrick": 6346,
      "Ġstreets": 6347,
      "Ġdemand": 6348,
      "Ġrecording": 6349,
      "Ġhardly": 6350,
      "Ġorganized": 6351,
      "Ġorganization": 6352,
      "without": 6353,
      "Ġremo": 6354,
      "ella": 6355,
      "Ġgrandma": 6356,
      "Ġyounger": 6357,
      "Ġmidnight": 6358,
      "urgh": 6359,
      "Ġsalt": 6360,
      "Ġconflict": 6361,
      "Ġtesting": 6362,
      "Ġhurley": 6363,
      "Ġsentai": 6364,
      "Ġmajority": 6365,
      "Ġslept": 6366,
      "Ġpresenter": 6367,
      "Ġexpecting": 6368,
      "axy": 6369,
      "Ġsolid": 6370,
      "Ġdamaged": 6371,
      "Ġforever": 6372,
      "Ġtapes": 6373,
      "Ġexplanation": 6374,
      "carry": 6375,
      "Ġcosts": 6376,
      "Ġprograms": 6377,
      "Ġcontinues": 6378,
      "Ġcontinental": 6379,
      "Ġcontinued": 6380,
      "2016": 6381,
      "Ġhistorical": 6382,
      "Ġtechnical": 6383,
      "Ġtrained": 6384,
      "missions": 6385,
      "cular": 6386,
      "Ġlearned": 6387,
      "Ġpackard": 6388,
      "Ġfilled": 6389,
      "Ġcollection": 6390,
      "Ġalbums": 6391,
      "andyman": 6392,
      "Ġvolun": 6393,
      "Ġdecisions": 6394,
      "Ġpurcha": 6395,
      "Ġcycl": 6396,
      "Ġpersonality": 6397,
      "Ġspecifically": 6398,
      "Ġconstitutional": 6399,
      "Ġfella": 6400,
      "Ġchampion": 6401,
      "Ġjerry": 6402,
      "Ġexecuted": 6403,
      "Ġincreased": 6404,
      "Ġbudd": 6405,
      "Ġanticip": 6406,
      "Ġvirt": 6407,
      "Ġoui": 6408,
      "Ġvariations": 6409,
      "Ġirish": 6410,
      "Ġnominated": 6411,
      "Ġminority": 6412,
      "rupt": 6413,
      "Ġbalance": 6414,
      "Ġpanel": 6415,
      "Ġwashburn": 6416,
      "Ġweapons": 6417,
      "Ġetc": 6418,
      "Ġwidow": 6419,
      "Ġclaimed": 6420,
      "Ġfailure": 6421,
      "Ġnavy": 6422,
      "ablack": 6423,
      "Ġfavor": 6424,
      "Ġfrancisco": 6425,
      "Ġcategory": 6426,
      "Ġcategories": 6427,
      "Ġnursery": 6428,
      "Ġcarolina": 6429,
      "Ġresignation": 6430,
      "Ġpollution": 6431,
      "Ġpiano": 6432,
      "Ġcontribution": 6433,
      "Ġassumption": 6434,
      "Ġdutch": 6435,
      "Ġknees": 6436,
      "Ġadvance": 6437,
      "Ġdefinition": 6438,
      "Ġneighbours": 6439,
      "onomous": 6440,
      "Ġcondition": 6441,
      "Ġroyal": 6442,
      "january": 6443,
      "Ġpursue": 6444,
      "Ġagricultural": 6445,
      "Ġsettled": 6446,
      "lotte": 6447,
      "Ġtornado": 6448,
      "champvent": 6449,
      "Ġfernando": 6450,
      "Ġnarrow": 6451,
      "Ġkorean": 6452,
      "fortunately": 6453,
      "Ġintroduce": 6454,
      "fontaine": 6455,
      "Ġheavy": 6456,
      "Ġthierrens": 6457,
      "Ġguitarist": 6458,
      "Ġvirginia": 6459,
      "Ġfresh": 6460,
      "Ġlewis": 6461,
      "Ġdirection": 6462,
      "Ġcrowd": 6463,
      "Ġsecrets": 6464,
      "Ġcorrevon": 6465,
      "Ġbastard": 6466,
      "Ġdrosophil": 6467,
      "Ġemperor": 6468,
      "Ġmontanaire": 6469,
      "Ġbalcony": 6470,
      "llocks": 6471,
      "Ġleland": 6472,
      "Ġcoffin": 6473,
      "Ġlieutenant": 6474,
      "Ġecuador": 6475,
      "Ġneyruz": 6476,
      "Ġdiagnosed": 6477,
      "Ġphiladelphia": 6478,
      "28": 6479,
      "34": 6480,
      "400": 6481,
      "75": 6482,
      "99": 6483,
      "bid": 6484,
      "bden": 6485,
      "cest": 6486,
      "coh": 6487,
      "cip": 6488,
      "cap": 6489,
      "cdp": 6490,
      "dou": 6491,
      "dor": 6492,
      "dun": 6493,
      "dess": 6494,
      "dog": 6495,
      "ech": 6496,
      "fil": 6497,
      "gra": 6498,
      "gium": 6499,
      "jack": 6500,
      "jamin": 6501,
      "kins": 6502,
      "late": 6503,
      "mal": 6504,
      "might": 6505,
      "make": 6506,
      "mers": 6507,
      "mare": 6508,
      "nit": 6509,
      "nens": 6510,
      "och": 6511,
      "oye": 6512,
      "pat": 6513,
      "pardon": 6514,
      "rac": 6515,
      "rim": 6516,
      "rant": 6517,
      "rough": 6518,
      "ridge": 6519,
      "sal": 6520,
      "same": 6521,
      "sign": 6522,
      "show": 6523,
      "saint": 6524,
      "town": 6525,
      "uan": 6526,
      "uous": 6527,
      "uable": 6528,
      "vy": 6529,
      "wing": 6530,
      "wal": 6531,
      "wind": 6532,
      "ware": 6533,
      "woman": 6534,
      "women": 6535,
      "xenohyla": 6536,
      "Ġ:": 6537,
      "Ġug": 6538,
      "Ġtou": 6539,
      "Ġtay": 6540,
      "Ġtask": 6541,
      "Ġaired": 6542,
      "Ġariz": 6543,
      "Ġwrest": 6544,
      "rele": 6545,
      "Ġsi": 6546,
      "Ġsake": 6547,
      "Ġsask": 6548,
      "Ġsultan": 6549,
      "onge": 6550,
      "inter": 6551,
      "erling": 6552,
      "hamm": 6553,
      "half": 6554,
      "Ġcake": 6555,
      "Ġcope": 6556,
      "Ġcamer": 6557,
      "Ġbc": 6558,
      "Ġbow": 6559,
      "Ġmp": 6560,
      "Ġmut": 6561,
      "Ġmend": 6562,
      "Ġmath": 6563,
      "Ġmandy": 6564,
      "Ġdust": 6565,
      "Ġdumb": 6566,
      "Ġdiane": 6567,
      "Ġfi": 6568,
      "Ġfoss": 6569,
      "Ġfreed": 6570,
      "oration": 6571,
      "orage": 6572,
      "Ġpiss": 6573,
      "Ġpants": 6574,
      "Ġpunch": 6575,
      "iti": 6576,
      "itness": 6577,
      "Ġtoy": 6578,
      "Ġtolu": 6579,
      "Ġglove": 6580,
      "Ġna": 6581,
      "Ġnu": 6582,
      "ombs": 6583,
      "icia": 6584,
      "Ġhir": 6585,
      "Ġhmm": 6586,
      "ett": 6587,
      "Ġears": 6588,
      "Ġeats": 6589,
      "Ġrt": 6590,
      "Ġrural": 6591,
      "Ġreward": 6592,
      "Ġrebecca": 6593,
      "uties": 6594,
      "acher": 6595,
      "Ġforms": 6596,
      "Ġjum": 6597,
      "Ġjag": 6598,
      "osing": 6599,
      "amot": 6600,
      "amination": 6601,
      "lyn": 6602,
      "lybden": 6603,
      "iral": 6604,
      "uroy": 6605,
      "imb": 6606,
      "allow": 6607,
      "outed": 6608,
      "opagnos": 6609,
      "Ġsector": 6610,
      "Ġfright": 6611,
      "Ġasia": 6612,
      "sex": 6613,
      "sect": 6614,
      "seven": 6615,
      "omez": 6616,
      "cho": 6617,
      "chuck": 6618,
      "illes": 6619,
      "roke": 6620,
      "istle": 6621,
      "Ġlibr": 6622,
      "Ġlikes": 6623,
      "Ġnotable": 6624,
      "Ġneil": 6625,
      "Ġwhit": 6626,
      "Ġera": 6627,
      "Ġalcoh": 6628,
      "Ġabigail": 6629,
      "Ġuniverse": 6630,
      "rio": 6631,
      "Ġconce": 6632,
      "Ġconcept": 6633,
      "umber": 6634,
      "Ġshir": 6635,
      "Ġupper": 6636,
      "Ġbutcher": 6637,
      "Ġprovid": 6638,
      "cking": 6639,
      "rences": 6640,
      "Ġseemed": 6641,
      "feld": 6642,
      "Ġpeop": 6643,
      "Ġwanting": 6644,
      "Ġchoo": 6645,
      "indeed": 6646,
      "vennes": 6647,
      "Ġamanda": 6648,
      "Ġpray": 6649,
      "Ġprince": 6650,
      "Ġloves": 6651,
      "Ġgrew": 6652,
      "Ġgreensburg": 6653,
      "Ġwilly": 6654,
      "arely": 6655,
      "Ġcoins": 6656,
      "Ġcovered": 6657,
      "Ġcoventry": 6658,
      "active": 6659,
      "Ġensure": 6660,
      "cious": 6661,
      "Ġmarie": 6662,
      "Ġadam": 6663,
      "Ġmoon": 6664,
      "Ġmolybden": 6665,
      "Ġbless": 6666,
      "Ġblows": 6667,
      "Ġdownstairs": 6668,
      "Ġsometime": 6669,
      "Ġperse": 6670,
      "Ġperformer": 6671,
      "check": 6672,
      "meet": 6673,
      "Ġlauren": 6674,
      "Ġswiss": 6675,
      "Ġswitch": 6676,
      "Ġministers": 6677,
      "Ġdeputies": 6678,
      "uced": 6679,
      "Ġkevin": 6680,
      "Ġ37": 6681,
      "Ġscand": 6682,
      "Ġscout": 6683,
      "Ġscri": 6684,
      "Ġscenar": 6685,
      "Ġcrot": 6686,
      "Ġhunting": 6687,
      "dez": 6688,
      "december": 6689,
      "Ġdrum": 6690,
      "Ġpara": 6691,
      "Ġparish": 6692,
      "Ġmonte": 6693,
      "Ġpreviously": 6694,
      "Ġprepar": 6695,
      "Ġfox": 6696,
      "bson": 6697,
      "lause": 6698,
      "Ġcheese": 6699,
      "Ġconsist": 6700,
      "Ġconsort": 6701,
      "Ġ184": 6702,
      "Ġelizabeth": 6703,
      "Ġlongest": 6704,
      "Ġspeed": 6705,
      "cane": 6706,
      "Ġcouncill": 6707,
      "justin": 6708,
      "Ġdaily": 6709,
      "Ġsupply": 6710,
      "Ġcouncils": 6711,
      "Ġmail": 6712,
      "Ġraising": 6713,
      "Ġ42": 6714,
      "Ġsubmission": 6715,
      "Ġfinance": 6716,
      "Ġhelping": 6717,
      "Ġhelpful": 6718,
      "Ġnumerous": 6719,
      "Ġ76": 6720,
      "Ġ77": 6721,
      "tail": 6722,
      "taub": 6723,
      "load": 6724,
      "Ġ82": 6725,
      "Ġbreat": 6726,
      "avier": 6727,
      "Ġopens": 6728,
      "Ġheading": 6729,
      "Ġheaded": 6730,
      "lley": 6731,
      "Ġfacts": 6732,
      "Ġcolour": 6733,
      "Ġlisted": 6734,
      "Ġ1934": 6735,
      "Ġ1935": 6736,
      "Ġformal": 6737,
      "bob": 6738,
      "Ġstrateg": 6739,
      "Ġcalm": 6740,
      "insy": 6741,
      "Ġrelative": 6742,
      "Ġfifth": 6743,
      "Ġmetrop": 6744,
      "eney": 6745,
      "hole": 6746,
      "plan": 6747,
      "Ġeaster": 6748,
      "iculous": 6749,
      "ampa": 6750,
      "Ġwindshield": 6751,
      "marion": 6752,
      "Ġlaws": 6753,
      "Ġbuildings": 6754,
      "Ġpatten": 6755,
      "Ġrecorded": 6756,
      "Ġprotest": 6757,
      "Ġelections": 6758,
      "Ġrequired": 6759,
      "Ġbroke": 6760,
      "Ġbird": 6761,
      "Ġvaluable": 6762,
      "gener": 6763,
      "Ġswear": 6764,
      "Ġreports": 6765,
      "richard": 6766,
      "henry": 6767,
      "Ġyoungest": 6768,
      "Ġapartment": 6769,
      "Ġridiculous": 6770,
      "working": 6771,
      "Ġawk": 6772,
      "Ġchiefs": 6773,
      "Ġbilly": 6774,
      "Ġpicking": 6775,
      "Ġanswers": 6776,
      "Ġloud": 6777,
      "Ġeconomist": 6778,
      "true": 6779,
      "Ġpresented": 6780,
      "Ġdemocrat": 6781,
      "Ġsolar": 6782,
      "Ġdesigner": 6783,
      "Ġsilent": 6784,
      "Ġsilva": 6785,
      "Ġcontrovers": 6786,
      "Ġeventually": 6787,
      "prof": 6788,
      "Ġchecking": 6789,
      "elect": 6790,
      "Ġsandwich": 6791,
      "chedul": 6792,
      "rooms": 6793,
      "Ġlearning": 6794,
      "Ġpackage": 6795,
      "Ġinvestment": 6796,
      "Ġconcerns": 6797,
      "Ġcollections": 6798,
      "greg": 6799,
      "largest": 6800,
      "Ġdenied": 6801,
      "Ġpurple": 6802,
      "Ġaustin": 6803,
      "Ġcombination": 6804,
      "Ġquicker": 6805,
      "Ġlaughing": 6806,
      "Ġscientific": 6807,
      "reaming": 6808,
      "Ġbenjamin": 6809,
      "Ġperformed": 6810,
      "celles": 6811,
      "Ġcrystal": 6812,
      "doesn": 6813,
      "Ġphoto": 6814,
      "neloye": 6815,
      "Ġpete": 6816,
      "Ġfaculty": 6817,
      "Ġborders": 6818,
      "Ġtargeting": 6819,
      "Ġanimated": 6820,
      "Ġdescribed": 6821,
      "Ġfracture": 6822,
      "Ġchoir": 6823,
      "Ġtaunting": 6824,
      "Ġsuicide": 6825,
      "Ġemot": 6826,
      "Ġinvestigate": 6827,
      "Ġculture": 6828,
      "Ġcere": 6829,
      "Ġneighbor": 6830,
      "Ġallocations": 6831,
      "Ġcloses": 6832,
      "kyo": 6833,
      "Ġautonomous": 6834,
      "Ġburning": 6835,
      "Ġjoints": 6836,
      "Ġarrive": 6837,
      "Ġadmit": 6838,
      "Ġgranted": 6839,
      "Ġmaterials": 6840,
      "Ġsensitive": 6841,
      "lightspeed": 6842,
      "Ġwalt": 6843,
      "Ġbriefly": 6844,
      "Ġrestaurants": 6845,
      "nette": 6846,
      "Ġangry": 6847,
      "Ġqueens": 6848,
      "Ġrepeated": 6849,
      "Ġnaval": 6850,
      "family": 6851,
      "Ġfavour": 6852,
      "Ġhiding": 6853,
      "Ġhidden": 6854,
      "Ġrapid": 6855,
      "Ġreduce": 6856,
      "Ġvehicles": 6857,
      "Ġhuckle": 6858,
      "Ġreligion": 6859,
      "damn": 6860,
      "Ġcelebrate": 6861,
      "daddy": 6862,
      "Ġduties": 6863,
      "Ġconsultation": 6864,
      "Ġminimum": 6865,
      "Ġscreenwriter": 6866,
      "Ġaudrey": 6867,
      "Ġkilo": 6868,
      "Ġconsequ": 6869,
      "Ġsweden": 6870,
      "Ġinspector": 6871,
      "Ġdynasty": 6872,
      "Ġconcentrate": 6873,
      "Ġslightly": 6874,
      "Ġstealing": 6875,
      "Ġinstrument": 6876,
      "Ġatlantic": 6877,
      "Ġgarden": 6878,
      "Ġtissue": 6879,
      "Ġaverage": 6880,
      "Ġcaterpill": 6881,
      "Ġfalse": 6882,
      "Ġgoumoens": 6883,
      "Ġlegislature": 6884,
      "football": 6885,
      "Ġannoying": 6886,
      "Ġphotographs": 6887,
      "Ġsustain": 6888,
      "Ġsabot": 6889,
      "Ġcitiz": 6890,
      "etterstr": 6891,
      "Ġconvention": 6892,
      "Ġintellig": 6893,
      "Ġojib": 6894,
      "today": 6895,
      "Ġfingers": 6896,
      "Ġeugen": 6897,
      "Ġaggressive": 6898,
      "Ġmushrooms": 6899,
      "Ġarizona": 6900,
      "Ġtoluene": 6901,
      "opagnosia": 6902,
      "Ġmolybdenum": 6903,
      "Ġmetropolitan": 6904,
      "500": 6905,
      "60": 6906,
      "?\"": 6907,
      "bly": 6908,
      "bir": 6909,
      "bia": 6910,
      "cop": 6911,
      "cope": 6912,
      "crap": 6913,
      "cooper": 6914,
      "dow": 6915,
      "del": 6916,
      "fif": 6917,
      "fuck": 6918,
      "fael": 6919,
      "gus": 6920,
      "him": 6921,
      "home": 6922,
      "hkov": 6923,
      "iation": 6924,
      "jorat": 6925,
      "josh": 6926,
      "kas": 6927,
      "kick": 6928,
      "lk": 6929,
      "lim": 6930,
      "lers": 6931,
      "lies": 6932,
      "lia": 6933,
      "lord": 6934,
      "lenny": 6935,
      "mor": 6936,
      "mel": 6937,
      "mult": 6938,
      "pal": 6939,
      "pri": 6940,
      "pass": 6941,
      "poor": 6942,
      "pierre": 6943,
      "rub": 6944,
      "rador": 6945,
      "sr": 6946,
      "sim": 6947,
      "sort": 6948,
      "send": 6949,
      "sub": 6950,
      "south": 6951,
      "tor": 6952,
      "uard": 6953,
      "vest": 6954,
      "wart": 6955,
      "woof": 6956,
      "zz": 6957,
      "Â¡": 6958,
      "Ġtuck": 6959,
      "hem": 6960,
      "helle": 6961,
      "Ġak": 6962,
      "Ġau": 6963,
      "Ġaid": 6964,
      "Ġiliad": 6965,
      "Ġwing": 6966,
      "Ġwise": 6967,
      "Ġwik": 6968,
      "ref": 6969,
      "rep": 6970,
      "Ġsib": 6971,
      "Ġsoph": 6972,
      "Ġsfwa": 6973,
      "Ġschedul": 6974,
      "once": 6975,
      "inating": 6976,
      "ero": 6977,
      "haus": 6978,
      "haven": 6979,
      "hagen": 6980,
      "Ġcul": 6981,
      "Ġcair": 6982,
      "Ġbou": 6983,
      "Ġbend": 6984,
      "Ġbond": 6985,
      "Ġbio": 6986,
      "Ġbaker": 6987,
      "Ġbunch": 6988,
      "Ġmu": 6989,
      "Ġog": 6990,
      "Ġoi": 6991,
      "Ġdiss": 6992,
      "Ġdull": 6993,
      "Ġdating": 6994,
      "Ġdrove": 6995,
      "Ġfans": 6996,
      "Ġfaces": 6997,
      "Ġfbi": 6998,
      "Ġfetch": 6999,
      "ora": 7000,
      "orary": 7001,
      "Ġps": 7002,
      "Ġpse": 7003,
      "Ġpanda": 7004,
      "Ġyue": 7005,
      "ito": 7006,
      "itis": 7007,
      "Ġanus": 7008,
      "Ġanth": 7009,
      "Ġanch": 7010,
      "Ġanten": 7011,
      "Ġancest": 7012,
      "Ġtope": 7013,
      "Ġtokyo": 7014,
      "Ġga": 7015,
      "ara": 7016,
      "arag": 7017,
      "Ġlen": 7018,
      "Ġlakes": 7019,
      "Ġlane": 7020,
      "Ġlux": 7021,
      "ases": 7022,
      "asant": 7023,
      "Ġnich": 7024,
      "atche": 7025,
      "atory": 7026,
      "atomi": 7027,
      "icate": 7028,
      "veland": 7029,
      "Ġheight": 7030,
      "Ġhesel": 7031,
      "Ġthick": 7032,
      "Ġthrew": 7033,
      "Ġhip": 7034,
      "Ġhod": 7035,
      "Ġbear": 7036,
      "Ġbearing": 7037,
      "Ġee": 7038,
      "Ġram": 7039,
      "Ġrim": 7040,
      "Ġroof": 7041,
      "Ġkur": 7042,
      "Ġkath": 7043,
      "Ġknight": 7044,
      "Ġkerry": 7045,
      "Ġwealth": 7046,
      "iger": 7047,
      "iding": 7048,
      "Ġrear": 7049,
      "Ġreign": 7050,
      "utiful": 7051,
      "acques": 7052,
      "Ġforgive": 7053,
      "Ġforbid": 7054,
      "Ġjur": 7055,
      "Ġjoking": 7056,
      "andro": 7057,
      "Ġstake": 7058,
      "Ġstret": 7059,
      "osa": 7060,
      "add": 7061,
      "kel": 7062,
      "imed": 7063,
      "Ġdoors": 7064,
      "opran": 7065,
      "Ġsemin": 7066,
      "stu": 7067,
      "section": 7068,
      "chi": 7069,
      "Ġgoals": 7070,
      "illa": 7071,
      "illiant": 7072,
      "eaks": 7073,
      "istic": 7074,
      "ounts": 7075,
      "antablack": 7076,
      "gewick": 7077,
      "berry": 7078,
      "berger": 7079,
      "Ġeric": 7080,
      "Ġerror": 7081,
      "Ġvul": 7082,
      "Ġviz": 7083,
      "Ġvoted": 7084,
      "Ġvantablack": 7085,
      "ulance": 7086,
      "Ġdonna": 7087,
      "Ġabou": 7088,
      "Ġune": 7089,
      "Ġunde": 7090,
      "Ġunknown": 7091,
      "umen": 7092,
      "Ġmyster": 7093,
      "resp": 7094,
      "atell": 7095,
      "november": 7096,
      "Ġsole": 7097,
      "Ġsovere": 7098,
      "ablish": 7099,
      "Ġships": 7100,
      "uda": 7101,
      "raff": 7102,
      "rape": 7103,
      "Ġbutton": 7104,
      "essert": 7105,
      "Ġoutstanding": 7106,
      "cked": 7107,
      "Ġsax": 7108,
      "Ġspoke": 7109,
      "feel": 7110,
      "february": 7111,
      "Ġchoke": 7112,
      "Ġages": 7113,
      "Ġanymore": 7114,
      "apers": 7115,
      "aky": 7116,
      "aked": 7117,
      "Ġqua": 7118,
      "Ġgrade": 7119,
      "Ġlemon": 7120,
      "Ġtrud": 7121,
      "Ġmanaged": 7122,
      "Ġmanchester": 7123,
      "Ġbron": 7124,
      "Ġbranch": 7125,
      "Ġbrilliant": 7126,
      "Ġwilling": 7127,
      "Ġcock": 7128,
      "bey": 7129,
      "beat": 7130,
      "Ġcommitted": 7131,
      "Ġenorm": 7132,
      "otherbs": 7133,
      "Ġclancy": 7134,
      "Ġcluster": 7135,
      "Ġmarvellous": 7136,
      "Ġadjust": 7137,
      "Ġdistinct": 7138,
      "item": 7139,
      "Ġblame": 7140,
      "Ġperpet": 7141,
      "Ġboley": 7142,
      "club": 7143,
      "Ġguin": 7144,
      "Ġlaid": 7145,
      "igny": 7146,
      "Ġworried": 7147,
      "Ġcalls": 7148,
      "izing": 7149,
      "Ġphillip": 7150,
      "pering": 7151,
      "Ġthrone": 7152,
      "Ġ32": 7153,
      "Ġ34": 7154,
      "Ġ300": 7155,
      "Ġappe": 7156,
      "Ġscored": 7157,
      "phillip": 7158,
      "ossible": 7159,
      "Ġcontent": 7160,
      "Ġbull": 7161,
      "Ġmontaub": 7162,
      "Ġcleveland": 7163,
      "Ġbitch": 7164,
      "Ġbitter": 7165,
      "lav": 7166,
      "laug": 7167,
      "Ġsmile": 7168,
      "Ġsmoke": 7169,
      "Ġflu": 7170,
      "Ġrecon": 7171,
      "Ġrecall": 7172,
      "Ġexpansion": 7173,
      "Ġnightmare": 7174,
      "Ġelements": 7175,
      "Ġimpro": 7176,
      "Ġimplications": 7177,
      "Ġcharges": 7178,
      "Ġcharlotte": 7179,
      "Ġbush": 7180,
      "Ġfounder": 7181,
      "Ġpopulations": 7182,
      "brother": 7183,
      "Ġjoke": 7184,
      "Ġsubsid": 7185,
      "Ġedgar": 7186,
      "ivity": 7187,
      "gram": 7188,
      "Ġ70": 7189,
      "Ġ73": 7190,
      "gold": 7191,
      "Ġcauses": 7192,
      "Ġ56": 7193,
      "Ġcreating": 7194,
      "Ġregiment": 7195,
      "Ġdesper": 7196,
      "Ġ94": 7197,
      "Ġbarn": 7198,
      "Ġbaron": 7199,
      "Ġdecades": 7200,
      "Ġgibson": 7201,
      "Ġheads": 7202,
      "Ġfactory": 7203,
      "Ġfactors": 7204,
      "Ġcolon": 7205,
      "Ġcolomb": 7206,
      "bobby": 7207,
      "Ġsurgeon": 7208,
      "Ġdirectly": 7209,
      "Ġsignature": 7210,
      "inax": 7211,
      "clean": 7212,
      "Ġbusinesses": 7213,
      "Ġmetals": 7214,
      "Ġelsewhere": 7215,
      "Ġ1943": 7216,
      "Ġ1944": 7217,
      "Ġassume": 7218,
      "whoa": 7219,
      "Ġtremend": 7220,
      "Ġhearing": 7221,
      "Ġprofession": 7222,
      "Ġeasily": 7223,
      "Ġtyp": 7224,
      "Ġintegr": 7225,
      "Ġannual": 7226,
      "stell": 7227,
      "Ġestablish": 7228,
      "ottens": 7229,
      "Ġpasseng": 7230,
      "Ġcommunes": 7231,
      "Ġextent": 7232,
      "Ġfilms": 7233,
      "johnson": 7234,
      "Ġinterior": 7235,
      "Ġinterface": 7236,
      "Ġinterpret": 7237,
      "Ġ1924": 7238,
      "orgeous": 7239,
      "Ġdefense": 7240,
      "Ġshoe": 7241,
      "Ġearned": 7242,
      "gging": 7243,
      "Ġsciences": 7244,
      "Ġapost": 7245,
      "Ġdelay": 7246,
      "Ġriddle": 7247,
      "Ġconfused": 7248,
      "Ġterrified": 7249,
      "ports": 7250,
      "Ġstarring": 7251,
      "Ġsatis": 7252,
      "Ġoperating": 7253,
      "Ġdiscussed": 7254,
      "gotta": 7255,
      "ika": 7256,
      "Ġbasement": 7257,
      "Ġforest": 7258,
      "Ġforens": 7259,
      "Ġbeauty": 7260,
      "Ġpromised": 7261,
      "carra": 7262,
      "Ġvisits": 7263,
      "cription": 7264,
      "Ġsilence": 7265,
      "Ġbegins": 7266,
      "2017": 7267,
      "chancell": 7268,
      "Ġmarti": 7269,
      "Ġchecked": 7270,
      "Ġreceive": 7271,
      "Ġinvolve": 7272,
      "Ġhistorically": 7273,
      "Ġlosing": 7274,
      "Ġtechnician": 7275,
      "Ġtechnique": 7276,
      "garth": 7277,
      "Ġconsumer": 7278,
      "Ġcardinal": 7279,
      "Ġfortun": 7280,
      "Ġcollecting": 7281,
      "ukrain": 7282,
      "Ġcatal": 7283,
      "Ġhorror": 7284,
      "Ġlaugh": 7285,
      "Ġsweetheart": 7286,
      "Ġestimated": 7287,
      "Ġclubs": 7288,
      "Ġdropped": 7289,
      "lication": 7290,
      "help": 7291,
      "Ġjulian": 7292,
      "Ġfacilities": 7293,
      "Ġflying": 7294,
      "Ġledger": 7295,
      "Ġrecognise": 7296,
      "Ġindicated": 7297,
      "giate": 7298,
      "Ġbenefits": 7299,
      "onym": 7300,
      "Ġanimal": 7301,
      "Ġassociated": 7302,
      "Ġdomin": 7303,
      "Ġprogressive": 7304,
      "abbage": 7305,
      "Ġwallace": 7306,
      "Ġmaryland": 7307,
      "Ġ1905": 7308,
      "Ġprimarily": 7309,
      "between": 7310,
      "Ġactivities": 7311,
      "Ġvariety": 7312,
      "Ġessert": 7313,
      "Ġruled": 7314,
      "Ġpossibility": 7315,
      "Ġbathroom": 7316,
      "Ġreminds": 7317,
      "Ġsuccessful": 7318,
      "Ġsuitable": 7319,
      "Ġadoption": 7320,
      "Ġkickapoo": 7321,
      "Ġstrike": 7322,
      "Ġcontracts": 7323,
      "Ġ1896": 7324,
      "accini": 7325,
      "Ġmanufacturing": 7326,
      "Ġrepeat": 7327,
      "Ġscotch": 7328,
      "called": 7329,
      "hawk": 7330,
      "Ġmixed": 7331,
      "Ġrainbow": 7332,
      "Ġaustralian": 7333,
      "Ġhayward": 7334,
      "Ġbehavi": 7335,
      "Ġstonewall": 7336,
      "Ġmeshkov": 7337,
      "Ġinitial": 7338,
      "Ġmemory": 7339,
      "Ġloading": 7340,
      "Ġdollars": 7341,
      "Ġgrowth": 7342,
      "Ġproposal": 7343,
      "personal": 7344,
      "Ġambulance": 7345,
      "julia": 7346,
      "Ġcompleted": 7347,
      "Ġswedish": 7348,
      "Ġresidents": 7349,
      "Ġlegendary": 7350,
      "joseph": 7351,
      "Ġconstantly": 7352,
      "Ġbuttons": 7353,
      "Ġguarantee": 7354,
      "Ġhampshire": 7355,
      "Ġtraditional": 7356,
      "Ġbulgar": 7357,
      "Ġnestle": 7358,
      "Ġnegative": 7359,
      "Ġalberta": 7360,
      "Ġgrammy": 7361,
      "Ġresistance": 7362,
      "Ġexpanded": 7363,
      "Ġcurtains": 7364,
      "louis": 7365,
      "Ġgalaxy": 7366,
      "Ġlinks": 7367,
      "Ġcomparison": 7368,
      "Ġpedro": 7369,
      "Ġpushed": 7370,
      "Ġtoxin": 7371,
      "Ġmeasures": 7372,
      "olphus": 7373,
      "Ġhypocr": 7374,
      "Ġtattoo": 7375,
      "Ġdipl": 7376,
      "Ġrhine": 7377,
      "Ġalphabet": 7378,
      "loyment": 7379,
      "Ġconstituency": 7380,
      "modern": 7381,
      "Ġjacoby": 7382,
      "Ġcomfortable": 7383,
      "Ġconfidential": 7384,
      "Ġoccasionally": 7385,
      "Ġbangladesh": 7386,
      "beautiful": 7387,
      "songwriter": 7388,
      "Ġcroatia": 7389,
      "Ġanswered": 7390,
      "Ġcomplicated": 7391,
      "Ġperfume": 7392,
      "Ġappendix": 7393,
      "Ġvolunte": 7394,
      "Ġsaskatche": 7395,
      "Ġpeoples": 7396,
      "Ġcrotche": 7397,
      "Ġstrategic": 7398,
      "Ġrelatively": 7399,
      "Ġcaterpillars": 7400,
      "Ġojibwe": 7401,
      "hausen": 7402,
      "Ġcairo": 7403,
      "Ġpseud": 7404,
      "Ġtopeka": 7405,
      "Ġheselton": 7406,
      "Ġvizcarra": 7407,
      "Ġsovereign": 7408,
      "Ġboleyn": 7409,
      "Ġtremendous": 7410,
      "Ġpassengers": 7411,
      "Ġsaskatchewan": 7412,
      "31": 7413,
      "35": 7414,
      "45": 7415,
      "54": 7416,
      "bod": 7417,
      "bois": 7418,
      "cing": 7419,
      "cis": 7420,
      "cake": 7421,
      "cakes": 7422,
      "coles": 7423,
      "dig": 7424,
      "dude": 7425,
      "eu": 7426,
      "fire": 7427,
      "flo": 7428,
      "gh": 7429,
      "gle": 7430,
      "gone": 7431,
      "gian": 7432,
      "gard": 7433,
      "hl": 7434,
      "hor": 7435,
      "hoo": 7436,
      "hur": 7437,
      "hue": 7438,
      "hran": 7439,
      "iest": 7440,
      "jer": 7441,
      "jes": 7442,
      "jud": 7443,
      "josie": 7444,
      "lb": 7445,
      "later": 7446,
      "langu": 7447,
      "mur": 7448,
      "main": 7449,
      "morn": 7450,
      "mine": 7451,
      "mag": 7452,
      "mary": 7453,
      "mike": 7454,
      "nick": 7455,
      "oj": 7456,
      "oot": 7457,
      "october": 7458,
      "pres": 7459,
      "pite": 7460,
      "posed": 7461,
      "rin": 7462,
      "rich": 7463,
      "slam": 7464,
      "tic": 7465,
      "tot": 7466,
      "tig": 7467,
      "took": 7468,
      "talk": 7469,
      "tierce": 7470,
      "vable": 7471,
      "walk": 7472,
      "ych": 7473,
      "ygen": 7474,
      "yenne": 7475,
      "zier": 7476,
      "zuel": 7477,
      "ÌĨ": 7478,
      "Ġult": 7479,
      "Ġvel": 7480,
      "Ġtie": 7481,
      "Ġay": 7482,
      "Ġaz": 7483,
      "Ġaer": 7484,
      "Ġald": 7485,
      "Ġwy": 7486,
      "Ġwag": 7487,
      "Ġwright": 7488,
      "Ġwider": 7489,
      "Ġwitness": 7490,
      "rely": 7491,
      "Ġsom": 7492,
      "Ġsque": 7493,
      "Ġsighs": 7494,
      "Ġsatell": 7495,
      "onstr": 7496,
      "inv": 7497,
      "ining": 7498,
      "instead": 7499,
      "inidad": 7500,
      "hay": 7501,
      "Ġchat": 7502,
      "Ġcot": 7503,
      "Ġcad": 7504,
      "Ġcough": 7505,
      "Ġcabbage": 7506,
      "anu": 7507,
      "Ġbure": 7508,
      "Ġburg": 7509,
      "Ġbern": 7510,
      "Ġmmm": 7511,
      "Ġmiam": 7512,
      "Ġdna": 7513,
      "Ġdick": 7514,
      "Ġfc": 7515,
      "Ġful": 7516,
      "Ġfont": 7517,
      "Ġfaster": 7518,
      "Ġfuel": 7519,
      "Ġfinger": 7520,
      "Ġfisher": 7521,
      "Ġfolk": 7522,
      "orce": 7523,
      "orient": 7524,
      "eno": 7525,
      "Ġpic": 7526,
      "Ġpow": 7527,
      "Ġpand": 7528,
      "Ġpil": 7529,
      "Ġpter": 7530,
      "Ġpud": 7531,
      "Ġpine": 7532,
      "Ġpath": 7533,
      "Ġpied": 7534,
      "Ġpock": 7535,
      "Ġpages": 7536,
      "Ġpotherbs": 7537,
      "Ġinf": 7538,
      "Ġinno": 7539,
      "Ġinject": 7540,
      "Ġinsect": 7541,
      "Ġgb": 7542,
      "Ġgin": 7543,
      "Ġgos": 7544,
      "Ġgate": 7545,
      "Ġguster": 7546,
      "Ġgomez": 7547,
      "Ġgorgeous": 7548,
      "isen": 7549,
      "aral": 7550,
      "Ġlac": 7551,
      "Ġlance": 7552,
      "Ġlamb": 7553,
      "ashed": 7554,
      "Ġnuclear": 7555,
      "icing": 7556,
      "Ġisra": 7557,
      "otic": 7558,
      "Ġthor": 7559,
      "Ġthursday": 7560,
      "Ġhipp": 7561,
      "ether": 7562,
      "Ġhaiti": 7563,
      "Ġbell": 7564,
      "Ġbeast": 7565,
      "Ġeag": 7566,
      "Ġemin": 7567,
      "Ġral": 7568,
      "Ġrise": 7569,
      "Ġki": 7570,
      "Ġkin": 7571,
      "Ġkat": 7572,
      "Ġkun": 7573,
      "Ġkamen": 7574,
      "ente": 7575,
      "idy": 7576,
      "Ġreception": 7577,
      "Ġreliable": 7578,
      "lde": 7579,
      "utions": 7580,
      "utical": 7581,
      "utory": 7582,
      "acu": 7583,
      "acon": 7584,
      "accept": 7585,
      "Ġfork": 7586,
      "Ġforced": 7587,
      "Ġsty": 7588,
      "Ġstim": 7589,
      "Ġstood": 7590,
      "Ġstairs": 7591,
      "Ġstranger": 7592,
      "Ġsterling": 7593,
      "Ġmerely": 7594,
      "oore": 7595,
      "urally": 7596,
      "imbab": 7597,
      "Ġdoct": 7598,
      "Ġsees": 7599,
      "ighton": 7600,
      "Ġframe": 7601,
      "Ġfranch": 7602,
      "stan": 7603,
      "state": 7604,
      "stra": 7605,
      "wealth": 7606,
      "cement": 7607,
      "iling": 7608,
      "iled": 7609,
      "Ġasian": 7610,
      "Ġassh": 7611,
      "Ġgoin": 7612,
      "ista": 7613,
      "Ġlif": 7614,
      "Ġliar": 7615,
      "Ġate": 7616,
      "Ġdement": 7617,
      "Ġdevice": 7618,
      "Ġdegre": 7619,
      "bern": 7620,
      "bers": 7621,
      "Ġvast": 7622,
      "Ġvod": 7623,
      "Ġvene": 7624,
      "Ġ(*": 7625,
      "ulus": 7626,
      "arty": 7627,
      "Ġabuse": 7628,
      "Ġcomic": 7629,
      "Ġ\"\"": 7630,
      "herry": 7631,
      "menthue": 7632,
      "Ġorn": 7633,
      "quin": 7634,
      "quent": 7635,
      "oren": 7636,
      "orese": 7637,
      "Ġalliance": 7638,
      "Ġconver": 7639,
      "Ġconnie": 7640,
      "Ġconstruction": 7641,
      "Ġconstell": 7642,
      "resa": 7643,
      "ateur": 7644,
      "nold": 7645,
      "pping": 7646,
      "ryan": 7647,
      "abe": 7648,
      "abella": 7649,
      "Ġnova": 7650,
      "tebra": 7651,
      "Ġshout": 7652,
      "Ġshelly": 7653,
      "Ġupcoming": 7654,
      "ivered": 7655,
      "Ġjustice": 7656,
      "Ġprobab": 7657,
      "Ġteach": 7658,
      "Ġgotten": 7659,
      "Ġsaving": 7660,
      "Ġsauce": 7661,
      "Ġhernia": 7662,
      "ipher": 7663,
      "Ġspit": 7664,
      "Ġspittle": 7665,
      "Ġspencer": 7666,
      "Ġexchange": 7667,
      "Ġexede": 7668,
      "Ġaga": 7669,
      "Ġargue": 7670,
      "Ġarmen": 7671,
      "Ġsomewhat": 7672,
      "akist": 7673,
      "akers": 7674,
      "Ġamaral": 7675,
      "Ġlect": 7676,
      "ugs": 7677,
      "Ġlog": 7678,
      "nex": 7679,
      "Ġtroph": 7680,
      "Ġtrunc": 7681,
      "Ġmanor": 7682,
      "Ġmanuel": 7683,
      "Ġbros": 7684,
      "Ġbrick": 7685,
      "Ġbrass": 7686,
      "uba": 7687,
      "Ġworkers": 7688,
      "Ġdiary": 7689,
      "Ġoffers": 7690,
      "Ġactions": 7691,
      "Ġroast": 7692,
      "Ġbackwards": 7693,
      "Ġcla": 7694,
      "aceutical": 7695,
      "Ġadams": 7696,
      "Ġdistur": 7697,
      "Ġdistance": 7698,
      "ermined": 7699,
      "Ġblind": 7700,
      "Ġblaine": 7701,
      "Ġcomparing": 7702,
      "shelly": 7703,
      "clus": 7704,
      "close": 7705,
      "cliffe": 7706,
      "chez": 7707,
      "chedu": 7708,
      "Ġguests": 7709,
      "Ġcarbon": 7710,
      "Ġserving": 7711,
      "ressed": 7712,
      "Ġlaun": 7713,
      "Ġwherever": 7714,
      "comp": 7715,
      "Ġacceler": 7716,
      "Ġnora": 7717,
      "Ġnorwe": 7718,
      "Ġnortheastern": 7719,
      "Ġminnes": 7720,
      "Ġafterwards": 7721,
      "Ġindones": 7722,
      "Ġindigen": 7723,
      "Ġinduced": 7724,
      "Ġdisag": 7725,
      "Ġdisaster": 7726,
      "Ġdisasters": 7727,
      "Ġresidual": 7728,
      "uccess": 7729,
      "Ġkeys": 7730,
      "Ġthrust": 7731,
      "Ġthrown": 7732,
      "Ġapple": 7733,
      "Ġapply": 7734,
      "Ġscor": 7735,
      "Ġcrush": 7736,
      "Ġhung": 7737,
      "Ġhunter": 7738,
      "Ġpresence": 7739,
      "Ġsupple": 7740,
      "Ġcontains": 7741,
      "pee": 7742,
      "Ġbuying": 7743,
      "Ġmonu": 7744,
      "lied": 7745,
      "donald": 7746,
      "donney": 7747,
      "Ġclever": 7748,
      "Ġcheyenne": 7749,
      "tained": 7750,
      "ocese": 7751,
      "Ġflight": 7752,
      "Ġspell": 7753,
      "Ġimpossible": 7754,
      "Ġshared": 7755,
      "Ġshaft": 7756,
      "Ġshaped": 7757,
      "Ġcharged": 7758,
      "Ġfamili": 7759,
      "shit": 7760,
      "Ġfeelings": 7761,
      "Ġjoan": 7762,
      "iovan": 7763,
      "Ġ400": 7764,
      "Ġedward": 7765,
      "Ġ1965": 7766,
      "Ġ75": 7767,
      "Ġ78": 7768,
      "Ġsecondary": 7769,
      "Ġmornings": 7770,
      "Ġattached": 7771,
      "Ġrunner": 7772,
      "Ġkillings": 7773,
      "Ġthousands": 7774,
      "Ġtennes": 7775,
      "Ġinvited": 7776,
      "Ġbreath": 7777,
      "Ġbreaking": 7778,
      "Ġ96": 7779,
      "Ġ97": 7780,
      "Ġ98": 7781,
      "Ġzetterstr": 7782,
      "Ġzimbab": 7783,
      "Ġbarcel": 7784,
      "Ġdecor": 7785,
      "Ġgiant": 7786,
      "Ġreality": 7787,
      "Ġrealized": 7788,
      "chaux": 7789,
      "Ġnorthwest": 7790,
      "Ġeighteen": 7791,
      "Ġbelief": 7792,
      "Ġsorts": 7793,
      "Ġ1937": 7794,
      "Ġ1938": 7795,
      "boat": 7796,
      "Ġsurplus": 7797,
      "Ġmilan": 7798,
      "Ġaccur": 7799,
      "Ġslip": 7800,
      "Ġrelation": 7801,
      "Ġrelief": 7802,
      "Ġmommy": 7803,
      "Ġfifa": 7804,
      "Ġadding": 7805,
      "Ġsyrup": 7806,
      "Ġassail": 7807,
      "Ġfarmer": 7808,
      "Ġpropert": 7809,
      "Ġproperly": 7810,
      "Ġpropensity": 7811,
      "Ġsenators": 7812,
      "Ġturns": 7813,
      "Ġrelevant": 7814,
      "Ġunderstanding": 7815,
      "marks": 7816,
      "Ġpaphos": 7817,
      "Ġstepped": 7818,
      "Ġsoul": 7819,
      "Ġsoup": 7820,
      "Ġsoutheastern": 7821,
      "Ġbadly": 7822,
      "Ġshortfall": 7823,
      "Ġphilosoph": 7824,
      "Ġphilanth": 7825,
      "Ġitalia": 7826,
      "Ġrefuge": 7827,
      "Ġextract": 7828,
      "Ġlabel": 7829,
      "Ġlabrador": 7830,
      "Ġdemonstr": 7831,
      "ducing": 7832,
      "Ġurgent": 7833,
      "Ġdrawn": 7834,
      "Ġcommittees": 7835,
      "Ġbirds": 7836,
      "Ġrepresents": 7837,
      "Ġremains": 7838,
      "france": 7839,
      "Ġbabies": 7840,
      "general": 7841,
      "Ġguessing": 7842,
      "villers": 7843,
      "awatomi": 7844,
      "Ġskills": 7845,
      "Ġsaldiv": 7846,
      "Ġdelivered": 7847,
      "Ġcollab": 7848,
      "Ġdrinks": 7849,
      "Ġawake": 7850,
      "Ġlesson": 7851,
      "aldi": 7852,
      "wasn": 7853,
      "rison": 7854,
      "Ġdriver": 7855,
      "Ġpotawatomi": 7856,
      "Ġsends": 7857,
      "Ġlevels": 7858,
      "Ġbreaks": 7859,
      "Ġsolution": 7860,
      "Ġexplains": 7861,
      "Ġprojects": 7862,
      "Ġprojections": 7863,
      "Ġriots": 7864,
      "Ġmoments": 7865,
      "2014": 7866,
      "Ġhated": 7867,
      "drosoph": 7868,
      "election": 7869,
      "Ġmulticultural": 7870,
      "Ġclosely": 7871,
      "Ġcrossed": 7872,
      "Ġconsume": 7873,
      "Ġjudici": 7874,
      "Ġcards": 7875,
      "Ġbands": 7876,
      "Ġburt": 7877,
      "Ġburied": 7878,
      "Ġtreatment": 7879,
      "Ġmassive": 7880,
      "Ġstatutory": 7881,
      "Ġestimates": 7882,
      "Ġlatitude": 7883,
      "Ġaffecting": 7884,
      "Ġaccidentally": 7885,
      "Ġgaspar": 7886,
      "Ġfellas": 7887,
      "Ġcovering": 7888,
      "Ġpulled": 7889,
      "Ġeffects": 7890,
      "Ġcompete": 7891,
      "Ġsuperior": 7892,
      "keeper": 7893,
      "Ġmaryjane": 7894,
      "Ġmobas": 7895,
      "better": 7896,
      "Ġbanks": 7897,
      "Ġcomedian": 7898,
      "Ġirr": 7899,
      "Ġdaniel": 7900,
      "Ġfaith": 7901,
      "Ġsuburbs": 7902,
      "special": 7903,
      "Ġbrakes": 7904,
      "Ġdressed": 7905,
      "Ġpermits": 7906,
      "Ġpermission": 7907,
      "Ġacademic": 7908,
      "Ġcells": 7909,
      "Ġbothered": 7910,
      "Ġpainting": 7911,
      "Ġrolling": 7912,
      "Ġcloset": 7913,
      "Ġraffael": 7914,
      "Ġautomatic": 7915,
      "Ġadmitted": 7916,
      "Ġadmiral": 7917,
      "Ġrobin": 7918,
      "1967": 7919,
      "Ġ1861": 7920,
      "Ġentirely": 7921,
      "chardonney": 7922,
      "Ġpsychiat": 7923,
      "Ġwidely": 7924,
      "accord": 7925,
      "Ġexcited": 7926,
      "hawks": 7927,
      "Ġcartoon": 7928,
      "series": 7929,
      "Ġwelcome": 7930,
      "norma": 7931,
      "Ġpige": 7932,
      "Ġnurses": 7933,
      "Ġronnette": 7934,
      "Ġrubbish": 7935,
      "Ġcaroline": 7936,
      "Ġpersons": 7937,
      "Ġknife": 7938,
      "Ġcommerce": 7939,
      "Ġassumed": 7940,
      "Ġchampionships": 7941,
      "Ġindividuals": 7942,
      "senator": 7943,
      "Ġknee": 7944,
      "Ġaffordable": 7945,
      "Ġpriority": 7946,
      "Ġdefinitely": 7947,
      "Ġterrorist": 7948,
      "mendraz": 7949,
      "super": 7950,
      "Ġentertain": 7951,
      "Ġreplacement": 7952,
      "Ġfreddy": 7953,
      "Ġinstance": 7954,
      "Ġcommunicate": 7955,
      "Ġremainder": 7956,
      "Ġagriculture": 7957,
      "poppy": 7958,
      "Ġdynam": 7959,
      "Ġruddy": 7960,
      "Ġargument": 7961,
      "Ġwarsaw": 7962,
      "Ġtunis": 7963,
      "Ġbrennan": 7964,
      "Ġprague": 7965,
      "Ġhubert": 7966,
      "Ġtoronto": 7967,
      "Ġrotten": 7968,
      "Ġdefeated": 7969,
      "obviously": 7970,
      "Ġcorduroy": 7971,
      "Ġdangerous": 7972,
      "Ġpharmaceutical": 7973,
      "Ġreferee": 7974,
      "Ġbruno": 7975,
      "Ġcomposer": 7976,
      "Ġparameter": 7977,
      "certainly": 7978,
      "Ġtaste": 7979,
      "Ġbentley": 7980,
      "Ġkirk": 7981,
      "imeters": 7982,
      "Ġprosopagnosia": 7983,
      "Ġamericans": 7984,
      "Ġregarding": 7985,
      "Ġcircum": 7986,
      "Ġscholarship": 7987,
      "vette": 7988,
      "Ġelderly": 7989,
      "Ġjennings": 7990,
      "Ġliverpool": 7991,
      "Ġleonor": 7992,
      "Ġsylvia": 7993,
      "Ġexperiences": 7994,
      "bloody": 7995,
      "deputy": 7996,
      "Ġauxon": 7997,
      "Ġunsuccess": 7998,
      "Ġretirement": 7999,
      "Ġpotatoes": 8000,
      "Ġavoid": 8001,
      "Ġturkish": 8002,
      "honestly": 8003,
      "Ġnebula": 8004,
      "Ġprosecut": 8005,
      "Ġadvantage": 8006,
      "Ġcaravan": 8007,
      "Ġunderstood": 8008,
      "Ġremoved": 8009,
      "Ġpurchase": 8010,
      "Ġbuddha": 8011,
      "Ġvirtually": 8012,
      "Ġfossil": 8013,
      "Ġjumper": 8014,
      "Ġfrightened": 8015,
      "Ġlibrary": 8016,
      "Ġalcohol": 8017,
      "Ġscandal": 8018,
      "Ġpreparation": 8019,
      "Ġcouncillor": 8020,
      "Ġawkward": 8021,
      "Ġceremon": 8022,
      "Ġrapidly": 8023,
      "Ġluxury": 8024,
      "Ġcolombia": 8025,
      "Ġprofessionally": 8026,
      "morning": 8027,
      "tiercelin": 8028,
      "Ġsatellite": 8029,
      "Ġmiami": 8030,
      "Ġpicnic": 8031,
      "Ġdementia": 8032,
      "Ġdegrees": 8033,
      "Ġvenezuel": 8034,
      "chedule": 8035,
      "Ġminnesota": 8036,
      "Ġindigenous": 8037,
      "Ġsupplement": 8038,
      "Ġfamiliar": 8039,
      "Ġtennessee": 8040,
      "Ġzimbabwe": 8041,
      "Ġproperties": 8042,
      "Ġphilanthrop": 8043,
      "Ġsaldivar": 8044,
      "drosophila": 8045,
      "Ġjudiciary": 8046,
      "100": 8047,
      "51": 8048,
      "63": 8049,
      "69": 8050,
      "87": 8051,
      "94": 8052,
      "97": 8053,
      "]:": 8054,
      "bou": 8055,
      "bol": 8056,
      "bast": 8057,
      "bach": 8058,
      "bird": 8059,
      "bowling": 8060,
      "bishop": 8061,
      "cia": 8062,
      "case": 8063,
      "cade": 8064,
      "candyman": 8065,
      "dar": 8066,
      "dal": 8067,
      "dist": 8068,
      "dup": 8069,
      "dri": 8070,
      "dict": 8071,
      "diane": 8072,
      "draw": 8073,
      "free": 8074,
      "full": 8075,
      "final": 8076,
      "fucking": 8077,
      "felt": 8078,
      "gs": 8079,
      "hop": 8080,
      "iety": 8081,
      "jillo": 8082,
      "kw": 8083,
      "lter": 8084,
      "lens": 8085,
      "lots": 8086,
      "mes": 8087,
      "mate": 8088,
      "mbe": 8089,
      "nity": 8090,
      "name": 8091,
      "ndez": 8092,
      "phe": 8093,
      "pot": 8094,
      "pir": 8095,
      "pra": 8096,
      "rors": 8097,
      "rament": 8098,
      "sn": 8099,
      "ses": 8100,
      "such": 8101,
      "ti": 8102,
      "tar": 8103,
      "tur": 8104,
      "tri": 8105,
      "ties": 8106,
      "tree": 8107,
      "train": 8108,
      "vada": 8109,
      "wi": 8110,
      "ws": 8111,
      "wed": 8112,
      "Ġeter": 8113,
      "ĠâĻª": 8114,
      "Ġtack": 8115,
      "Ġtren": 8116,
      "Ġtong": 8117,
      "Ġtang": 8118,
      "Ġtully": 8119,
      "Ġtires": 8120,
      "Ġtube": 8121,
      "hell": 8122,
      "hear": 8123,
      "Ġack": 8124,
      "Ġairl": 8125,
      "Ġiphone": 8126,
      "Ġiowa": 8127,
      "Ġtheore": 8128,
      "Ġtheories": 8129,
      "Ġworn": 8130,
      "Ġwond": 8131,
      "rec": 8132,
      "rez": 8133,
      "reet": 8134,
      "Ġsie": 8135,
      "Ġsink": 8136,
      "Ġsess": 8137,
      "Ġsli": 8138,
      "Ġsuture": 8139,
      "Ġsources": 8140,
      "Ġsottens": 8141,
      "iner": 8142,
      "intern": 8143,
      "era": 8144,
      "erick": 8145,
      "hamp": 8146,
      "Ġcu": 8147,
      "Ġcem": 8148,
      "Ġcatherine": 8149,
      "anian": 8150,
      "anji": 8151,
      "Ġbub": 8152,
      "Ġbars": 8153,
      "Ġbald": 8154,
      "Ġbik": 8155,
      "Ġbbc": 8156,
      "Ġbarely": 8157,
      "Ġmand": 8158,
      "Ġmol": 8159,
      "Ġmood": 8160,
      "Ġmick": 8161,
      "Ġmoth": 8162,
      "Ġmount": 8163,
      "Ġmoore": 8164,
      "Ġoak": 8165,
      "Ġdict": 8166,
      "Ġdiana": 8167,
      "Ġdirty": 8168,
      "Ġfid": 8169,
      "Ġfist": 8170,
      "Ġfasc": 8171,
      "enhagen": 8172,
      "Ġpas": 8173,
      "Ġpent": 8174,
      "Ġpity": 8175,
      "Ġpne": 8176,
      "Ġpeney": 8177,
      "Ġpakist": 8178,
      "llor": 8179,
      "itus": 8180,
      "itage": 8181,
      "itched": 8182,
      "itivity": 8183,
      "ingu": 8184,
      "Ġana": 8185,
      "Ġanat": 8186,
      "Ġanime": 8187,
      "Ġanna": 8188,
      "Ġinhib": 8189,
      "eda": 8190,
      "Ġtok": 8191,
      "Ġtoman": 8192,
      "Ġtowel": 8193,
      "Ġgig": 8194,
      "Ġgather": 8195,
      "Ġgained": 8196,
      "isons": 8197,
      "ari": 8198,
      "aro": 8199,
      "around": 8200,
      "archer": 8201,
      "Ġlan": 8202,
      "Ġlor": 8203,
      "Ġlone": 8204,
      "Ġlind": 8205,
      "Ġlick": 8206,
      "Ġlama": 8207,
      "asi": 8208,
      "Ġnea": 8209,
      "Ġnap": 8210,
      "Ġnancy": 8211,
      "Ġnsu": 8212,
      "Ġnaked": 8213,
      "icut": 8214,
      "icist": 8215,
      "icial": 8216,
      "ali": 8217,
      "aly": 8218,
      "alin": 8219,
      "oting": 8220,
      "usage": 8221,
      "Ġheating": 8222,
      "lex": 8223,
      "Ġthou": 8224,
      "Ġhired": 8225,
      "aya": 8226,
      "ete": 8227,
      "ette": 8228,
      "etime": 8229,
      "Ġhal": 8230,
      "Ġbeet": 8231,
      "Ġbeck": 8232,
      "Ġwasps": 8233,
      "Ġemm": 8234,
      "Ġrou": 8235,
      "Ġrance": 8236,
      "Ġkre": 8237,
      "Ġkel": 8238,
      "Ġkend": 8239,
      "Ġkings": 8240,
      "Ġwea": 8241,
      "entially": 8242,
      "Ġrena": 8243,
      "Ġregan": 8244,
      "Ġrevers": 8245,
      "Ġrevised": 8246,
      "Ġremarks": 8247,
      "united": 8248,
      "acing": 8249,
      "acle": 8250,
      "Ġja": 8251,
      "Ġjar": 8252,
      "Ġjour": 8253,
      "Ġjorat": 8254,
      "Ġjava": 8255,
      "verty": 8256,
      "andrew": 8257,
      "andert": 8258,
      "Ġstan": 8259,
      "Ġstam": 8260,
      "Ġstack": 8261,
      "Ġstacy": 8262,
      "Ġstripp": 8263,
      "Ġstinking": 8264,
      "Ġstroke": 8265,
      "osi": 8266,
      "oshi": 8267,
      "Ġmeals": 8268,
      "Ġmeasure": 8269,
      "adze": 8270,
      "allas": 8271,
      "opa": 8272,
      "Ġseats": 8273,
      "ithmet": 8274,
      "Ġfran": 8275,
      "stick": 8276,
      "Ġasham": 8277,
      "sell": 8278,
      "through": 8279,
      "choo": 8280,
      "illiez": 8281,
      "eable": 8282,
      "eaux": 8283,
      "eagues": 8284,
      "Ġarena": 8285,
      "istics": 8286,
      "Ġliz": 8287,
      "Ġliqu": 8288,
      "anta": 8289,
      "Ġdee": 8290,
      "Ġdean": 8291,
      "Ġdele": 8292,
      "Ġnegot": 8293,
      "Ġwhis": 8294,
      "term": 8295,
      "Ġerase": 8296,
      "Ġvu": 8297,
      "Ġvic": 8298,
      "Ġvale": 8299,
      "olen": 8300,
      "ested": 8301,
      "Ġalan": 8302,
      "Ġalger": 8303,
      "Ġaband": 8304,
      "Ġorders": 8305,
      "...?": 8306,
      "Ġusage": 8307,
      "qual": 8308,
      "quest": 8309,
      "Ġalley": 8310,
      "Ġconway": 8311,
      "Ġconclud": 8312,
      "Ġconfr": 8313,
      "Ġconvict": 8314,
      "umably": 8315,
      "umonia": 8316,
      "abic": 8317,
      "elton": 8318,
      "elones": 8319,
      "Ġwheels": 8320,
      "Ġwhenever": 8321,
      "Ġnoon": 8322,
      "soon": 8323,
      "techn": 8324,
      "Ġshore": 8325,
      "Ġtear": 8326,
      "ership": 8327,
      "Ġsafer": 8328,
      "Ġsausage": 8329,
      "Ġheritage": 8330,
      "Ġspot": 8331,
      "Ġspons": 8332,
      "Ġexclud": 8333,
      "Ġexamination": 8334,
      "Ġseek": 8335,
      "Ġpepper": 8336,
      "Ġpeoria": 8337,
      "Ġchore": 8338,
      "Ġchose": 8339,
      "ague": 8340,
      "Ġagco": 8341,
      "Ġarr": 8342,
      "Ġarcha": 8343,
      "Ġarising": 8344,
      "Ġarithmet": 8345,
      "apt": 8346,
      "Ġquin": 8347,
      "butch": 8348,
      "Ġgrass": 8349,
      "Ġgrowing": 8350,
      "Ġfeed": 8351,
      "Ġfeld": 8352,
      "Ġfeather": 8353,
      "uganji": 8354,
      "Ġprost": 8355,
      "Ġprices": 8356,
      "Ġtrace": 8357,
      "Ġbright": 8358,
      "Ġbrains": 8359,
      "ogether": 8360,
      "Ġacted": 8361,
      "bee": 8362,
      "Ġenvis": 8363,
      "Ġenjo": 8364,
      "otherwise": 8365,
      "uelet": 8366,
      "Ġchasing": 8367,
      "Ġchalk": 8368,
      "Ġgoodbye": 8369,
      "Ġmari": 8370,
      "Ġadol": 8371,
      "Ġadolphus": 8372,
      "Ġdistant": 8373,
      "Ġmole": 8374,
      "whoo": 8375,
      "Ġbliss": 8376,
      "Ġperipher": 8377,
      "Ġboot": 8378,
      "Ġbold": 8379,
      "Ġreporter": 8380,
      "Ġoversp": 8381,
      "clusion": 8382,
      "cluelet": 8383,
      "Ġguam": 8384,
      "Ġcarr": 8385,
      "Ġlaunch": 8386,
      "comple": 8387,
      "compan": 8388,
      "Ġpoland": 8389,
      "Ġpoliez": 8390,
      "ahh": 8391,
      "achi": 8392,
      "ults": 8393,
      "ulton": 8394,
      "Ġnorway": 8395,
      "Ġdisney": 8396,
      "Ġdisplay": 8397,
      "Ġdepri": 8398,
      "Ġdepression": 8399,
      "Ġkev": 8400,
      "Ġapplication": 8401,
      "Ġcrist": 8402,
      "Ġcrick": 8403,
      "phoon": 8404,
      "oolittle": 8405,
      "Ġleagues": 8406,
      "dead": 8407,
      "Ġparks": 8408,
      "Ġparano": 8409,
      "Ġsets": 8410,
      "prit": 8411,
      "Ġpoppy": 8412,
      "Ġcheers": 8413,
      "Ġchester": 8414,
      "iley": 8415,
      "Ġbelgium": 8416,
      "Ġelim": 8417,
      "occup": 8418,
      "Ġflame": 8419,
      "Ġthoughts": 8420,
      "Ġspeech": 8421,
      "xton": 8422,
      "Ġwarn": 8423,
      "Ġharm": 8424,
      "Ġharvard": 8425,
      "ysis": 8426,
      "orship": 8427,
      "Ġimprove": 8428,
      "Ġshame": 8429,
      "Ġshade": 8430,
      "Ġchart": 8431,
      "Ġcharities": 8432,
      "bridge": 8433,
      "Ġjoy": 8434,
      "Ġrafael": 8435,
      "Ġfinishing": 8436,
      "ussy": 8437,
      "Ġeditor": 8438,
      "Ġ74": 8439,
      "Ġgenre": 8440,
      "Ġseconds": 8441,
      "Ġattended": 8442,
      "Ġpleasant": 8443,
      "Ġrunway": 8444,
      "gov": 8445,
      "Ġcares": 8446,
      "Ġcauc": 8447,
      "Ġshower": 8448,
      "Ġinvite": 8449,
      "Ġjane": 8450,
      "Ġ83": 8451,
      "Ġ87": 8452,
      "Ġregul": 8453,
      "Ġregional": 8454,
      "Ġregular": 8455,
      "Ġbrew": 8456,
      "Ġobvious": 8457,
      "Ġ988": 8458,
      "Ġrealise": 8459,
      "Ġuniversities": 8460,
      "Ġeighties": 8461,
      "frank": 8462,
      "Ġairfield": 8463,
      "booth": 8464,
      "Ġ63": 8465,
      "Ġsurvi": 8466,
      "Ġsurvey": 8467,
      "Ġinspired": 8468,
      "Ġdirectors": 8469,
      "Ġfunctions": 8470,
      "Ġslim": 8471,
      "Ġslide": 8472,
      "Ġslayer": 8473,
      "Ġdiscount": 8474,
      "Ġdiscover": 8475,
      "Ġoffici": 8476,
      "Ġminds": 8477,
      "Ġmeters": 8478,
      "Ġassass": 8479,
      "Ġpoke": 8480,
      "Ġpoverty": 8481,
      "Ġblacks": 8482,
      "Ġgeor": 8483,
      "holy": 8484,
      "Ġsimon": 8485,
      "Ġsimpl": 8486,
      "Ġeasier": 8487,
      "Ġeuro": 8488,
      "Ġtyumen": 8489,
      "etera": 8490,
      "askins": 8491,
      "Ġsteve": 8492,
      "uhu": 8493,
      "Ġpassword": 8494,
      "Ġissued": 8495,
      "Ġrefers": 8496,
      "Ġreflect": 8497,
      "Ġlabs": 8498,
      "Ġformerly": 8499,
      "Ġenthus": 8500,
      "Ġprote": 8501,
      "Ġelectron": 8502,
      "Ġelectoral": 8503,
      "Ġdrape": 8504,
      "atsu": 8505,
      "Ġorganiz": 8506,
      "Ġrepresenting": 8507,
      "colle": 8508,
      "Ġ1926": 8509,
      "ipped": 8510,
      "Ġpays": 8511,
      "wouldn": 8512,
      "friday": 8513,
      "Ġearn": 8514,
      "guez": 8515,
      "Ġhearts": 8516,
      "amsay": 8517,
      "Ġproduce": 8518,
      "Ġsky": 8519,
      "Ġoxygen": 8520,
      "Ġdelight": 8521,
      "Ġcolleagues": 8522,
      "Ġrides": 8523,
      "Ġhumans": 8524,
      "lined": 8525,
      "Ġtraum": 8526,
      "Ġawait": 8527,
      "Ġsuggests": 8528,
      "guy": 8529,
      "guard": 8530,
      "ronald": 8531,
      "Ġbasin": 8532,
      "Ġintention": 8533,
      "Ġintensive": 8534,
      "risk": 8535,
      "Ġmodelling": 8536,
      "truman": 8537,
      "Ġeaten": 8538,
      "ographic": 8539,
      "Ġcolleges": 8540,
      "Ġpresentation": 8541,
      "axter": 8542,
      "cutive": 8543,
      "Ġhiat": 8544,
      "carl": 8545,
      "Ġvision": 8546,
      "Ġvisited": 8547,
      "Ġvisible": 8548,
      "Ġmessing": 8549,
      "Ġmessages": 8550,
      "2010": 8551,
      "2013": 8552,
      "borough": 8553,
      "Ġgarage": 8554,
      "Ġgarci": 8555,
      "Ġlargely": 8556,
      "Ġvertebra": 8557,
      "Ġsquat": 8558,
      "Ġchancellor": 8559,
      "Ġfeder": 8560,
      "Ġboxes": 8561,
      "Ġdistribute": 8562,
      "Ġacceptable": 8563,
      "Ġengineers": 8564,
      "Ġimage": 8565,
      "Ġimages": 8566,
      "Ġfortune": 8567,
      "daughter": 8568,
      "iotics": 8569,
      "lari": 8570,
      "Ġlords": 8571,
      "couldn": 8572,
      "vannes": 8573,
      "Ġjacket": 8574,
      "Ġvibr": 8575,
      "Ġpopularity": 8576,
      "Ġhoriz": 8577,
      "Ġruins": 8578,
      "Ġseventh": 8579,
      "Ġcombined": 8580,
      "Ġcleaning": 8581,
      "Ġcleaned": 8582,
      "Ġcopper": 8583,
      "Ġsnouted": 8584,
      "Ġcoloring": 8585,
      "scap": 8586,
      "Ġtimorese": 8587,
      "halt": 8588,
      "helps": 8589,
      "Ġphotographer": 8590,
      "Ġtouchdown": 8591,
      "180": 8592,
      "Ġfacility": 8593,
      "Ġpowerful": 8594,
      "Ġrecognize": 8595,
      "Ġcommandant": 8596,
      "Ġbolte": 8597,
      "Ġbuddy": 8598,
      "Ġfranklin": 8599,
      "Ġvoiced": 8600,
      "Ġsocialist": 8601,
      "atorsk": 8602,
      "Ġvirus": 8603,
      "Ġcompeted": 8604,
      "Ġflags": 8605,
      "1973": 8606,
      "Ġlayer": 8607,
      "Ġfraction": 8608,
      "abbing": 8609,
      "Ġstores": 8610,
      "Ġbanned": 8611,
      "Ġsoldier": 8612,
      "Ġactivity": 8613,
      "Ġcritics": 8614,
      "Ġcrimean": 8615,
      "Ġexpressed": 8616,
      "Ġturkey": 8617,
      "Ġdanie": 8618,
      "Ġluke": 8619,
      "Ġsuburban": 8620,
      "Ġdryer": 8621,
      "Ġefficient": 8622,
      "Ġemeritus": 8623,
      "Ġ1888": 8624,
      "Ġachieved": 8625,
      "Ġpainter": 8626,
      "Ġholt": 8627,
      "Ġvalle": 8628,
      "Ġclimb": 8629,
      "Ġvictims": 8630,
      "Ġcriminal": 8631,
      "Ġintroduced": 8632,
      "Ġinjury": 8633,
      "Ġjudgement": 8634,
      "Ġliterally": 8635,
      "Ġamongst": 8636,
      "Ġgeorgian": 8637,
      "Ġtitles": 8638,
      "Ġkicked": 8639,
      "Ġteaching": 8640,
      "Ġrichardson": 8641,
      "Ġcandidacy": 8642,
      "Ġaccommodated": 8643,
      "Ġsmells": 8644,
      "Ġfixed": 8645,
      "Ġquebec": 8646,
      "Ġmarginal": 8647,
      "Ġscotland": 8648,
      "Ġpennies": 8649,
      "Ġlucens": 8650,
      "christopher": 8651,
      "Ġsugarcane": 8652,
      "Ġconnected": 8653,
      "Ġconnecticut": 8654,
      "Ġtaiwanese": 8655,
      "serious": 8656,
      "tomorrow": 8657,
      "Ġtickets": 8658,
      "philipp": 8659,
      "Ġseductive": 8660,
      "Ġiniti": 8661,
      "Ġinitially": 8662,
      "Ġronald": 8663,
      "Ġrubber": 8664,
      "Ġmemorial": 8665,
      "Ġloads": 8666,
      "Ġexperimental": 8667,
      "ramatorsk": 8668,
      "Ġtransportation": 8669,
      "Ġvictoria": 8670,
      "consin": 8671,
      "small": 8672,
      "smoking": 8673,
      "Ġtalented": 8674,
      "Ġhesit": 8675,
      "Ġadvoc": 8676,
      "Ġboiled": 8677,
      "Ġmusicians": 8678,
      "Ġrecommendations": 8679,
      "Ġsufficient": 8680,
      "Ġforgotten": 8681,
      "Ġmechanical": 8682,
      "Ġcommissioner": 8683,
      "Ġbumper": 8684,
      "Ġconsecutive": 8685,
      "Ġcompletions": 8686,
      "Ġarticles": 8687,
      "Ġoccurred": 8688,
      "Ġfatal": 8689,
      "Ġabsor": 8690,
      "Ġnovelist": 8691,
      "Ġguaranteed": 8692,
      "Ġobser": 8693,
      "Ġpunish": 8694,
      "Ġinstruments": 8695,
      "Ġcompromise": 8696,
      "Ġkazakhstan": 8697,
      "calcul": 8698,
      "Ġclinical": 8699,
      "lucens": 8700,
      "Ġcreek": 8701,
      "Ġglobal": 8702,
      "Ġlynch": 8703,
      "Ġhughes": 8704,
      "Ġchicken": 8705,
      "Ġbelongs": 8706,
      "Ġsucceeded": 8707,
      "Ġilleg": 8708,
      "Ġillegal": 8709,
      "Ġdeaf": 8710,
      "Ġblooming": 8711,
      "Ġchangies": 8712,
      "Ġjewish": 8713,
      "Ġwisconsin": 8714,
      "Ġcinema": 8715,
      "Ġtrujillo": 8716,
      "Ġjefferson": 8717,
      "believe": 8718,
      "Ġsteamboat": 8719,
      "Ġescaped": 8720,
      "ninja": 8721,
      "Ġcraig": 8722,
      "Ġwebsite": 8723,
      "Ġprocedure": 8724,
      "Ġdescend": 8725,
      "Ġsurrounding": 8726,
      "Ġfibrian": 8727,
      "Ġrevealed": 8728,
      "Ġrazors": 8729,
      "Ġdrosophilidae": 8730,
      "dunno": 8731,
      "Ġtouched": 8732,
      "Ġtaylor": 8733,
      "relevant": 8734,
      "hammad": 8735,
      "Ġfreedom": 8736,
      "Ġhirsch": 8737,
      "Ġwindshields": 8738,
      "Ġhuckleberry": 8739,
      "Ġsiblings": 8740,
      "Ġculprit": 8741,
      "oprano": 8742,
      "Ġseminar": 8743,
      "Ġappeal": 8744,
      "Ġmontaubion": 8745,
      "Ġforensic": 8746,
      "language": 8747,
      "Ġbureau": 8748,
      "Ġpocket": 8749,
      "Ġginny": 8750,
      "Ġeminence": 8751,
      "Ġtruncata": 8752,
      "Ġdisagree": 8753,
      "Ġbarcelona": 8754,
      "according": 8755,
      "Ġpigeons": 8756,
      "Ġentertainment": 8757,
      "Ġcircumst": 8758,
      "Ġvenezuela": 8759,
      "dupree": 8760,
      "Ġacknow": 8761,
      "Ġpneumonia": 8762,
      "Ġashamed": 8763,
      "technic": 8764,
      "Ġarithmetic": 8765,
      "Ġenjoying": 8766,
      "complete": 8767,
      "\";": 8768,
      ")\"": 8769,
      "**": 8770,
      ".]": 8771,
      "32": 8772,
      "57": 8773,
      "67": 8774,
      "82": 8775,
      "96": 8776,
      "aug": 8777,
      "aah": 8778,
      "aire": 8779,
      "awards": 8780,
      "bn": 8781,
      "bie": 8782,
      "book": 8783,
      "bren": 8784,
      "bear": 8785,
      "based": 8786,
      "cat": 8787,
      "cook": 8788,
      "coin": 8789,
      "cura": 8790,
      "camp": 8791,
      "crazy": 8792,
      "caine": 8793,
      "df": 8794,
      "dra": 8795,
      "dire": 8796,
      "diction": 8797,
      "eor": 8798,
      "egg": 8799,
      "econom": 8800,
      "either": 8801,
      "fro": 8802,
      "faces": 8803,
      "folk": 8804,
      "gor": 8805,
      "gies": 8806,
      "gord": 8807,
      "gonna": 8808,
      "gins": 8809,
      "gator": 8810,
      "graph": 8811,
      "gosh": 8812,
      "hit": 8813,
      "hope": 8814,
      "iya": 8815,
      "jian": 8816,
      "jones": 8817,
      "jux": 8818,
      "jandro": 8819,
      "km": 8820,
      "kal": 8821,
      "kird": 8822,
      "lon": 8823,
      "little": 8824,
      "lude": 8825,
      "liga": 8826,
      "mia": 8827,
      "mings": 8828,
      "mail": 8829,
      "makes": 8830,
      "move": 8831,
      "magn": 8832,
      "nay": 8833,
      "nut": 8834,
      "none": 8835,
      "national": 8836,
      "norm": 8837,
      "number": 8838,
      "nchez": 8839,
      "overy": 8840,
      "oja": 8841,
      "pad": 8842,
      "phan": 8843,
      "pers": 8844,
      "post": 8845,
      "pitt": 8846,
      "pull": 8847,
      "push": 8848,
      "ru": 8849,
      "rine": 8850,
      "roof": 8851,
      "rule": 8852,
      "rcoles": 8853,
      "sl": 8854,
      "sis": 8855,
      "sion": 8856,
      "sul": 8857,
      "sohn": 8858,
      "sburg": 8859,
      "tu": 8860,
      "tit": 8861,
      "tall": 8862,
      "touch": 8863,
      "tured": 8864,
      "uine": 8865,
      "uits": 8866,
      "vate": 8867,
      "vorn": 8868,
      "vare": 8869,
      "vide": 8870,
      "wor": 8871,
      "wol": 8872,
      "yu": 8873,
      "youn": 8874,
      "yuk": 8875,
      "yverdon": 8876,
      "yamot": 8877,
      "zed": 8878,
      "zel": 8879,
      "zous": 8880,
      "zens": 8881,
      "ÃŁ": 8882,
      "Ì§": 8883,
      "ÌĦ": 8884,
      "Ġ),": 8885,
      "Ġtt": 8886,
      "Ġtam": 8887,
      "Ġtad": 8888,
      "Ġtro": 8889,
      "Ġtum": 8890,
      "Ġtak": 8891,
      "Ġtail": 8892,
      "Ġtank": 8893,
      "Ġtrap": 8894,
      "Ġtables": 8895,
      "heav": 8896,
      "Ġaim": 8897,
      "Ġaires": 8898,
      "Ġaids": 8899,
      "Ġian": 8900,
      "Ġtheater": 8901,
      "Ġtherap": 8902,
      "oui": 8903,
      "ouver": 8904,
      "Ġwrap": 8905,
      "Ġwuhu": 8906,
      "reck": 8907,
      "Ġses": 8908,
      "Ġsig": 8909,
      "Ġsnow": 8910,
      "Ġsna": 8911,
      "Ġslo": 8912,
      "oni": 8913,
      "onne": 8914,
      "onaut": 8915,
      "inate": 8916,
      "erate": 8917,
      "eries": 8918,
      "erio": 8919,
      "hai": 8920,
      "hala": 8921,
      "habit": 8922,
      "Ġcd": 8923,
      "anic": 8924,
      "annie": 8925,
      "anhalt": 8926,
      "Ġbis": 8927,
      "Ġbos": 8928,
      "Ġbaking": 8929,
      "Ġbung": 8930,
      "Ġmou": 8931,
      "Ġmit": 8932,
      "Ġmink": 8933,
      "Ġmak": 8934,
      "Ġmcl": 8935,
      "Ġmouse": 8936,
      "Ġowe": 8937,
      "Ġded": 8938,
      "Ġdent": 8939,
      "Ġdies": 8940,
      "Ġdated": 8941,
      "Ġdates": 8942,
      "Ġduty": 8943,
      "Ġdirt": 8944,
      "Ġfk": 8945,
      "Ġfan": 8946,
      "Ġfake": 8947,
      "Ġfence": 8948,
      "Ġfier": 8949,
      "Ġfancy": 8950,
      "Ġfountain": 8951,
      "Ġfontain": 8952,
      "Ġfiring": 8953,
      "orse": 8954,
      "orno": 8955,
      "enos": 8956,
      "enna": 8957,
      "enstein": 8958,
      "Ġpu": 8959,
      "Ġpork": 8960,
      "Ġpitt": 8961,
      "Ġpale": 8962,
      "Ġposed": 8963,
      "Ġpeak": 8964,
      "Ġpint": 8965,
      "Ġyard": 8966,
      "Ġyep": 8967,
      "lli": 8968,
      "itable": 8969,
      "itled": 8970,
      "Ġans": 8971,
      "Ġinfect": 8972,
      "Ġinev": 8973,
      "Ġinhabit": 8974,
      "edy": 8975,
      "edge": 8976,
      "edip": 8977,
      "eddie": 8978,
      "Ġtod": 8979,
      "Ġtoys": 8980,
      "Ġgw": 8981,
      "Ġgat": 8982,
      "Ġgould": 8983,
      "Ġgary": 8984,
      "Ġgava": 8985,
      "Ġgiovan": 8986,
      "isdiction": 8987,
      "arus": 8988,
      "armed": 8989,
      "Ġlit": 8990,
      "Ġlod": 8991,
      "Ġlak": 8992,
      "Ġlonge": 8993,
      "asso": 8994,
      "asions": 8995,
      "asible": 8996,
      "Ġnc": 8997,
      "Ġnord": 8998,
      "Ġnanny": 8999,
      "Ġnico": 9000,
      "att": 9001,
      "athan": 9002,
      "atures": 9003,
      "atient": 9004,
      "ombo": 9005,
      "icit": 9006,
      "icies": 9007,
      "icated": 9008,
      "icles": 9009,
      "iches": 9010,
      "Ġisa": 9011,
      "otion": 9012,
      "otny": 9013,
      "Ġheath": 9014,
      "lection": 9015,
      "Ġthy": 9016,
      "Ġhbo": 9017,
      "Ġhits": 9018,
      "Ġhale": 9019,
      "Ġhamm": 9020,
      "Ġhaird": 9021,
      "Ġbees": 9022,
      "Ġbeings": 9023,
      "Ġbelf": 9024,
      "Ġbeating": 9025,
      "Ġbelle": 9026,
      "Ġbeij": 9027,
      "Ġecl": 9028,
      "Ġeisen": 9029,
      "Ġrome": 9030,
      "Ġrip": 9031,
      "Ġrag": 9032,
      "Ġrabb": 9033,
      "Ġrival": 9034,
      "Ġkh": 9035,
      "Ġkon": 9036,
      "Ġkos": 9037,
      "Ġkab": 9038,
      "Ġkern": 9039,
      "Ġkaren": 9040,
      "Ġkramatorsk": 9041,
      "Ġweak": 9042,
      "igible": 9043,
      "idor": 9044,
      "idian": 9045,
      "idbey": 9046,
      "Ġreme": 9047,
      "unn": 9048,
      "uted": 9049,
      "uther": 9050,
      "acre": 9051,
      "acious": 9052,
      "Ġjes": 9053,
      "Ġjun": 9054,
      "Ġjod": 9055,
      "Ġjaw": 9056,
      "Ġjosie": 9057,
      "Ġjoux": 9058,
      "ande": 9059,
      "andrade": 9060,
      "Ġsta": 9061,
      "Ġstren": 9062,
      "Ġstated": 9063,
      "osy": 9064,
      "osaur": 9065,
      "amel": 9066,
      "htup": 9067,
      "irk": 9068,
      "irs": 9069,
      "ader": 9070,
      "ading": 9071,
      "adio": 9072,
      "uro": 9073,
      "ima": 9074,
      "allion": 9075,
      "Ġdoyou": 9076,
      "Ġdozen": 9077,
      "Ġseeds": 9078,
      "Ġfried": 9079,
      "Ġfridge": 9080,
      "start": 9081,
      "strange": 9082,
      "web": 9083,
      "wear": 9084,
      "celed": 9085,
      "Ġash": 9086,
      "several": 9087,
      "third": 9088,
      "ching": 9089,
      "child": 9090,
      "ille": 9091,
      "rold": 9092,
      "isted": 9093,
      "Ġlia": 9094,
      "Ġlied": 9095,
      "Ġlips": 9096,
      "Ġnoting": 9097,
      "anton": 9098,
      "antan": 9099,
      "gey": 9100,
      "Ġdeceler": 9101,
      "usted": 9102,
      "bery": 9103,
      "Ġvent": 9104,
      "Ġvik": 9105,
      "oli": 9106,
      "olis": 9107,
      "oline": 9108,
      "olau": 9109,
      "ouring": 9110,
      "Ġ1920": 9111,
      "Ġ1918": 9112,
      "Ġ1913": 9113,
      "este": 9114,
      "Ġcanoe": 9115,
      "Ġcanceled": 9116,
      "Ġdonets": 9117,
      "Ġdonneloye": 9118,
      "ieval": 9119,
      "Ġalarm": 9120,
      "Ġ\"'": 9121,
      "Ġunits": 9122,
      "Ġunfair": 9123,
      "Ġyourselves": 9124,
      "ifying": 9125,
      "hann": 9126,
      "Ġusual": 9127,
      "Ġussr": 9128,
      "qua": 9129,
      "Ġallen": 9130,
      "Ġcontemp": 9131,
      "Ġconduct": 9132,
      "Ġsod": 9133,
      "Ġsoap": 9134,
      "Ġsocks": 9135,
      "tele": 9136,
      "Ġplough": 9137,
      "Ġshereen": 9138,
      "Ġupset": 9139,
      "Ġproved": 9140,
      "Ġproves": 9141,
      "Ġouter": 9142,
      "Ġtearing": 9143,
      "Ġtehran": 9144,
      "cki": 9145,
      "ipal": 9146,
      "Ġspare": 9147,
      "type": 9148,
      "rency": 9149,
      "Ġexcess": 9150,
      "Ġexamples": 9151,
      "Ġtwins": 9152,
      "ousers": 9153,
      "Ġchrome": 9154,
      "agna": 9155,
      "agull": 9156,
      "agging": 9157,
      "Ġarran": 9158,
      "Ġarkansas": 9159,
      "aph": 9160,
      "venon": 9161,
      "Ġcounts": 9162,
      "Ġquart": 9163,
      "Ġamend": 9164,
      "Ġamateur": 9165,
      "Ġgrab": 9166,
      "Ġgrants": 9167,
      "Ġgrief": 9168,
      "Ġgrounds": 9169,
      "Ġgriff": 9170,
      "Ġfeeding": 9171,
      "Ġfeasible": 9172,
      "Ġlee": 9173,
      "Ġleather": 9174,
      "Ġpron": 9175,
      "nez": 9176,
      "Ġtraces": 9177,
      "Ġtrinidad": 9178,
      "Ġtrousers": 9179,
      "Ġmanner": 9180,
      "Ġgregg": 9181,
      "Ġbran": 9182,
      "Ġbrid": 9183,
      "Ġbrook": 9184,
      "Ġbride": 9185,
      "Ġbrush": 9186,
      "Ġnowhere": 9187,
      "ogy": 9188,
      "owntree": 9189,
      "Ġdiag": 9190,
      "Ġdiocese": 9191,
      "Ìģ.": 9192,
      "Ġcovid": 9193,
      "Ġcoordin": 9194,
      "Ġcocaine": 9195,
      "Ġpartially": 9196,
      "Ġacts": 9197,
      "Ġrover": 9198,
      "Ġcommons": 9199,
      "Ġbacked": 9200,
      "Ġbackhand": 9201,
      "Ġadvan": 9202,
      "Ġmoves": 9203,
      "anson": 9204,
      "Ġhoward": 9205,
      "oker": 9206,
      "Ġcomposed": 9207,
      "Ġdowntown": 9208,
      "onde": 9209,
      "issions": 9210,
      "Ġovernight": 9211,
      "assador": 9212,
      "wheel": 9213,
      "class": 9214,
      "claim": 9215,
      "Ġserial": 9216,
      "Ġservant": 9217,
      "comune": 9218,
      "Ġsword": 9219,
      "Ġswah": 9220,
      "Ġpolicies": 9221,
      "Ġshoulder": 9222,
      "Ġhappier": 9223,
      "Ġministry": 9224,
      "therefore": 9225,
      "izes": 9226,
      "Ġdisk": 9227,
      "Ġdishes": 9228,
      "Ġdepending": 9229,
      "Ġreserve": 9230,
      "myr": 9231,
      "Ġ38": 9232,
      "Ġ39": 9233,
      "Ġunderground": 9234,
      "Ġapplications": 9235,
      "Ġapplause": 9236,
      "Ġscreaming": 9237,
      "Ġschtup": 9238,
[...]
