{
  "version": "1.0",
  "truncation": {
    "direction": "Right",
    "max_length": 128,
    "strategy": "LongestFirst",
    "stride": 0
  },
  "padding": {
    "strategy": "BatchLongest",
    "direction": "Right",
    "pad_to_multiple_of": null,
    "pad_id": 32000,
    "pad_type_id": 0,
    "pad_token": "<|endoftext|>"
  },
  "added_tokens": [
    {
      "id": 32000,
      "content": "<|endoftext|>",
      "single_word": false,
      "lstrip": false,
      "rstrip": false,
      "normalized": false,
      "special": true
    },
    {
      "id": 32001,
      "content": "<pad>",
      "single_word": false,
      "lstrip": false,
      "rstrip": false,
      "normalized": false,
      "special": true
    }
  ],
  "normalizer": {
    "type": "Sequence",
    "normalizers": [
      {
        "type": "NFD"
      },
      {
        "type": "Lowercase"
      },
      {
        "type": "Strip",
        "strip_left": true,
        "strip_right": true
      }
    ]
  },
  "pre_tokenizer": {
    "type": "ByteLevel",
    "add_prefix_space": false,
    "trim_offsets": true,
    "use_regex": true
  },
  "post_processor": {
    "type": "ByteLevel",
    "add_prefix_space": true,
    "trim_offsets": true,
    "use_regex": true
  },
  "decoder": {
    "type": "ByteLevel",
    "add_prefix_space": true,
    "trim_offsets": true,
    "use_regex": true
  },
  "model": {
    "type": "BPE",
    "dropout": null,
    "unk_token": null,
    "continuing_subword_prefix": null,
    "end_of_word_suffix": null,
    "fuse_unk": false,
    "byte_fallback": false,
    "ignore_merges": false,
    "vocab": {
      "!": 0,
      "\"": 1,
      "#": 2,
      "$": 3,
      "%": 4,
      "&": 5,
      "'": 6,
      "(": 7,
      ")": 8,
      "*": 9,
      "+": 10,
      ",": 11,
      "-": 12,
      ".": 13,
      "/": 14,
      "0": 15,
      "1": 16,
      "2": 17,
      "3": 18,
      "4": 19,
      "5": 20,
      "6": 21,
      "7": 22,
      "8": 23,
      "9": 24,
      ":": 25,
      ";": 26,
      "=": 27,
      "?": 28,
      "@": 29,
      "[": 30,
      "\\": 31,
      "]": 32,
      "_": 33,
      "`": 34,
      "a": 35,
      "b": 36,
      "c": 37,
      "d": 38,
      "e": 39,
      "f": 40,
      "g": 41,
      "h": 42,
      "i": 43,
      "j": 44,
      "k": 45,
      "l": 46,
      "m": 47,
      "n": 48,
      "o": 49,
      "p": 50,
      "q": 51,
      "r": 52,
      "s": 53,
      "t": 54,
      "u": 55,
      "v": 56,
      "w": 57,
      "x": 58,
      "y": 59,
      "z": 60,
      "{": 61,
      "|": 62,
      "}": 63,
      "~": 64,
      "¡": 65,
      "¢": 66,
      "£": 67,
      "¤": 68,
      "¦": 69,
      "§": 70,
      "¨": 71,
      "©": 72,
      "ª": 73,
      "«": 74,
      "¬": 75,
      "¯": 76,
      "°": 77,
      "±": 78,
      "²": 79,
      "¶": 80,
      "·": 81,
      "¸": 82,
      "¹": 83,
      "¼": 84,
      "½": 85,
      "¾": 86,
      "¿": 87,
      "Â": 88,
      "Ã": 89,
      "Ä": 90,
      "Å": 91,
      "Ç": 92,
      "É": 93,
      "Ê": 94,
      "Ë": 95,
      "Ì": 96,
      "à": 97,
      "â": 98,
      "ã": 99,
      "ï": 100,
      "ô": 101,
      "Ġ": 102,
      "ġ": 103,
      "Ģ": 104,
      "ģ": 105,
      "Ĥ": 106,
      "ĥ": 107,
      "Ħ": 108,
      "ħ": 109,
      "Ĩ": 110,
      "ĩ": 111,
      "Ī": 112,
      "ī": 113,
      "Ĭ": 114,
      "ĭ": 115,
      "Į": 116,
      "İ": 117,
      "ı": 118,
      "Ĳ": 119,
      "ĳ": 120,
      "Ĵ": 121,
      "ĵ": 122,
      "Ķ": 123,
      "ķ": 124,
      "Ĺ": 125,
      "ĺ": 126,
      "Ļ": 127,
      "ļ": 128,
      "Ľ": 129,
      "ľ": 130,
      "Ŀ": 131,
      "ŀ": 132,
      "Ł": 133,
      "ł": 134,
      "Ń": 135,
      "Ġt": 136,
      "he": 137,
      "Ġa": 138,
      "in": 139,
      "Ġthe": 140,
      "Ġw": 141,
      "re": 142,
      "Ġs": 143,
      "ou": 144,
      "on": 145,
      "Ġi": 146,
      "er": 147,
      "ha": 148,
      "Ġc": 149,
      "Ġb": 150,
      "Ġm": 151,
      "an": 152,
      "Ġo": 153,
      "Ġf": 154,
      "Ġd": 155,
      "en": 156,
      "or": 157,
      "Ġp": 158,
      "Ġy": 159,
      "ll": 160,
      "ing": 161,
      "Ġan": 162,
      "es": 163,
      "it": 164,
      "Ġto": 165,
      "ed": 166,
      "Ġin": 167,
      "Ġg": 168,
      "Ġyou": 169,
      "Ġl": 170,
      "Ġof": 171,
      "ar": 172,
      "is": 173,
      "as": 174,
      "hat": 175,
      "Ġn": 176,
      "at": 177,
      "Ġand": 178,
      "om": 179,
      "Ġ=": 180,
      "ic": 181,
      "Ġit": 182,
      "ve": 183,
      "'s": 184,
      "al": 185,
      "ow": 186,
      "ot": 187,
      "Ġhe": 188,
      "le": 189,
      "us": 190,
      "Ġth": 191,
      "Ġis": 192,
      "et": 193,
      "ay": 194,
      "Ġon": 195,
      "Ġthat": 196,
      "Ġha": 197,
      "Ġh": 198,
      "Ġbe": 199,
      "ion": 200,
      "Ġwas": 201,
      "Ġe": 202,
      "Ġwe": 203,
      "ig": 204,
      "Ġre": 205,
      "id": 206,
      "ent": 207,
      "Ġr": 208,
      "Ġk": 209,
      "ut": 210,
      "un": 211,
      "'t": 212,
      "ld": 213,
      "ac": 214,
      "Ġfor": 215,
      "am": 216,
      "Ġst": 217,
      "ver": 218,
      "the": 219,
      "Ġj": 220,
      "ht": 221,
      "st": 222,
      "Ġme": 223,
      "..": 224,
      "ly": 225,
      "and": 226,
      "se": 227,
      "im": 228,
      "ir": 229,
      "ad": 230,
      "out": 231,
      "ro": 232,
      "ke": 233,
      "Ġgo": 234,
      "Ġ1": 235,
      "all": 236,
      "Ġdo": 237,
      "ight": 238,
      "ct": 239,
      "Ġ2": 240,
      "Ġse": 241,
      "ur": 242,
      "ith": 243,
      "Ġas": 244,
      "now": 245,
      "ea": 246,
      "Ġer": 247,
      "ce": 248,
      "th": 249,
      "ch": 250,
      "Ġwith": 251,
      "il": 252,
      "Ġfr": 253,
      "op": 254,
      "ill": 255,
      "ome": 256,
      "ter": 257,
      "ol": 258,
      "Ġli": 259,
      "we": 260,
      "ust": 261,
      "Ġat": 262,
      "Ġthis": 263,
      "Ġde": 264,
      "od": 265,
      "Ġthey": 266,
      "up": 267,
      "Ġhave": 268,
      "Ġare": 269,
      "Ġknow": 270,
      "ould": 271,
      "Ġwh": 272,
      "Ġnot": 273,
      "Ġ20": 274,
      "you": 275,
      "ant": 276,
      "ation": 277,
      "Ġne": 278,
      "oun": 279,
      "ist": 280,
      "Ġcan": 281,
      "ge": 282,
      "ok": 283,
      "our": 284,
      "Ġthere": 285,
      "Ġwhat": 286,
      "ain": 287,
      "Ġdon": 288,
      "Ġab": 289,
      "Ġal": 290,
      "Ġ(": 291,
      "art": 292,
      "Ġ19": 293,
      "eah": 294,
      "Ġlo": 295,
      "Ġun": 296,
      "'re": 297,
      "ul": 298,
      "Ġmo": 299,
      "ri": 300,
      "Ġcom": 301,
      "Ġv": 302,
      "Ġ\"": 303,
      "Ġfrom": 304,
      "um": 305,
      "ber": 306,
      "Ġshe": 307,
      "Ġone": 308,
      "...": 309,
      "if": 310,
      "Ġyour": 311,
      "Ġall": 312,
      "ie": 313,
      "est": 314,
      "qu": 315,
      "Ġwor": 316,
      "her": 317,
      "Ġor": 318,
      "Ġso": 319,
      "res": 320,
      "han": 321,
      "oh": 322,
      "Ġcon": 323,
      "so": 324,
      "Ġsh": 325,
      "ally": 326,
      "'m": 327,
      "Ġmy": 328,
      "Ġwhe": 329,
      "os": 330,
      "ap": 331,
      "Ġus": 332,
      "Ġup": 333,
      "Ġby": 334,
      "Ġbut": 335,
      "Ġpro": 336,
      "ink": 337,
      "ate": 338,
      "ab": 339,
      "ity": 340,
      "ack": 341,
      "very": 342,
      "Ġget": 343,
      "Ġabout": 344,
      "Ġno": 345,
      "ry": 346,
      "Ġpl": 347,
      "em": 348,
      "Ġout": 349,
      "Ġlike": 350,
      "Ġjust": 351,
      "oug": 352,
      "ive": 353,
      "Ġgot": 354,
      "ers": 355,
      "yeah": 356,
      "no": 357,
      "one": 358,
      "ort": 359,
      "ess": 360,
      "'ve": 361,
      "ck": 362,
      "ame": 363,
      "ake": 364,
      "Ġwere": 365,
      "red": 366,
      "end": 367,
      "Ġte": 368,
      "what": 369,
      "ast": 370,
      "ment": 371,
      "Ġthink": 372,
      "Ġdid": 373,
      "Ġsa": 374,
      "'ll": 375,
      "Ġsp": 376,
      "ip": 377,
      "ound": 378,
      "el": 379,
      "ies": 380,
      "Ġhis": 381,
      "fe": 382,
      "Ġex": 383,
      "ra": 384,
      "Ġif": 385,
      "ian": 386,
      "ong": 387,
      "Ġher": 388,
      "ary": 389,
      "ard": 390,
      "ime": 391,
      "Ġright": 392,
      "Ġany": 393,
      "ind": 394,
      "ia": 395,
      "Ġpe": 396,
      "Ġhad": 397,
      "Ġthem": 398,
      "ren": 399,
      "Ġwant": 400,
      "ak": 401,
      "ud": 402,
      "Ġfe": 403,
      "pp": 404,
      "Ġco": 405,
      "ure": 406,
      "ine": 407,
      "Ġtw": 408,
      "Ġsome": 409,
      "Ġar": 410,
      "Ġsay": 411,
      "Ġle": 412,
      "lo": 413,
      "Ġwould": 414,
      "ven": 415,
      "Ġhere": 416,
      "Ġch": 417,
      "Ġman": 418,
      "that": 419,
      "well": 420,
      "ag": 421,
      "Ġag": 422,
      "ich": 423,
      "ice": 424,
      "ther": 425,
      "Ġam": 426,
      "ople": 427,
      "ous": 428,
      "Ġ201": 429,
      "use": 430,
      "Ġthen": 431,
      "but": 432,
      "Ġtr": 433,
      "Ġpeople": 434,
      "Ġwho": 435,
      "Ġsee": 436,
      "orn": 437,
      "Ġwhen": 438,
      "Ġhim": 439,
      "hing": 440,
      "ca": 441,
      "Ġqu": 442,
      "Ġwill": 443,
      "to": 444,
      "Ġerm": 445,
      "Ġtime": 446,
      "Ġdi": 447,
      "ree": 448,
      "ty": 449,
      "Ġbr": 450,
      "own": 451,
      "te": 452,
      "Ġhas": 453,
      "ear": 454,
      "yes": 455,
      "Ġwork": 456,
      "Ġnow": 457,
      "ough": 458,
      "ub": 459,
      "ore": 460,
      "Ġro": 461,
      "na": 462,
      "¿½": 463,
      "ï¿½": 464,
      "are": 465,
      "der": 466,
      "ug": 467,
      "Ġaf": 468,
      "Ġbeen": 469,
      "Ġgr": 470,
      "way": 471,
      "Ġtwo": 472,
      "mp": 473,
      "âĻ": 474,
      "age": 475,
      "Ġback": 476,
      "Ġgoing": 477,
      "mm": 478,
      "ect": 479,
      "Ġwell": 480,
      "Ġpart": 481,
      "ick": 482,
      "ci": 483,
      "Ġmean": 484,
      "Ġoff": 485,
      "Ġ202": 486,
      "cause": 487,
      "âĻª": 488,
      "Ġpr": 489,
      "âĢ": 490,
      "irst": 491,
      "act": 492,
      "ish": 493,
      "ide": 494,
      "Ġcha": 495,
      "Ġthing": 496,
      "erm": 497,
      "iv": 498,
      "Ġen": 499,
      "Ġact": 500,
      "Ġlook": 501,
      "ue": 502,
      "Ġsaid": 503,
      "ep": 504,
      "Ġwhich": 505,
      "Ġvery": 506,
      "ite": 507,
      "ase": 508,
      "Ġmar": 509,
      "be": 510,
      "Ġcould": 511,
      "Ġbo": 512,
      "ace": 513,
      "Ġhow": 514,
      "Ġother": 515,
      "Ġfirst": 516,
      "ated": 517,
      "itt": 518,
      "ne": 519,
      "Ġcl": 520,
      "Ġnew": 521,
      "uch": 522,
      "wh": 523,
      "Ġcomm": 524,
      "Ġ.": 525,
      "Ġyear": 526,
      "Ġgood": 527,
      "Ġmore": 528,
      "ose": 529,
      "other": 530,
      "Ġover": 531,
      "ble": 532,
      "Ìģ": 533,
      "ond": 534,
      "omet": 535,
      "lf": 536,
      "ict": 537,
      "Ġdown": 538,
      "Ġcomp": 539,
      "ions": 540,
      "Ġplay": 541,
      "'d": 542,
      "Ġcoun": 543,
      "Ġad": 544,
      "Ġcome": 545,
      "mber": 546,
      "pt": 547,
      "ance": 548,
      "Ġalso": 549,
      "br": 550,
      "uary": 551,
      "ord": 552,
      "ress": 553,
      "Ġfo": 554,
      "Ġthan": 555,
      "Ġac": 556,
      "Ġtheir": 557,
      "Ġpo": 558,
      "uck": 559,
      "ican": 560,
      "Ġbecause": 561,
      "alk": 562,
      "Ġway": 563,
      "ater": 564,
      "00": 565,
      "Ġneed": 566,
      "whe": 567,
      "Ġour": 568,
      "Ġday": 569,
      "âĢĵ": 570,
      "ens": 571,
      "ade": 572,
      "ody": 573,
      "ass": 574,
      "og": 575,
      "ates": 576,
      "Ġsomet": 577,
      "Ġevery": 578,
      "Ġcall": 579,
      "Ġser": 580,
      "Ġreally": 581,
      "Ġafter": 582,
      "iz": 583,
      "Ġagain": 584,
      "Ġbet": 585,
      "ought": 586,
      "Ġrep": 587,
      "Ġpol": 588,
      "Ġgu": 589,
      "ang": 590,
      "ire": 591,
      "thing": 592,
      "iss": 593,
      "onna": 594,
      "ved": 595,
      "Ġmay": 596,
      "Ġonly": 597,
      "Ġgre": 598,
      "they": 599,
      "ving": 600,
      "Ġcar": 601,
      "wn": 602,
      "Ġinto": 603,
      "ff": 604,
      "Ġwhere": 605,
      "Ġshould": 606,
      "Ġgonna": 607,
      "Ġper": 608,
      "Ġdoes": 609,
      "Ġput": 610,
      "right": 611,
      "Ġla": 612,
      "she": 613,
      "Ġtake": 614,
      "Ġyes": 615,
      "per": 616,
      "Ġdidn": 617,
      "day": 618,
      "uc": 619,
      "Ġmake": 620,
      "Ġmin": 621,
      "get": 622,
      "Ġsc": 623,
      "Ġthree": 624,
      "Ġused": 625,
      "Ġthese": 626,
      "Ġwr": 627,
      "cl": 628,
      "Ġtell": 629,
      "Ġyeah": 630,
      "ign": 631,
      "this": 632,
      "ited": 633,
      "come": 634,
      "Ġwon": 635,
      "av": 636,
      "Ġ,": 637,
      "Ġsec": 638,
      "int": 639,
      "ach": 640,
      "ory": 641,
      "Ġjo": 642,
      "Ġsomething": 643,
      "land": 644,
      "ile": 645,
      "Ġnor": 646,
      "go": 647,
      "Ġdist": 648,
      "ix": 649,
      "Ġdis": 650,
      "ical": 651,
      "Ġres": 652,
      "do": 653,
      "ks": 654,
      "Ġamer": 655,
      "my": 656,
      "Ġ200": 657,
      "for": 658,
      "how": 659,
      "mo": 660,
      "Ġthr": 661,
      "Ġhapp": 662,
      "Ġind": 663,
      "Ġmuch": 664,
      "ans": 665,
      "rent": 666,
      "ational": 667,
      "fore": 668,
      "Ġstart": 669,
      "there": 670,
      "pe": 671,
      "ittle": 672,
      "ult": 673,
      "Ġbl": 674,
      "ft": 675,
      "Ġ3": 676,
      "Ġsup": 677,
      "Ġu": 678,
      "Ġunder": 679,
      "che": 680,
      "Ġlet": 681,
      "ild": 682,
      "urn": 683,
      "ually": 684,
      "Ġpre": 685,
      "ting": 686,
      "les": 687,
      "ence": 688,
      "Ġlittle": 689,
      "sh": 690,
      "ple": 691,
      "Ġchan": 692,
      "Ġtalk": 693,
      "Ġapp": 694,
      "Ġcont": 695,
      "Ġbu": 696,
      "vers": 697,
      "ather": 698,
      "able": 699,
      "Ġke": 700,
      "Ġrec": 701,
      "Ġcr": 702,
      "man": 703,
      "Ġdep": 704,
      "und": 705,
      "body": 706,
      "Ġï¿½": 707,
      "ah": 708,
      "ember": 709,
      "Ġworld": 710,
      "lp": 711,
      "Ġmade": 712,
      "Ġwar": 713,
      "Ġbit": 714,
      "Ġamerican": 715,
      "ons": 716,
      "li": 717,
      "Ġstates": 718,
      "Ġlove": 719,
      "ouse": 720,
      "Ġpres": 721,
      "ath": 722,
      "Ġfour": 723,
      "Ġlea": 724,
      "bruary": 725,
      "Ġtoo": 726,
      "Ġthose": 727,
      "Ġlong": 728,
      "ward": 729,
      "Ġok": 730,
      "ident": 731,
      "Ġunited": 732,
      "Ġph": 733,
      "Ġdied": 734,
      "Ġyears": 735,
      "let": 736,
      "Ġdoing": 737,
      "Ġfebruary": 738,
      "Ġoh": 739,
      "\".": 740,
      "Ġexp": 741,
      "ves": 742,
      "Ġthrough": 743,
      "Ġsha": 744,
      "Ġcity": 745,
      "me": 746,
      "Ġnever": 747,
      "Ġche": 748,
      "Ġbefore": 749,
      "Ġho": 750,
      "ious": 751,
      "vel": 752,
      "Ġdif": 753,
      "Ġpar": 754,
      "Ġimp": 755,
      "any": 756,
      "Ġwhy": 757,
      "rict": 758,
      "Ġreg": 759,
      "ail": 760,
      "Ġmany": 761,
      "lect": 762,
      "Ġhelp": 763,
      "tern": 764,
      "ily": 765,
      "Ġlot": 766,
      "Ġold": 767,
      "Ġmon": 768,
      "une": 769,
      "ations": 770,
      "Ġrem": 771,
      "ys": 772,
      "ality": 773,
      "Ġ199": 774,
      "Ġbel": 775,
      "don": 776,
      "okay": 777,
      "Ġthings": 778,
      "Ġend": 779,
      "Ġlast": 780,
      "self": 781,
      "Ġ2021": 782,
      "where": 783,
      "ĠâĢĵ": 784,
      "xt": 785,
      "ince": 786,
      "Ġcour": 787,
      "de": 788,
      "Ġknown": 789,
      "Ġsl": 790,
      "ial": 791,
      "not": 792,
      "Ġwom": 793,
      "ull": 794,
      "Ġthought": 795,
      "Ġma": 796,
      "Ġname": 797,
      "Ġeven": 798,
      "Ġmost": 799,
      "Ġwent": 800,
      "Ġdistrict": 801,
      "tain": 802,
      "Ġborn": 803,
      "rect": 804,
      "orry": 805,
      "pr": 806,
      "Ġask": 807,
      "Ġstill": 808,
      ").": 809,
      "than": 810,
      "ise": 811,
      "ps": 812,
      "Ġfl": 813,
      "Ġhar": 814,
      "Ġmember": 815,
      "Ġsame": 816,
      "Ġlife": 817,
      "Ġhouse": 818,
      "oney": 819,
      "Ġhan": 820,
      "Ġform": 821,
      "ition": 822,
      "ors": 823,
      "com": 824,
      "ady": 825,
      "ork": 826,
      "hed": 827,
      "Ġsupp": 828,
      "icip": 829,
      "Ġchar": 830,
      "ings": 831,
      "Ġgive": 832,
      "vie": 833,
      "Ġfound": 834,
      "gr": 835,
      "Ġdr": 836,
      "Ġwee": 837,
      "Ġfin": 838,
      "Ġdone": 839,
      "vent": 840,
      "Ġmat": 841,
      "Ġteam": 842,
      "gan": 843,
      "Ġcare": 844,
      "uct": 845,
      "igh": 846,
      "Ġaway": 847,
      "erson": 848,
      "Ġsix": 849,
      "Ġnational": 850,
      "Ġsm": 851,
      "Ġspe": 852,
      "Ġfind": 853,
      "Ġits": 854,
      "io": 855,
      "Ġ198": 856,
      "Ġgod": 857,
      "Ġnum": 858,
      "Ġbeing": 859,
      "imes": 860,
      "Ġfive": 861,
      "Ġfam": 862,
      "why": 863,
      "Ġmust": 864,
      "Ġhappen": 865,
      "ubl": 866,
      "ces": 867,
      "Ġstate": 868,
      "Ġsch": 869,
      "Ġ18": 870,
      "Ġanything": 871,
      "Ġcent": 872,
      "Ġstr": 873,
      "Ġplace": 874,
      "Ġsw": 875,
      "ning": 876,
      "Ġsure": 877,
      "Ġel": 878,
      "ib": 879,
      "ĠâĻª": 880,
      "co": 881,
      "ased": 882,
      "Ġown": 883,
      "Ġhome": 884,
      "Ġcalled": 885,
      "Ġdirect": 886,
      "uring": 887,
      "til": 888,
      "vis": 889,
      "Ġear": 890,
      "Ġshow": 891,
      "ames": 892,
      "Ġsort": 893,
      "Ġtry": 894,
      "Ġokay": 895,
      "\",": 896,
      "ait": 897,
      "Ġdiffe": 898,
      "),": 899,
      "Ġdes": 900,
      "Ġnight": 901,
      "Ġfeel": 902,
      "Ġnumber": 903,
      "Ġatt": 904,
      "ye": 905,
      "Ġbus": 906,
      "Ġpop": 907,
      "ton": 908,
      "air": 909,
      "Ġbig": 910,
      "just": 911,
      "Ġgen": 912,
      "ways": 913,
      "Ġeng": 914,
      "rest": 915,
      "Ġmun": 916,
      "Ġgreat": 917,
      "Ġpolit": 918,
      "ating": 919,
      "aking": 920,
      "19": 921,
      "cial": 922,
      "ta": 923,
      "ute": 924,
      "Ġmoney": 925,
      "Ġrun": 926,
      "Ġsecond": 927,
      "oth": 928,
      "ason": 929,
      "ars": 930,
      "vern": 931,
      "Ġactually": 932,
      "Ġ'": 933,
      "oss": 934,
      "ful": 935,
      "outh": 936,
      "als": 937,
      "irl": 938,
      "Ġ4": 939,
      "Ġuntil": 940,
      "ho": 941,
      "ool": 942,
      "Ġz": 943,
      "form": 944,
      "Ġanother": 945,
      "Ġjan": 946,
      "Ġkeep": 947,
      "fect": 948,
      "can": 949,
      "Ġ5": 950,
      "Ġcons": 951,
      "Ġage": 952,
      "ween": 953,
      "artment": 954,
      "hey": 955,
      "ts": 956,
      "Ġdoesn": 957,
      "Ġmunicip": 958,
      "Ġ7": 959,
      "ball": 960,
      "la": 961,
      "ohn": 962,
      "cess": 963,
      "Ġsy": 964,
      "Ġob": 965,
      "blem": 966,
      "Ġ6": 967,
      "ics": 968,
      "ner": 969,
      "Ġcre": 970,
      "Ġcle": 971,
      "Ġstop": 972,
      "Ġaround": 973,
      "Ġed": 974,
      "ale": 975,
      "lease": 976,
      "amp": 977,
      "Ġ8": 978,
      "Ġpoint": 979,
      "Ġuse": 980,
      "Ġbetween": 981,
      "Ġbest": 982,
      "Ġmus": 983,
      "ular": 984,
      "Ġtri": 985,
      "Ġeight": 986,
      "Ġproblem": 987,
      "ï¿½ï¿½": 988,
      "ever": 989,
      "Ġ197": 990,
      "llow": 991,
      "Ġthir": 992,
      "Ġbetter": 993,
      "Ġinv": 994,
      "ny": 995,
      "who": 996,
      "20": 997,
      "Ġid": 998,
      "Ġmiss": 999,
      "Ġcame": 1000,
      "Ġcounty": 1001,
      "ger": 1002,
      "Ġmight": 1003,
      "Ġcount": 1004,
      "son": 1005,
      "Ġelect": 1006,
      "Ġgovern": 1007,
      "Ġdepartment": 1008,
      "undred": 1009,
      "ank": 1010,
      "Ġalways": 1011,
      "Ġcap": 1012,
      "Ġperson": 1013,
      "atch": 1014,
      "Ġuni": 1015,
      "Ġlist": 1016,
      "Ġset": 1017,
      "Ġfar": 1018,
      "Ġcourse": 1019,
      "Ġca": 1020,
      "Ġnorth": 1021,
      "Ġhand": 1022,
      "Ġmr": 1023,
      "Ġhundred": 1024,
      "Ġplayed": 1025,
      "ied": 1026,
      "ros": 1027,
      "Ġnext": 1028,
      "ities": 1029,
      "Ġ?": 1030,
      "Ġisn": 1031,
      "Ġ196": 1032,
      "apan": 1033,
      "Ġgrou": 1034,
      "Ġbre": 1035,
      "clud": 1036,
      "Ġfact": 1037,
      "Ġchild": 1038,
      "Ġsorry": 1039,
      "Ġgirl": 1040,
      "ician": 1041,
      "Ġdec": 1042,
      "Ġ2022": 1043,
      "Ġquite": 1044,
      "ister": 1045,
      "thank": 1046,
      "Ġpresident": 1047,
      "ures": 1048,
      "ĠĠ": 1049,
      "Ġkill": 1050,
      "olog": 1051,
      "Ġdifferent": 1052,
      "Ġmovie": 1053,
      "Ġjapan": 1054,
      "bo": 1055,
      "Ġsays": 1056,
      "Ġschool": 1057,
      "Ġduring": 1058,
      "Ġfamily": 1059,
      "ont": 1060,
      "inet": 1061,
      "Ġass": 1062,
      "Ġjanuary": 1063,
      "Ġcoll": 1064,
      "--": 1065,
      "ably": 1066,
      "Ġmet": 1067,
      "sp": 1068,
      "Ġpa": 1069,
      "did": 1070,
      "stand": 1071,
      "Ġmeet": 1072,
      "Ġsing": 1073,
      "ject": 1074,
      "Ġsub": 1075,
      "Ġfoot": 1076,
      "eral": 1077,
      "Ġmill": 1078,
      "Ġtoday": 1079,
      "look": 1080,
      "Ġtold": 1081,
      "when": 1082,
      "Ġacc": 1083,
      "Ġbelie": 1084,
      "Ġsit": 1085,
      "Ġreal": 1086,
      "ik": 1087,
      "Ġweek": 1088,
      "Ġop": 1089,
      "Ġagainst": 1090,
      "Ġmunicipality": 1091,
      "Ġplan": 1092,
      "Ġ2019": 1093,
      "Ġfri": 1094,
      "Ġcol": 1095,
      "ative": 1096,
      "Ġrel": 1097,
      "Ġarea": 1098,
      "akes": 1099,
      "Ġtown": 1100,
      "ave": 1101,
      "Ġlater": 1102,
      "Ġprod": 1103,
      "Ġfif": 1104,
      "Ġpay": 1105,
      "ual": 1106,
      "Ġturn": 1107,
      "ina": 1108,
      "enty": 1109,
      "ier": 1110,
      "Ġhead": 1111,
      "Ġfriend": 1112,
      "Ġhigh": 1113,
      "az": 1114,
      "came": 1115,
      "ret": 1116,
      "Ġparty": 1117,
      "Ġ194": 1118,
      "Ġleft": 1119,
      "cy": 1120,
      "mer": 1121,
      "Ġcos": 1122,
      "rap": 1123,
      "Ġyork": 1124,
      "har": 1125,
      "ible": 1126,
      "rist": 1127,
      "ital": 1128,
      "eak": 1129,
      "ional": 1130,
      "Ġbecame": 1131,
      "cer": 1132,
      "Ġsouth": 1133,
      "Ġfrance": 1134,
      "Ġremember": 1135,
      "een": 1136,
      "ower": 1137,
      "Ġcoming": 1138,
      "ph": 1139,
      "ins": 1140,
      "Ġbar": 1141,
      "Ġ9": 1142,
      "Ġkid": 1143,
      "Ġjob": 1144,
      "ma": 1145,
      "Ġunivers": 1146,
      "born": 1147,
      "iness": 1148,
      "Ġinclud": 1149,
      "Ġplease": 1150,
      "Ġapr": 1151,
      ".\"": 1152,
      "Ġair": 1153,
      "Ġquest": 1154,
      "Ġlar": 1155,
      "Ġsuch": 1156,
      "cr": 1157,
      "Ġfather": 1158,
      "ten": 1159,
      "Ġapril": 1160,
      "Ġten": 1161,
      "Ġsur": 1162,
      "pl": 1163,
      "Ġmove": 1164,
      "good": 1165,
      "ash": 1166,
      "Ġnice": 1167,
      "Ġ!": 1168,
      "Ġ195": 1169,
      "vision": 1170,
      "ced": 1171,
      "Ġroad": 1172,
      "Ġwomen": 1173,
      "Ġce": 1174,
      "uss": 1175,
      "Ġkind": 1176,
      "Ġjohn": 1177,
      "Ġstud": 1178,
      "Ġword": 1179,
      "Ġju": 1180,
      "cept": 1181,
      "Ġserv": 1182,
      "Ġwait": 1183,
      "Ġblo": 1184,
      "ese": 1185,
      "row": 1186,
      "Ġmed": 1187,
      "Ġeverything": 1188,
      "Ġgetting": 1189,
      "ific": 1190,
      "orning": 1191,
      "ged": 1192,
      "Ġwanted": 1193,
      "Ġcal": 1194,
      "of": 1195,
      "Ġloc": 1196,
      "uh": 1197,
      "uff": 1198,
      "Ġaut": 1199,
      "Ġmain": 1200,
      "Ġfun": 1201,
      "Ġinte": 1202,
      "Ġred": 1203,
      "fr": 1204,
      "Ġstand": 1205,
      "Ġmil": 1206,
      "con": 1207,
      "its": 1208,
      "ope": 1209,
      "Ġprov": 1210,
      "Ġseen": 1211,
      "Ġret": 1212,
      "Ġcommun": 1213,
      "Ġstarted": 1214,
      "Ġcup": 1215,
      "Ġhalf": 1216,
      "side": 1217,
      "Ġsim": 1218,
      "llo": 1219,
      "gether": 1220,
      "Ġent": 1221,
      "osed": 1222,
      "Ġboth": 1223,
      "Ġsince": 1224,
      "by": 1225,
      "Ġking": 1226,
      "Ġdef": 1227,
      "Ġfil": 1228,
      "Ġhaven": 1229,
      "ents": 1230,
      "ught": 1231,
      "Ġmom": 1232,
      "Ġwind": 1233,
      "Ġgerm": 1234,
      "Ġ193": 1235,
      "Ġfootball": 1236,
      "Ġcur": 1237,
      "Ġmonth": 1238,
      "Ġever": 1239,
      "bably": 1240,
      "ober": 1241,
      "Ġtom": 1242,
      "Ġfew": 1243,
      "Ġdays": 1244,
      "Ġninet": 1245,
      "Ġelse": 1246,
      "Ġbad": 1247,
      "Ġmorning": 1248,
      "Ġround": 1249,
      "ling": 1250,
      "Ġmen": 1251,
      "Ġfuck": 1252,
      "ctober": 1253,
      "Ġgroup": 1254,
      "ba": 1255,
      "Ġtook": 1256,
      "ousand": 1257,
      "Ġda": 1258,
      "Ġbusiness": 1259,
      "Ġopen": 1260,
      "ished": 1261,
      "Ġ10": 1262,
      "que": 1263,
      "Ġadd": 1264,
      "Ġuniversity": 1265,
      "Ġstay": 1266,
      "Ġ2020": 1267,
      "Ġmother": 1268,
      "Ġlive": 1269,
      "Ġpubl": 1270,
      "Ġwhile": 1271,
      "Ġbook": 1272,
      "Ġtalking": 1273,
      "ote": 1274,
      "Ġconf": 1275,
      "ments": 1276,
      "ica": 1277,
      "rog": 1278,
      "ark": 1279,
      "Ġty": 1280,
      "Ġtogether": 1281,
      "Ġprof": 1282,
      "Ġlaw": 1283,
      "ets": 1284,
      "Ġmind": 1285,
      "Ġthousand": 1286,
      "Ġoffic": 1287,
      "Ġrecord": 1288,
      "Ġleave": 1289,
      "Ġbelieve": 1290,
      "ives": 1291,
      "Ġunderstand": 1292,
      "ried": 1293,
      "cent": 1294,
      "Ġcer": 1295,
      "Ġnothing": 1296,
      "Ġcommune": 1297,
      "ptember": 1298,
      "ex": 1299,
      "ows": 1300,
      "Ġhour": 1301,
      "Ġsign": 1302,
      "Ġtwenty": 1303,
      "Ġtimes": 1304,
      "ters": 1305,
      "Ġsaying": 1306,
      "Ġlead": 1307,
      "Ġimport": 1308,
      "Ġoctober": 1309,
      "Ġinst": 1310,
      "Ġhaving": 1311,
      "Ġpolitician": 1312,
      "ÌĪ": 1313,
      "Ġwasn": 1314,
      "Ġeas": 1315,
      "gue": 1316,
      "ulation": 1317,
      "rence": 1318,
      "angu": 1319,
      "Ġhear": 1320,
      "ped": 1321,
      "Ġorgan": 1322,
      "Ġsmall": 1323,
      "Ġsong": 1324,
      "Ġste": 1325,
      "Ġje": 1326,
      "Ġwouldn": 1327,
      "Ġtre": 1328,
      "vember": 1329,
      "cil": 1330,
      "hy": 1331,
      "Ġchrist": 1332,
      "hm": 1333,
      "Ġenough": 1334,
      "Ġchamp": 1335,
      "Ġson": 1336,
      "Ġwrong": 1337,
      "Ġinc": 1338,
      "Ġsen": 1339,
      "Ġra": 1340,
      "Ġseptember": 1341,
      "your": 1342,
      "Ġrepres": 1343,
      "Ġdad": 1344,
      "tle": 1345,
      "Ġtele": 1346,
      "ize": 1347,
      "ism": 1348,
      "Ġlooking": 1349,
      "Ġdri": 1350,
      "ution": 1351,
      "Ġ17": 1352,
      "Ġdeath": 1353,
      "ral": 1354,
      "then": 1355,
      "Ġmarch": 1356,
      "Ġhappened": 1357,
      "ross": 1358,
      "Ġeach": 1359,
      "gest": 1360,
      "Ġsk": 1361,
      "uro": 1362,
      "ists": 1363,
      "Ġresp": 1364,
      "ood": 1365,
      "Ġwater": 1366,
      "Ġpri": 1367,
      "ony": 1368,
      "Ġlight": 1369,
      "ounds": 1370,
      "Ġext": 1371,
      "ired": 1372,
      "ready": 1373,
      "Ġjuly": 1374,
      "ues": 1375,
      "Ġside": 1376,
      "have": 1377,
      "Ġprobably": 1378,
      "Ġworking": 1379,
      "tw": 1380,
      "Ġinter": 1381,
      "hip": 1382,
      "ined": 1383,
      "gress": 1384,
      "Ġmaj": 1385,
      "ems": 1386,
      "Ġimportant": 1387,
      "Ġseven": 1388,
      "here": 1389,
      "Ġgame": 1390,
      "Ġev": 1391,
      "Ġmusic": 1392,
      "Ġfig": 1393,
      "Ġemp": 1394,
      "Ġrele": 1395,
      "urg": 1396,
      "Ġrepresent": 1397,
      "Ġfollow": 1398,
      "Ġseries": 1399,
      "Ġgone": 1400,
      "ury": 1401,
      "velop": 1402,
      "ley": 1403,
      "Ġnovember": 1404,
      "Ġbrit": 1405,
      "Ġblack": 1406,
      "Ġgovernment": 1407,
      "Ġhard": 1408,
      "Ġsal": 1409,
      "Ġtrans": 1410,
      "because": 1411,
      "Ġcase": 1412,
      "fer": 1413,
      "Ġpass": 1414,
      "ife": 1415,
      "Ġter": 1416,
      "rop": 1417,
      "alth": 1418,
      "Ġhum": 1419,
      "Ġsaw": 1420,
      "ness": 1421,
      "ream": 1422,
      "Ġwin": 1423,
      "Ġlangu": 1424,
      "Ġnear": 1425,
      "Ġvill": 1426,
      "Ġbas": 1427,
      "Ġgl": 1428,
      "new": 1429,
      "wards": 1430,
      "ats": 1431,
      "Ġeast": 1432,
      "Ġland": 1433,
      "Ġart": 1434,
      "Ġprot": 1435,
      "ned": 1436,
      "Ġtop": 1437,
      "Ġmark": 1438,
      "hi": 1439,
      "ze": 1440,
      "ield": 1441,
      "Ġinterest": 1442,
      "Ġcut": 1443,
      "eter": 1444,
      "Ġreport": 1445,
      "Ġsyst": 1446,
      "ham": 1447,
      "Ġge": 1448,
      "Ġri": 1449,
      "thern": 1450,
      "zer": 1451,
      "Ġfrog": 1452,
      "Ġcor": 1453,
      "ator": 1454,
      "Ġalready": 1455,
      "Ġleg": 1456,
      "Ġwoman": 1457,
      "ines": 1458,
      "arr": 1459,
      "Ġdevelop": 1460,
      "ages": 1461,
      "Ġhist": 1462,
      "ange": 1463,
      "Ġbro": 1464,
      "000": 1465,
      "pa": 1466,
      "Ġworked": 1467,
      "Ġsomeone": 1468,
      "Ġben": 1469,
      "Ġrest": 1470,
      "ugust": 1471,
      "ograp": 1472,
      "aud": 1473,
      "Ġwalk": 1474,
      "Ġve": 1475,
      "Ġroom": 1476,
      "Ġpat": 1477,
      "Ġwhole": 1478,
      "Ġswit": 1479,
      "atic": 1480,
      "vious": 1481,
      "Ġthough": 1482,
      "mhm": 1483,
      "hes": 1484,
      "raz": 1485,
      "Ġsou": 1486,
      "ount": 1487,
      "Ġdece": 1488,
      "ama": 1489,
      "Ġspeak": 1490,
      "Ġregion": 1491,
      "Ġtrying": 1492,
      "Ġyoun": 1493,
      "Ġwithout": 1494,
      "see": 1495,
      "Ġchange": 1496,
      "Ġ15": 1497,
      "Ġshort": 1498,
      "ster": 1499,
      "Ġconst": 1500,
      "Ġmeans": 1501,
      "Ġbir": 1502,
      "Ġsho": 1503,
      "ike": 1504,
      "Ġidea": 1505,
      "Ġyet": 1506,
      "Ġcountry": 1507,
      "Ġfine": 1508,
      "gram": 1509,
      "Ġlab": 1510,
      "Ġcertain": 1511,
      "Ġintern": 1512,
      "aper": 1513,
      "iet": 1514,
      "Ġfull": 1515,
      "Ġposs": 1516,
      "Ġnine": 1517,
      "ility": 1518,
      "Ġquestion": 1519,
      "min": 1520,
      "Ġchildren": 1521,
      "Ġmaybe": 1522,
      "aw": 1523,
      "lish": 1524,
      "may": 1525,
      "orrow": 1526,
      "Ġgi": 1527,
      "Ġval": 1528,
      "Ġcouncil": 1529,
      "Ġguy": 1530,
      "Ġsun": 1531,
      "sel": 1532,
      "Ġcouldn": 1533,
      "Ġboy": 1534,
      "Ġclear": 1535,
      "iter": 1536,
      "Ġpick": 1537,
      "ither": 1538,
      "Ġbab": 1539,
      "Ġfire": 1540,
      "Ġgoes": 1541,
      "ants": 1542,
      "Ġonce": 1543,
      "Ġta": 1544,
      "Ġreleased": 1545,
      "Ġgames": 1546,
      "ices": 1547,
      "Ġgrand": 1548,
      "bs": 1549,
      "ka": 1550,
      "led": 1551,
      "Ġclo": 1552,
      "ott": 1553,
      "Ġaugust": 1554,
      "Ġes": 1555,
      "Ġterm": 1556,
      "Ġdead": 1557,
      "ump": 1558,
      "Ġill": 1559,
      "Ġann": 1560,
      "Ġheart": 1561,
      "Ġwhite": 1562,
      "Ġcomes": 1563,
      "Ġ2016": 1564,
      "nes": 1565,
      "ying": 1566,
      "Ġvo": 1567,
      "Ġbrother": 1568,
      "ship": 1569,
      "Ġmillion": 1570,
      "Ġmaking": 1571,
      "Ġint": 1572,
      "Ġsupport": 1573,
      "Ġsum": 1574,
      "Ġgotta": 1575,
      "hor": 1576,
      "Ġmic": 1577,
      "Ġmod": 1578,
      "ided": 1579,
      "Ġcompany": 1580,
      "Ġpopulation": 1581,
      "cha": 1582,
      "utes": 1583,
      "Ġlived": 1584,
      "Ġsir": 1585,
      "amed": 1586,
      "Ġbuild": 1587,
      "Ġread": 1588,
      "Ġdecember": 1589,
      "Ġest": 1590,
      "anna": 1591,
      "ized": 1592,
      "like": 1593,
      "Ġexpl": 1594,
      "ones": 1595,
      "Ġmid": 1596,
      "ey": 1597,
      "Ġsecret": 1598,
      "Ġdra": 1599,
      "Ġjune": 1600,
      "Ġable": 1601,
      "cient": 1602,
      "Ġprofess": 1603,
      "gin": 1604,
      "cle": 1605,
      "port": 1606,
      "with": 1607,
      "Ġtelevision": 1608,
      "mb": 1609,
      "ino": 1610,
      "ium": 1611,
      "sw": 1612,
      "Ġalright": 1613,
      "af": 1614,
      "some": 1615,
      "ana": 1616,
      "most": 1617,
      "Ġbed": 1618,
      "Ġdemo": 1619,
      "Ġalong": 1620,
      "Ġthank": 1621,
      "Ġchampions": 1622,
      "Ġdemocr": 1623,
      "Ġwest": 1624,
      "Ġeuro": 1625,
      "Ġseason": 1626,
      "please": 1627,
      "Ġoper": 1628,
      "Ġfore": 1629,
      "arch": 1630,
      "ament": 1631,
      "Ġcou": 1632,
      "Ġhope": 1633,
      "bert": 1634,
      "Ġcheck": 1635,
      "ung": 1636,
      "Ġago": 1637,
      "gy": 1638,
      "inc": 1639,
      "ison": 1640,
      "Ġiss": 1641,
      "ention": 1642,
      "Ġbring": 1643,
      "Ġdisc": 1644,
      "Ġ-": 1645,
      "Ġless": 1646,
      "Ġexam": 1647,
      "Ġthirty": 1648,
      "fl": 1649,
      "was": 1650,
      "Ġgeneral": 1651,
      "cc": 1652,
      "dy": 1653,
      "Ġcant": 1654,
      "aint": 1655,
      "Ġsystem": 1656,
      "Ġtra": 1657,
      "Ġpolice": 1658,
      "Ġcamp": 1659,
      "Ġfilm": 1660,
      "Ġmag": 1661,
      "Ġprogram": 1662,
      "every": 1663,
      "tr": 1664,
      "Ġflo": 1665,
      "Ġnet": 1666,
      "Ġvar": 1667,
      "app": 1668,
      "Ġtrain": 1669,
      "Ġunion": 1670,
      "Ġgreen": 1671,
      "Ġ]": 1672,
      "Ġdou": 1673,
      "ency": 1674,
      "ature": 1675,
      "Ġstre": 1676,
      "Ġ16": 1677,
      "rench": 1678,
      "Ġservice": 1679,
      "Ġrom": 1680,
      "anc": 1681,
      "jo": 1682,
      "Ġyourself": 1683,
      "less": 1684,
      "Ġheard": 1685,
      "Ġfront": 1686,
      "Ġmatter": 1687,
      "Ġpie": 1688,
      "Ġdeal": 1689,
      "Ġmajor": 1690,
      "Ġreason": 1691,
      "ctor": 1692,
      "Ġjack": 1693,
      "Ġorder": 1694,
      "Ġ12": 1695,
      "ural": 1696,
      "Ġhold": 1697,
      "Ġequ": 1698,
      "Ġ192": 1699,
      "Ġanyway": 1700,
      "Ġclass": 1701,
      "teen": 1702,
      "Ġclub": 1703,
      "Ġlanguage": 1704,
      "ode": 1705,
      "Ġalb": 1706,
      "Ġrepubl": 1707,
      "Ġguys": 1708,
      "Ġminister": 1709,
      "sc": 1710,
      "uk": 1711,
      "Ġfight": 1712,
      "used": 1713,
      "Ġcongress": 1714,
      "Ġcho": 1715,
      "Ġenglish": 1716,
      "haps": 1717,
      "Ġcost": 1718,
      "Ġhell": 1719,
      "Ġcontro": 1720,
      "zerland": 1721,
      "got": 1722,
      "ient": 1723,
      "mas": 1724,
      "Ġdet": 1725,
      "ised": 1726,
      "Ġexper": 1727,
      "Ġchair": 1728,
      "Ġswitzerland": 1729,
      "Ġwithin": 1730,
      "Ġmanag": 1731,
      "Ġstuff": 1732,
      "Ġcommit": 1733,
      "Ġmembers": 1734,
      "Ġtak": 1735,
      "Ġwanna": 1736,
      "Ġpower": 1737,
      "Ġlost": 1738,
      "ford": 1739,
      "ges": 1740,
      "Ġpos": 1741,
      "Ġline": 1742,
      "Ġevent": 1743,
      "Ġoffice": 1744,
      "Ġpark": 1745,
      "Ġgiven": 1746,
      "uation": 1747,
      "Ġaust": 1748,
      "Ġport": 1749,
      "Ġlate": 1750,
      "Ġoften": 1751,
      "Ġasked": 1752,
      "Ġaw": 1753,
      "Ġisland": 1754,
      "Ġshop": 1755,
      "Ġ2017": 1756,
      "Ġprom": 1757,
      "Ġminute": 1758,
      "Ġspecial": 1759,
      "estern": 1760,
      "Ġrad": 1761,
      "Ġton": 1762,
      "Ġcop": 1763,
      "ane": 1764,
      "igin": 1765,
      "Ġdog": 1766,
      "Ġsomebody": 1767,
      "cos": 1768,
      "den": 1769,
      "Ġsent": 1770,
      "Ġir": 1771,
      "Ġ11": 1772,
      "Ġhur": 1773,
      "ric": 1774,
      "Ġmakes": 1775,
      "Ġbecome": 1776,
      "Ġfrench": 1777,
      "Ġleast": 1778,
      "Ġbritish": 1779,
      "Ġswe": 1780,
      "Ġlives": 1781,
      "ches": 1782,
      "Ġpublic": 1783,
      "Ġpen": 1784,
      "Ġpartic": 1785,
      "Ġformer": 1786,
      "Ġhot": 1787,
      "Ġbreak": 1788,
      "Ġface": 1789,
      "ribut": 1790,
      "Ġlisten": 1791,
      "aut": 1792,
      "burg": 1793,
      "aye": 1794,
      "Ġelection": 1795,
      "ughter": 1796,
      "ically": 1797,
      "Ġeat": 1798,
      "Ġlos": 1799,
      "va": 1800,
      "Ġknew": 1801,
      "Ġ2018": 1802,
      "urs": 1803,
      "ef": 1804,
      "Ġband": 1805,
      "Ġfood": 1806,
      "Ġpret": 1807,
      "Ġphone": 1808,
      "Ġchampionship": 1809,
      "Ġliving": 1810,
      "Ġdel": 1811,
      "actly": 1812,
      "ii": 1813,
      "Ġhon": 1814,
      "Ġrock": 1815,
      "ology": 1816,
      "elt": 1817,
      "\")": 1818,
      "Ġx": 1819,
      "ging": 1820,
      "mr": 1821,
      "Ġmer": 1822,
      "Ġrather": 1823,
      "Ġwants": 1824,
      "Ġeurope": 1825,
      "Ġsol": 1826,
      "Ġbaby": 1827,
      "17": 1828,
      "Ġap": 1829,
      "Ġdam": 1830,
      "Ġpast": 1831,
      "lly": 1832,
      "Ġdoor": 1833,
      "ately": 1834,
      "Ġlocal": 1835,
      "Ġfree": 1836,
      "sy": 1837,
      "Ġber": 1838,
      "Ġcommunity": 1839,
      "Ġyoung": 1840,
      "men": 1841,
      "Ġwatch": 1842,
      "Ġital": 1843,
      "gu": 1844,
      "Ġgave": 1845,
      "Ġhealth": 1846,
      "Ġcontin": 1847,
      "Ġwife": 1848,
      "Ġcens": 1849,
      "Ġcharac": 1850,
      "Ġspec": 1851,
      "Ġaward": 1852,
      "Ġeither": 1853,
      "ondon": 1854,
      "Ġleague": 1855,
      "Ġrequ": 1856,
      "Ġrid": 1857,
      "Ġcareer": 1858,
      "Ġattack": 1859,
      "key": 1860,
      "Ġorigin": 1861,
      "Ġvillage": 1862,
      "acy": 1863,
      "Ġtest": 1864,
      "hen": 1865,
      "Ġball": 1866,
      "Ġbody": 1867,
      "osp": 1868,
      "really": 1869,
      "Ġ()": 1870,
      "Ġwhether": 1871,
      "Ġ30": 1872,
      "Ġclose": 1873,
      "Ġparticular": 1874,
      "Ġinform": 1875,
      "Ġcanad": 1876,
      "Ġminutes": 1877,
      "Ġdrink": 1878,
      "Ġproblems": 1879,
      "ract": 1880,
      "Ġbill": 1881,
      "Ġhey": 1882,
      "Ġninety": 1883,
      "Ġef": 1884,
      "Ġactiv": 1885,
      "selves": 1886,
      "Ġcanton": 1887,
      "ique": 1888,
      "Ġmot": 1889,
      "Ġep": 1890,
      "Ġrece": 1891,
      "Ġ14": 1892,
      "Ġthinking": 1893,
      "ney": 1894,
      "Ġtomorrow": 1895,
      "viously": 1896,
      "Ġones": 1897,
      "Ġgets": 1898,
      "Ġinvest": 1899,
      "Ġgermany": 1900,
      "Ġcensus": 1901,
      "Ġtot": 1902,
      "Ġauthor": 1903,
      "hello": 1904,
      "Ġfair": 1905,
      "Ġ13": 1906,
      "ries": 1907,
      "Ġlear": 1908,
      "Ġcompet": 1909,
      "Ġexpect": 1910,
      "Ġkilled": 1911,
      "Ġav": 1912,
      "Ġsu": 1913,
      "Ġstar": 1914,
      "chn": 1915,
      "ourn": 1916,
      "Ġtrue": 1917,
      "Ġquick": 1918,
      "Ġriver": 1919,
      "Ġeffect": 1920,
      "Ġbased": 1921,
      "omin": 1922,
      "ura": 1923,
      "Ġgeor": 1924,
      "Ġpress": 1925,
      "Ġref": 1926,
      "Ġsoon": 1927,
      "Ġlevel": 1928,
      "uced": 1929,
      "Ġthird": 1930,
      "more": 1931,
      "ering": 1932,
      "Ġnamed": 1933,
      "ots": 1934,
      "itten": 1935,
      "Ġtaking": 1936,
      "wel": 1937,
      "maybe": 1938,
      "work": 1939,
      "Ġlondon": 1940,
      "ief": 1941,
      "tee": 1942,
      "Ġcomple": 1943,
      "Ġhuman": 1944,
      "Ġtonight": 1945,
      "Ġheld": 1946,
      "rod": 1947,
      "Ġaren": 1948,
      "which": 1949,
      "Ġsuc": 1950,
      "Ġ2014": 1951,
      "Ġperform": 1952,
      "Ġphil": 1953,
      "mar": 1954,
      "Ġhor": 1955,
      "Ġsug": 1956,
      "ush": 1957,
      "Ġworks": 1958,
      "bi": 1959,
      "Ġmur": 1960,
      "Ġfall": 1961,
      "Ġdie": 1962,
      "Ġdirected": 1963,
      "Ġinternational": 1964,
      "sorry": 1965,
      "Ġmm": 1966,
      "uction": 1967,
      "uce": 1968,
      "Ġansw": 1969,
      "Ġvis": 1970,
      "Ġmarried": 1971,
      "Ġprovince": 1972,
      "Ġprotect": 1973,
      "Ġstreet": 1974,
      "Ġtaken": 1975,
      "cri": 1976,
      "ards": 1977,
      "Ġaged": 1978,
      "ension": 1979,
      "Ġhappy": 1980,
      "Ġmeeting": 1981,
      "Ġreturn": 1982,
      "cuse": 1983,
      "ms": 1984,
      "Ġbat": 1985,
      "Ġbegan": 1986,
      "Ġeverybody": 1987,
      "Ġwonder": 1988,
      "Ġgold": 1989,
      "Ġ(\"": 1990,
      "Ġmoved": 1991,
      "Ġplaying": 1992,
      "Ġguess": 1993,
      "chan": 1994,
      "Ġhat": 1995,
      "ata": 1996,
      "rian": 1997,
      "aces": 1998,
      "Ġbuy": 1999,
      "Ġearly": 2000,
      "Ġcouple": 2001,
      "ÌĢ": 2002,
      "Ġmad": 2003,
      "Ġvi": 2004,
      "ched": 2005,
      "Ġpresent": 2006,
      "Ġocc": 2007,
      "par": 2008,
      "Ġpaper": 2009,
      "ilt": 2010,
      "Ġarmy": 2011,
      "Ġcapital": 2012,
      "Ġpict": 2013,
      "ction": 2014,
      "Ġadv": 2015,
      "thanks": 2016,
      "Ġlarge": 2017,
      "Ġhours": 2018,
      "bye": 2019,
      "fic": 2020,
      "iam": 2021,
      "Ġsound": 2022,
      "Ġseem": 2023,
      "soci": 2024,
      "Ġcreated": 2025,
      "sha": 2026,
      "Ġstra": 2027,
      "Ġresult": 2028,
      "ography": 2029,
      "ya": 2030,
      "Ġele": 2031,
      "Ġstory": 2032,
      "Ġalbum": 2033,
      "band": 2034,
      "sol": 2035,
      "Ġdav": 2036,
      "ories": 2037,
      "ald": 2038,
      "Ġfriends": 2039,
      "Ġalone": 2040,
      "lling": 2041,
      "Ġwhatever": 2042,
      "ape": 2043,
      "Ġusually": 2044,
      "cut": 2045,
      "Ġready": 2046,
      "ima": 2047,
      "iforn": 2048,
      "Ġworry": 2049,
      "gre": 2050,
      "Ġtem": 2051,
      "head": 2052,
      "Ġsqu": 2053,
      "Ġsister": 2054,
      "Ġfre": 2055,
      "Ġvie": 2056,
      "Ġtechn": 2057,
      "Ġchance": 2058,
      "Ġpretty": 2059,
      "Ġhosp": 2060,
      "Ġmonths": 2061,
      "ured": 2062,
      "Ġsat": 2063,
      "Ġbud": 2064,
      "Ġopp": 2065,
      "iting": 2066,
      "Ġmyself": 2067,
      "Ġeduc": 2068,
      "Ġcat": 2069,
      "Ġlou": 2070,
      "olution": 2071,
      "ived": 2072,
      "Ġplayer": 2073,
      "Ġpolic": 2074,
      "Ġcurrent": 2075,
      "ifornia": 2076,
      "rain": 2077,
      "Ġem": 2078,
      "Ġconcer": 2079,
      "Ġpost": 2080,
      "Ġwritten": 2081,
      "Ġwestern": 2082,
      "hael": 2083,
      "Ġdream": 2084,
      "Ġsold": 2085,
      "Ġwords": 2086,
      "Ġanim": 2087,
      "isse": 2088,
      "ico": 2089,
      "Ġbeaut": 2090,
      "Ġinvol": 2091,
      "Ġmoment": 2092,
      "Ġtype": 2093,
      "Ġim": 2094,
      "Ġfifty": 2095,
      "oint": 2096,
      "yed": 2097,
      "Ġpal": 2098,
      "Ġruss": 2099,
      "Ġcrit": 2100,
      "Ġgirls": 2101,
      "nel": 2102,
      "Ġdin": 2103,
      "iving": 2104,
      "Ġindian": 2105,
      "ler": 2106,
      "aster": 2107,
      "Ġassoci": 2108,
      "Ġlooks": 2109,
      "med": 2110,
      "Ġver": 2111,
      "Ġsituation": 2112,
      "conom": 2113,
      "Ġdaughter": 2114,
      "Ġcy": 2115,
      "ude": 2116,
      "Ġ2011": 2117,
      "Ġhistory": 2118,
      "after": 2119,
      "Ġview": 2120,
      "por": 2121,
      "Ġcast": 2122,
      "adem": 2123,
      "ipp": 2124,
      "Ġaccept": 2125,
      "Ġgreater": 2126,
      "Ġcalifornia": 2127,
      "Ġcommittee": 2128,
      "would": 2129,
      "Ġain": 2130,
      "Ġimm": 2131,
      "Ġ25": 2132,
      "Ġhowever": 2133,
      "Ġsometimes": 2134,
      "Ġdesign": 2135,
      "Ġincre": 2136,
      "Ġexample": 2137,
      "vill": 2138,
      "Ġmine": 2139,
      "Ġperhaps": 2140,
      "iod": 2141,
      "Ġsle": 2142,
      "eth": 2143,
      "Ġnews": 2144,
      "Ġpolitical": 2145,
      "Ġwindows": 2146,
      "Ġsan": 2147,
      "Ġsend": 2148,
      "Ġmess": 2149,
      "Ġstation": 2150,
      "Ġvaud": 2151,
      "Ġexactly": 2152,
      "Ġbur": 2153,
      "Ġhit": 2154,
      "time": 2155,
      "Ġ...": 2156,
      "Ġcourt": 2157,
      "gen": 2158,
      "ov": 2159,
      "ming": 2160,
      "Ġpounds": 2161,
      "Ġ23": 2162,
      "Ġalmost": 2163,
      "Ġsocial": 2164,
      "Ġusing": 2165,
      "Ġproper": 2166,
      "Ġfigure": 2167,
      "dle": 2168,
      "rew": 2169,
      "Ġhall": 2170,
      "idence": 2171,
      "istr": 2172,
      "Ġallow": 2173,
      "ij": 2174,
      "mon": 2175,
      "wait": 2176,
      "ern": 2177,
      "Ġdate": 2178,
      "Ġins": 2179,
      "Ġasian": 2180,
      "oles": 2181,
      "Ġvict": 2182,
      "Ġrights": 2183,
      "Ġrole": 2184,
      "ondisse": 2185,
      "Ġacross": 2186,
      "Ġfucking": 2187,
      "âĢĻ": 2188,
      "Ġrunning": 2189,
      "Ġbirth": 2190,
      "Ġ[": 2191,
      "Ġfur": 2192,
      "Ġnat": 2193,
      "Ġhen": 2194,
      "ety": 2195,
      "ified": 2196,
      "Ġnorm": 2197,
      "hind": 2198,
      "anger": 2199,
      "Ġhospital": 2200,
      "ior": 2201,
      "ooh": 2202,
      "ule": 2203,
      "Ġcas": 2204,
      "Ġdan": 2205,
      "str": 2206,
      "Ġ2012": 2207,
      "Ġ2015": 2208,
      "Ġdiv": 2209,
      "pro": 2210,
      "Ġgar": 2211,
      "iday": 2212,
      "Ġ24": 2213,
      "Ġcharacter": 2214,
      "ki": 2215,
      "Ġlim": 2216,
      "Ġeconom": 2217,
      "Ġbull": 2218,
      "ai": 2219,
      "gg": 2220,
      "Ġwish": 2221,
      "veral": 2222,
      "urch": 2223,
      "iful": 2224,
      "au": 2225,
      "Ġgas": 2226,
      "ference": 2227,
      "Ġdirector": 2228,
      "Ġcontrol": 2229,
      "give": 2230,
      "will": 2231,
      "Ġpan": 2232,
      "Ġneeds": 2233,
      "Ġchanged": 2234,
      "amer": 2235,
      "stop": 2236,
      "Ġ21": 2237,
      "Ġloire": 2238,
      "Ġ2013": 2239,
      "hard": 2240,
      "Ġpossible": 2241,
      "Ġ..": 2242,
      "Ġcir": 2243,
      "ides": 2244,
      "Ġdev": 2245,
      "itting": 2246,
      "ption": 2247,
      "Ġperiod": 2248,
      "Ġuk": 2249,
      "Ġdiffic": 2250,
      "Ġexplain": 2251,
      "Ġinformation": 2252,
      "list": 2253,
      "take": 2254,
      "Ġfa": 2255,
      "Ġobject": 2256,
      "bit": 2257,
      "Ġfly": 2258,
      "Ġproject": 2259,
      "Ġafr": 2260,
      "Ġsuper": 2261,
      "Ġinside": 2262,
      "Ġforce": 2263,
      "Ġmex": 2264,
      "Ġsex": 2265,
      "Ġpercent": 2266,
      "Ġkids": 2267,
      "Ġnineteen": 2268,
      "Ġsummer": 2269,
      "Ġpur": 2270,
      "Ġuh": 2271,
      "Ġgovernor": 2272,
      "solute": 2273,
      "Ġvir": 2274,
      "Ġanyone": 2275,
      "Ġcommon": 2276,
      "ï¿½ï¿½ï¿½ï¿½": 2277,
      "unt": 2278,
      "Ġdoctor": 2279,
      "Ġactor": 2280,
      "Ġcolle": 2281,
      "Ġincluding": 2282,
      "Ġanswer": 2283,
      "aign": 2284,
      "off": 2285,
      "Ġcover": 2286,
      "Ġothers": 2287,
      "Ġcentury": 2288,
      "Ġannoun": 2289,
      "Ġbought": 2290,
      "ene": 2291,
      "Ġacadem": 2292,
      "Ġserious": 2293,
      "Ġsupposed": 2294,
      "Ġgerman": 2295,
      "ffe": 2296,
      "Ġtou": 2297,
      "Ġsil": 2298,
      "Ġgun": 2299,
      "ula": 2300,
      "tell": 2301,
      "Ġadmin": 2302,
      "airs": 2303,
      "somet": 2304,
      "eder": 2305,
      "uture": 2306,
      "Ġsto": 2307,
      "Ġjoined": 2308,
      "hold": 2309,
      "Ġcollect": 2310,
      "Ġhus": 2311,
      "Ġwrote": 2312,
      "Ġpain": 2313,
      "Ġbehind": 2314,
      "ider": 2315,
      "Ġforward": 2316,
      "Ġseveral": 2317,
      "Ġeveryone": 2318,
      "Ġbuilt": 2319,
      "comm": 2320,
      "Ġmilit": 2321,
      "aha": 2322,
      "cum": 2323,
      "ÌĮ": 2324,
      "Ġmass": 2325,
      "eng": 2326,
      "Ġjud": 2327,
      "Ġpract": 2328,
      "dom": 2329,
      "ls": 2330,
      "Ġye": 2331,
      "urb": 2332,
      "Ġvide": 2333,
      "10": 2334,
      "Ġtree": 2335,
      "Ġhig": 2336,
      "Ġworth": 2337,
      "Ġconn": 2338,
      "ended": 2339,
      "raft": 2340,
      "Ġlooked": 2341,
      "Ġnorthern": 2342,
      "Ġsingle": 2343,
      "Ġstraight": 2344,
      "Ġweren": 2345,
      "Ġchurch": 2346,
      "view": 2347,
      "Ġchristmas": 2348,
      "ience": 2349,
      "ky": 2350,
      "pos": 2351,
      "Ġ$": 2352,
      "read": 2353,
      "Ġpot": 2354,
      "atives": 2355,
      "Ġjer": 2356,
      "Ġdear": 2357,
      "Ġknows": 2358,
      "Ġoutside": 2359,
      "two": 2360,
      "Ġcomplete": 2361,
      "Ġbor": 2362,
      "Ġrev": 2363,
      "Ġstri": 2364,
      "ste": 2365,
      "Ġspend": 2366,
      "ugh": 2367,
      "cher": 2368,
      "ding": 2369,
      "Ġvot": 2370,
      "Ġshit": 2371,
      "ement": 2372,
      "Ġengine": 2373,
      "je": 2374,
      "lic": 2375,
      "yn": 2376,
      "erv": 2377,
      "Ġstep": 2378,
      "Ġstars": 2379,
      "Ġanybody": 2380,
      "Ġcell": 2381,
      "18": 2382,
      "pes": 2383,
      "ti": 2384,
      "Ġmention": 2385,
      "Ġbox": 2386,
      "Ġamerica": 2387,
      "Ġorganiz": 2388,
      "Ġfield": 2389,
      "Ġdut": 2390,
      "orm": 2391,
      "omb": 2392,
      "Ġbrought": 2393,
      "Ġdistribut": 2394,
      "Ġappro": 2395,
      "Ġweeks": 2396,
      "Ġbeautiful": 2397,
      "Ġfuture": 2398,
      "lymp": 2399,
      "imate": 2400,
      "Ġquality": 2401,
      "Ġdance": 2402,
      "Ġsport": 2403,
      "Ġmanage": 2404,
      "Ġtrust": 2405,
      "Ġolymp": 2406,
      "ida": 2407,
      "unch": 2408,
      "Ġ2010": 2409,
      "Ġterr": 2410,
      "Ġdifficult": 2411,
      "lant": 2412,
      "ered": 2413,
      "Ġtable": 2414,
      "Ġpull": 2415,
      "vered": 2416,
      "Ġring": 2417,
      "Ġcond": 2418,
      "Ġsuppose": 2419,
      "Ġcampaign": 2420,
      "Ġhusband": 2421,
      "vir": 2422,
      "Ġsam": 2423,
      "Ġlow": 2424,
      "ully": 2425,
      "Ġconstit": 2426,
      "Ġepis": 2427,
      "Ġsuggest": 2428,
      "fort": 2429,
      "Ġmor": 2430,
      "ara": 2431,
      "Ġhair": 2432,
      "terday": 2433,
      "ians": 2434,
      "ording": 2435,
      "Ġeasy": 2436,
      "put": 2437,
      "cially": 2438,
      "Ġobviously": 2439,
      "Ġsouthern": 2440,
      "Ġdemocratic": 2441,
      "solutely": 2442,
      "ring": 2443,
      "Ġtrou": 2444,
      "Ġtelling": 2445,
      "Ġclean": 2446,
      "Ġdecis": 2447,
      "even": 2448,
      "yer": 2449,
      "Ġwood": 2450,
      "itive": 2451,
      "ota": 2452,
      "Ġ22": 2453,
      "Ġsecretary": 2454,
      "fo": 2455,
      "Ġbase": 2456,
      "Ġfem": 2457,
      "Ġden": 2458,
      "Ġhous": 2459,
      "does": 2460,
      "Ġstrong": 2461,
      "Ġpopular": 2462,
      "Ġcertainly": 2463,
      "Ġfav": 2464,
      "Ġfinished": 2465,
      "Ġstruct": 2466,
      "Ġsuccess": 2467,
      "bor": 2468,
      "miss": 2469,
      "Ġseat": 2470,
      "Ġ(;": 2471,
      "god": 2472,
      "hist": 2473,
      "Ġdar": 2474,
      "Ġjames": 2475,
      "Ġseems": 2476,
      "ilar": 2477,
      "Ġarr": 2478,
      "Ġfollowing": 2479,
      "vies": 2480,
      "ances": 2481,
      "Ġfund": 2482,
      "Ġdue": 2483,
      "Ġpeter": 2484,
      "itions": 2485,
      "Ġhy": 2486,
      "Ġbegin": 2487,
      "ently": 2488,
      "aced": 2489,
      "ades": 2490,
      "room": 2491,
      "umb": 2492,
      "Ġchief": 2493,
      "Ġgrow": 2494,
      "Ġlovely": 2495,
      "Ġgener": 2496,
      "Ġ27": 2497,
      "Ġselect": 2498,
      "Ġappear": 2499,
      "Ġearth": 2500,
      "bile": 2501,
      "ien": 2502,
      "Ġcomed": 2503,
      "Ġshall": 2504,
      "Ġcollege": 2505,
      "Ġtill": 2506,
      "Ġdinner": 2507,
      "Ġspain": 2508,
      "Ġperfect": 2509,
      "lt": 2510,
      "Ġah": 2511,
      "Ġmum": 2512,
      "Ġang": 2513,
      "uth": 2514,
      "Ġmovies": 2515,
      "Ġshut": 2516,
      "Ġtotal": 2517,
      "Ġsleep": 2518,
      "Ġadministr": 2519,
      "his": 2520,
      "Ġale": 2521,
      "Ġwall": 2522,
      "Ġlu": 2523,
      "Ġcarry": 2524,
      "Ġsettle": 2525,
      "Ġaccident": 2526,
      "Ġblood": 2527,
      "Ġissue": 2528,
      "Ġposition": 2529,
      "fuck": 2530,
      "pect": 2531,
      "Ġmart": 2532,
      "ask": 2533,
      "Ġactress": 2534,
      "ogn": 2535,
      "Ġnumbers": 2536,
      "Ġrespons": 2537,
      "Ġdevelopment": 2538,
      "Ġinvolved": 2539,
      "ondissement": 2540,
      "Ġciv": 2541,
      "Ġpound": 2542,
      "Ġpension": 2543,
      "Ġange": 2544,
      "Ġris": 2545,
      "unk": 2546,
      "Ġmem": 2547,
      "Ġsevent": 2548,
      "Ġcentral": 2549,
      "from": 2550,
      "Ġbuilding": 2551,
      "Ġradio": 2552,
      "ax": 2553,
      "Ġscient": 2554,
      "Ġdest": 2555,
      "Ġluck": 2556,
      "Ġeyes": 2557,
      "Ġstat": 2558,
      "Ġship": 2559,
      "Ġchairman": 2560,
      "Ġcult": 2561,
      "Ġ28": 2562,
      "though": 2563,
      "Ġcook": 2564,
      "lock": 2565,
      "epend": 2566,
      "Ġrepl": 2567,
      "Ġparent": 2568,
      "Ġmiddle": 2569,
      "aff": 2570,
      "bl": 2571,
      "lle": 2572,
      "about": 2573,
      "Ġarrest": 2574,
      "Ġprice": 2575,
      "Ġyesterday": 2576,
      "avy": 2577,
      "Ġvideo": 2578,
      "car": 2579,
      "dam": 2580,
      "Ġtakes": 2581,
      "Ġquar": 2582,
      "razil": 2583,
      "ove": 2584,
      "west": 2585,
      "Ġrese": 2586,
      "Ġran": 2587,
      "Ġgrad": 2588,
      "Ġpriv": 2589,
      "aim": 2590,
      "king": 2591,
      "po": 2592,
      "Ġnomin": 2593,
      "Ġdebut": 2594,
      "Ġmatch": 2595,
      "Ġident": 2596,
      "Ġmal": 2597,
      "Ġshouldn": 2598,
      "Ġindia": 2599,
      "Ġsinger": 2600,
      "razy": 2601,
      "welve": 2602,
      "gn": 2603,
      "ted": 2604,
      "wor": 2605,
      "Ġdark": 2606,
      "Ġthanks": 2607,
      "Ġlonger": 2608,
      "Ġfinal": 2609,
      "Ġdiscuss": 2610,
      "back": 2611,
      "ued": 2612,
      "Ġwil": 2613,
      "Ġsus": 2614,
      "ann": 2615,
      "itch": 2616,
      "alright": 2617,
      "Ġhill": 2618,
      "Ġwilliam": 2619,
      "Ġblue": 2620,
      "Ġdecided": 2621,
      "Ġservices": 2622,
      "Ġhistor": 2623,
      "Ġmanager": 2624,
      "ville": 2625,
      "Ġtit": 2626,
      "Ġfort": 2627,
      "Ġdescri": 2628,
      "Ġitalian": 2629,
      "cus": 2630,
      "ially": 2631,
      "night": 2632,
      "Ġlady": 2633,
      "Ġstage": 2634,
      "Ġexe": 2635,
      "ressed": 2636,
      "Ġjapanese": 2637,
      "200": 2638,
      "yle": 2639,
      "Ġmach": 2640,
      "els": 2641,
      "Ġdavid": 2642,
      "Ġfurther": 2643,
      "listen": 2644,
      "Ġacademy": 2645,
      "Ġcivil": 2646,
      "cal": 2647,
      "Ġsn": 2648,
      "Ġbrazil": 2649,
      "Ġmi": 2650,
      "Ġmary": 2651,
      "aring": 2652,
      "Ġegg": 2653,
      "ained": 2654,
      "Ġteac": 2655,
      "Ġhappens": 2656,
      "Ġindust": 2657,
      "Ġkey": 2658,
      "Ġterms": 2659,
      "Ġsweet": 2660,
      "Ġreceived": 2661,
      "Ġforget": 2662,
      "Ġlie": 2663,
      "Ġcold": 2664,
      "Ġwrite": 2665,
      "Ġ2009": 2666,
      "ansas": 2667,
      "Ġtried": 2668,
      "Ġvoice": 2669,
      "cast": 2670,
      "vin": 2671,
      "oper": 2672,
      "Ġarg": 2673,
      "pecially": 2674,
      "Ġrecogn": 2675,
      "ibi": 2676,
      "Ġmichael": 2677,
      "Ġroman": 2678,
      "Ġhi": 2679,
      "ird": 2680,
      "Ġspace": 2681,
      "Ġtrack": 2682,
      "Ġindepend": 2683,
      "Ġproduct": 2684,
      "Ġkingdom": 2685,
      "Ġmarket": 2686,
      "Ġrul": 2687,
      "urity": 2688,
      "ival": 2689,
      "Ġsense": 2690,
      "Ġrepublican": 2691,
      "nd": 2692,
      "sir": 2693,
      "Ġvers": 2694,
      "ery": 2695,
      "Ġmult": 2696,
      "Ġdanger": 2697,
      "Ġlower": 2698,
      "Ġforty": 2699,
      "Ġengland": 2700,
      "Ġblock": 2701,
      "Ġlocated": 2702,
      "Ġfunny": 2703,
      "Ġextra": 2704,
      "Ġfigures": 2705,
      "Ġannounced": 2706,
      "za": 2707,
      "Ġfed": 2708,
      "Ġfill": 2709,
      "Ġgiving": 2710,
      "ander": 2711,
      "Ġfrank": 2712,
      "Ġagre": 2713,
      "Ġ2006": 2714,
      "Ġfifa": 2715,
      "Ġquestions": 2716,
      "Ġgeorge": 2717,
      "Ġconnect": 2718,
      "Ġtrouble": 2719,
      "bed": 2720,
      "sure": 2721,
      "Ġfail": 2722,
      "lled": 2723,
      "eared": 2724,
      "ago": 2725,
      "Ġqueen": 2726,
      "Ġofficial": 2727,
      "Ġmilitary": 2728,
      "15": 2729,
      "sa": 2730,
      "xas": 2731,
      "Ġcry": 2732,
      "Ġbal": 2733,
      "Ġnames": 2734,
      "Ġmobile": 2735,
      "Ġdraw": 2736,
      "Ġaustral": 2737,
      "Ġpolicy": 2738,
      "Ġtouch": 2739,
      "ron": 2740,
      "Ġbag": 2741,
      "Ġlad": 2742,
      "Ġareas": 2743,
      "Ġcentre": 2744,
      "Ġpaul": 2745,
      "fully": 2746,
      "john": 2747,
      "Ġtwelve": 2748,
      "only": 2749,
      "ita": 2750,
      "Ġsave": 2751,
      "Ġprime": 2752,
      "Ġsimilar": 2753,
      "Ġjean": 2754,
      "Ġimag": 2755,
      "16": 2756,
      "could": 2757,
      "van": 2758,
      "Ġtur": 2759,
      "ountain": 2760,
      "Ġground": 2761,
      "Ġcomput": 2762,
      "Ġ2008": 2763,
      "nothing": 2764,
      "Ġdefin": 2765,
      "kes": 2766,
      "Ġ--": 2767,
      "Ġsand": 2768,
      "Ġfelt": 2769,
      "upid": 2770,
      "Ġenvir": 2771,
      "Ġturned": 2772,
      "ko": 2773,
      "ĠâĢ": 2774,
      "Ġcrazy": 2775,
      "asure": 2776,
      "sey": 2777,
      "okia": 2778,
      "Ġvote": 2779,
      "Ġgroups": 2780,
      "Ġwaiting": 2781,
      "Ġukrain": 2782,
      "say": 2783,
      "ato": 2784,
      "Ġhol": 2785,
      "Ġsea": 2786,
      "Ġprocess": 2787,
      "Ġhimself": 2788,
      "Ġpaid": 2789,
      "excuse": 2790,
      "Ġbroad": 2791,
      "Ġcongressional": 2792,
      "hic": 2793,
      "oc": 2794,
      "Ġ29": 2795,
      "Ġyours": 2796,
      "Ġeighty": 2797,
      "yal": 2798,
      "Ġtourn": 2799,
      "Ġcross": 2800,
      "Ġya": 2801,
      "Ġric": 2802,
      "ached": 2803,
      "Ġboys": 2804,
      "Ġenviron": 2805,
      "30": 2806,
      "ek": 2807,
      "field": 2808,
      "Ġcust": 2809,
      "Ġfast": 2810,
      "ains": 2811,
      "Ġalthough": 2812,
      "Ġvan": 2813,
      "Ġprim": 2814,
      "Ġserved": 2815,
      "coming": 2816,
      "Ġterri": 2817,
      "Ġrequire": 2818,
      "tom": 2819,
      "wr": 2820,
      "Ġlat": 2821,
      "idge": 2822,
      "raid": 2823,
      "Ġagree": 2824,
      "Ġpoor": 2825,
      "lier": 2826,
      "Ġintrod": 2827,
      "Ġeuropean": 2828,
      "Ġinvestig": 2829,
      "history": 2830,
      "Ġexecut": 2831,
      "**": 2832,
      "dad": 2833,
      "ona": 2834,
      "Ġbank": 2835,
      "Ġbott": 2836,
      "lla": 2837,
      "Ġgra": 2838,
      "Ġnon": 2839,
      "Ġkit": 2840,
      "Ġnobody": 2841,
      "move": 2842,
      "Ġparli": 2843,
      "Ġenvironment": 2844,
      "uel": 2845,
      "Ġcorn": 2846,
      "uts": 2847,
      "Ġmeant": 2848,
      "Ġcancer": 2849,
      "ume": 2850,
      "Ġtexas": 2851,
      "ffee": 2852,
      "da": 2853,
      "gar": 2854,
      "lin": 2855,
      "vi": 2856,
      "Ġfile": 2857,
      "Ġ26": 2858,
      "hang": 2859,
      "Ġtrade": 2860,
      "Ġdrama": 2861,
      "Ġprofessor": 2862,
      "Ġrepublic": 2863,
      "Ġparents": 2864,
      "ping": 2865,
      "Ġ#": 2866,
      "Ġtea": 2867,
      "Ġmc": 2868,
      "ense": 2869,
      "chie": 2870,
      "oph": 2871,
      "berg": 2872,
      "Ġspan": 2873,
      "Ġamong": 2874,
      "Ġdisapp": 2875,
      "Ġcaused": 2876,
      "Ġtreat": 2877,
      "Ġdrive": 2878,
      "Ġcand": 2879,
      "asons": 2880,
      "Ġjul": 2881,
      "keep": 2882,
      "Ġsell": 2883,
      "Ġvol": 2884,
      "Ġsomewhere": 2885,
      "Ġbrown": 2886,
      "Ġsecurity": 2887,
      "Ġprem": 2888,
      "fin": 2889,
      "Ġfit": 2890,
      "amb": 2891,
      "these": 2892,
      "Ġdeb": 2893,
      "Ġpoet": 2894,
      "Ġinclude": 2895,
      "Ġoriginal": 2896,
      "Ġcanada": 2897,
      "craft": 2898,
      "uit": 2899,
      "ination": 2900,
      "Ġfish": 2901,
      "edi": 2902,
      "Ġstick": 2903,
      "Ġnecess": 2904,
      "Ġrob": 2905,
      "ivid": 2906,
      "Ġleaving": 2907,
      "Ġsurpr": 2908,
      "Ġavail": 2909,
      "Ġbirthday": 2910,
      "Ġparliament": 2911,
      "ires": 2912,
      "ray": 2913,
      "rem": 2914,
      "Ġdro": 2915,
      "Ġancient": 2916,
      "Ġyouth": 2917,
      "Ġmoving": 2918,
      "Ġparts": 2919,
      "Ġaction": 2920,
      "ression": 2921,
      "Ġhands": 2922,
      "Ġenter": 2923,
      "Ġprofessional": 2924,
      "Ġeducation": 2925,
      "Ġcro": 2926,
      "Ġburn": 2927,
      "Ġple": 2928,
      "Ġself": 2929,
      "urday": 2930,
      "ify": 2931,
      "Ġafraid": 2932,
      "Ġrecords": 2933,
      "Ġshoot": 2934,
      "Ġtax": 2935,
      "Ġlearn": 2936,
      "light": 2937,
      "wood": 2938,
      "Ġcard": 2939,
      "Ġpack": 2940,
      "Ġhom": 2941,
      "Ġtrad": 2942,
      "Ġtrump": 2943,
      "ept": 2944,
      "Ġhost": 2945,
      "Ġentire": 2946,
      "Ġemplo": 2947,
      "Ġquickly": 2948,
      "Ġtournament": 2949,
      "ead": 2950,
      "Ġsci": 2951,
      "Ġii": 2952,
      "Ġstupid": 2953,
      "Ġspread": 2954,
      "Ġclos": 2955,
      "Ġcenter": 2956,
      "cul": 2957,
      "ja": 2958,
      "oo": 2959,
      "Ġwal": 2960,
      "Ġmountain": 2961,
      "Ġinsp": 2962,
      "Ġinfl": 2963,
      "Ġjose": 2964,
      "ria": 2965,
      "Ġ2004": 2966,
      "Ġstarting": 2967,
      "reat": 2968,
      "Ġcomb": 2969,
      "Ġcoffee": 2970,
      "Ġchina": 2971,
      "Ġphot": 2972,
      "Ġvarious": 2973,
      "dr": 2974,
      "ius": 2975,
      "uge": 2976,
      "Ġahead": 2977,
      "Ġled": 2978,
      "Ġhuh": 2979,
      "Ġrefer": 2980,
      "Ġabove": 2981,
      "Ġrobert": 2982,
      "Ġappoint": 2983,
      "Ġcountries": 2984,
      "Ġelected": 2985,
      "Ġproduc": 2986,
      "din": 2987,
      "line": 2988,
      "has": 2989,
      "Ġcab": 2990,
      "Ġox": 2991,
      "Ġpra": 2992,
      "Ġnokia": 2993,
      "Ġemer": 2994,
      "Ġ2003": 2995,
      "Ġletter": 2996,
      "Ġasking": 2997,
      "inois": 2998,
      "Ġavailable": 2999,
      "sm": 3000,
      "Ġsar": 3001,
      "Ġooh": 3002,
      "itor": 3003,
      "ising": 3004,
      "Ġ100": 3005,
      "three": 3006,
      "riend": 3007,
      "Ġhasn": 3008,
      "Ġclaim": 3009,
      "Ġpersonal": 3010,
      "Ġpublished": 3011,
      "Ġbooks": 3012,
      "Ġrussian": 3013,
      "rer": 3014,
      "Ġpsy": 3015,
      "Ġhello": 3016,
      "ental": 3017,
      "ift": 3018,
      "Ġplaces": 3019,
      "Ġtruth": 3020,
      "Ġ2005": 3021,
      "Ġhappening": 3022,
      "Ġdifference": 3023,
      "Ġtv": 3024,
      "Ġmater": 3025,
      "inger": 3026,
      "Ġneigh": 3027,
      "Ġfeeling": 3028,
      "Ġstanding": 3029,
      "Ġinstead": 3030,
      "Ġepisode": 3031,
      "mic": 3032,
      "Ġet": 3033,
      "Ġmist": 3034,
      "Ġitself": 3035,
      "ili": 3036,
      "aged": 3037,
      "itted": 3038,
      "ensive": 3039,
      "Ġteams": 3040,
      "Ġrelig": 3041,
      "Ġnormal": 3042,
      "bour": 3043,
      "bel": 3044,
      "jack": 3045,
      "ored": 3046,
      "val": 3047,
      "Ġthemselves": 3048,
      "Ġended": 3049,
      "Ġrespect": 3050,
      "Ġdistributed": 3051,
      "Ġfemale": 3052,
      "Ġselected": 3053,
      "Ġresearch": 3054,
      "ared": 3055,
      "bet": 3056,
      "over": 3057,
      "pose": 3058,
      "anch": 3059,
      "ability": 3060,
      "Ġparticip": 3061,
      "Ġdisco": 3062,
      "Ġmax": 3063,
      "des": 3064,
      "ÌĤ": 3065,
      "Ġut": 3066,
      "Ġstaff": 3067,
      "theast": 3068,
      "Ġchin": 3069,
      "idered": 3070,
      "Ġ2007": 3071,
      "Ġchannel": 3072,
      "ners": 3073,
      "sur": 3074,
      "Ġsme": 3075,
      "Ġbra": 3076,
      "ancy": 3077,
      "Ġod": 3078,
      "Ġrain": 3079,
      "aker": 3080,
      "Ġboard": 3081,
      "Ġmayor": 3082,
      "Ġshare": 3083,
      "ibility": 3084,
      "Ġcolor": 3085,
      "Ġlargest": 3086,
      "Ġevidence": 3087,
      "Ġhate": 3088,
      "Ġassociation": 3089,
      "Ġolympics": 3090,
      "Ġalex": 3091,
      "Ġpsych": 3092,
      "50": 3093,
      "ken": 3094,
      "mit": 3095,
      "ob": 3096,
      "Ìĥ": 3097,
      "Ġide": 3098,
      "Ġhero": 3099,
      "Ġrace": 3100,
      "Ġkept": 3101,
      "Ġdecl": 3102,
      "Ġclot": 3103,
      "Ġindivid": 3104,
      "Ġgodd": 3105,
      "Ġconsidered": 3106,
      "Ġrepresentatives": 3107,
      "Ġillinois": 3108,
      "Ġstructure": 3109,
      "col": 3110,
      "Ġpet": 3111,
      "Ġpage": 3112,
      "verage": 3113,
      "Ġvall": 3114,
      "people": 3115,
      "Ġphys": 3116,
      "Ġconfeder": 3117,
      "Ġclearly": 3118,
      "Ġprogramme": 3119,
      "Ġcycl": 3120,
      "Ġluc": 3121,
      "igan": 3122,
      "illy": 3123,
      "Ġamount": 3124,
      "Ġprison": 3125,
      "Ġimpro": 3126,
      "Ġ186": 3127,
      "Ġpoints": 3128,
      "Ġexperience": 3129,
      "Ġtar": 3130,
      "Ġawards": 3131,
      "Ġsaint": 3132,
      "urance": 3133,
      "Ġsoci": 3134,
      "Ġfounded": 3135,
      "arrondissement": 3136,
      "Ġsaturday": 3137,
      "Ġallowed": 3138,
      "ga": 3139,
      "Ġhop": 3140,
      "Ġkiss": 3141,
      "Ġlose": 3142,
      "Ġenjo": 3143,
      "itei": 3144,
      "Ġ31": 3145,
      "Ġrelation": 3146,
      "Ġdecision": 3147,
      "Ġcomedy": 3148,
      "clock": 3149,
      "Ġtony": 3150,
      "Ġsitting": 3151,
      "ids": 3152,
      "Ġkansas": 3153,
      "Ġstan": 3154,
      "ston": 3155,
      "Ġtext": 3156,
      "astic": 3157,
      "Ġdivision": 3158,
      "Ġcontract": 3159,
      "Ġdrug": 3160,
      "Ġleader": 3161,
      "Ġinterested": 3162,
      "Ġpiece": 3163,
      "Ġhurt": 3164,
      "Ġpictures": 3165,
      "call": 3166,
      "first": 3167,
      "iers": 3168,
      "lor": 3169,
      "vo": 3170,
      "Ġtape": 3171,
      "Ġsize": 3172,
      "Ġbuck": 3173,
      "Ġbath": 3174,
      "Ġglo": 3175,
      "ays": 3176,
      "Ġjim": 3177,
      "Ġabsolutely": 3178,
      "Ġaff": 3179,
      "board": 3180,
      "ification": 3181,
      "Ġfloor": 3182,
      "Ġportug": 3183,
      "Ġrevolution": 3184,
      "mat": 3185,
      "Ġsud": 3186,
      "Ġsick": 3187,
      "Ġfac": 3188,
      "Ġgard": 3189,
      "Ġeye": 3190,
      "Ġrelease": 3191,
      "acc": 3192,
      "Ġfeet": 3193,
      "Ġcoach": 3194,
      "ffic": 3195,
      "Ġputting": 3196,
      "Ġevening": 3197,
      "Ġsixty": 3198,
      "Ġearlier": 3199,
      "Ġaircraft": 3200,
      "Ġdeveloped": 3201,
      "Ġbeginning": 3202,
      "gt": 3203,
      "Ġice": 3204,
      "ences": 3205,
      "Ġjobs": 3206,
      "Ġbattle": 3207,
      "Ġbudget": 3208,
      "Ġbottom": 3209,
      "know": 3210,
      "nor": 3211,
      "old": 3212,
      "uz": 3213,
      "Ġachie": 3214,
      "Ġmike": 3215,
      "Ġwel": 3216,
      "Ġroles": 3217,
      "imin": 3218,
      "Ġconference": 3219,
      "Ġaffect": 3220,
      "aves": 3221,
      "Ġparis": 3222,
      "Ġ1990": 3223,
      "Ġlawyer": 3224,
      "Ġbenef": 3225,
      "Ġespecially": 3226,
      "ds": 3227,
      "reen": 3228,
      "ert": 3229,
      "Ġban": 3230,
      "ises": 3231,
      "Ġnord": 3232,
      "iced": 3233,
      "Ġrac": 3234,
      "Ġsafe": 3235,
      "ission": 3236,
      "Ġ1994": 3237,
      "Ġmovement": 3238,
      "fran": 3239,
      "bre": 3240,
      "last": 3241,
      "set": 3242,
      "Ġba": 3243,
      "Ġlord": 3244,
      "ari": 3245,
      "aries": 3246,
      "ishing": 3247,
      "Ġbeat": 3248,
      "iding": 3249,
      "Ġmeitei": 3250,
      "olic": 3251,
      "Ġcoast": 3252,
      "Ġamaz": 3253,
      "Ġcarol": 3254,
      "Ġ2001": 3255,
      "Ġhelped": 3256,
      "Ġglad": 3257,
      "Ġteacher": 3258,
      "eed": 3259,
      "gal": 3260,
      "ser": 3261,
      "tt": 3262,
      "Ġmis": 3263,
      "Ġmich": 3264,
      "entle": 3265,
      "cel": 3266,
      "ilight": 3267,
      "Ġdeli": 3268,
      "Ġfell": 3269,
      "Ġcool": 3270,
      "itely": 3271,
      "199": 3272,
      "Ġfarm": 3273,
      "Ġcele": 3274,
      "biography": 3275,
      "Ġviol": 3276,
      "Ġhenry": 3277,
      "Ġaverage": 3278,
      "Ġbour": 3279,
      "Ġfest": 3280,
      "Ġcannot": 3281,
      "pped": 3282,
      "Ġarri": 3283,
      "Ġminor": 3284,
      "Ġmont": 3285,
      "Ġbloody": 3286,
      "Ġestab": 3287,
      "Ġmexico": 3288,
      "ris": 3289,
      "Ġur": 3290,
      "Ġsant": 3291,
      "Ġdun": 3292,
      "Ġwashing": 3293,
      "Ġweap": 3294,
      "Ġanymore": 3295,
      "Ġolder": 3296,
      "Ġbelong": 3297,
      "Ġcharge": 3298,
      "Ġmunicipal": 3299,
      "Ġmrs": 3300,
      "Ġofficer": 3301,
      "Ġsenate": 3302,
      "Ġmanagement": 3303,
      "Ġaye": 3304,
      "Ġtowards": 3305,
      "Ġlt": 3306,
      "Ġrub": 3307,
      "Ġrange": 3308,
      "irm": 3309,
      "Ġshot": 3310,
      "noon": 3311,
      "ugg": 3312,
      "ground": 3313,
      "Ġcause": 3314,
      "phone": 3315,
      "play": 3316,
      "Ġafrican": 3317,
      "Ġmentioned": 3318,
      "Ġnominated": 3319,
      "Ġcomputer": 3320,
      "Ġsmell": 3321,
      "bal": 3322,
      "Ġtha": 3323,
      "Ġtick": 3324,
      "reme": 3325,
      "Ġmir": 3326,
      "vey": 3327,
      "Ġrule": 3328,
      "under": 3329,
      "verse": 3330,
      "Ġdem": 3331,
      "Ġdeep": 3332,
      "nock": 3333,
      "Ġqual": 3334,
      "dered": 3335,
      "Ġshows": 3336,
      "Ġ1960": 3337,
      "Ġaccording": 3338,
      "Ġproduced": 3339,
      "Ġpays": 3340,
      "Ġlouis": 3341,
      "Ġincrease": 3342,
      "Ġsports": 3343,
      "12": 3344,
      "Ġbi": 3345,
      "Ġbow": 3346,
      "Ġfle": 3347,
      "esus": 3348,
      "atlant": 3349,
      "Ġexist": 3350,
      "Ġslow": 3351,
      "Ġinteresting": 3352,
      "Ġissues": 3353,
      "Ġdoubs": 3354,
      "zy": 3355,
      "Ġboss": 3356,
      "omas": 3357,
      "Ġneeded": 3358,
      "Ġstopped": 3359,
      "Ġlabour": 3360,
      "Ġesc": 3361,
      "gypt": 3362,
      "Ġsquare": 3363,
      "Ġhung": 3364,
      "Ġsepar": 3365,
      "ending": 3366,
      "Ġexcept": 3367,
      "Ġcooper": 3368,
      "Ġfinally": 3369,
      "Ġprotest": 3370,
      "Ġmodern": 3371,
      "Ġchoice": 3372,
      "Ġspecies": 3373,
      "Ġcompletely": 3374,
      "Ġprivate": 3375,
      "Ġcustom": 3376,
      "Ġspanish": 3377,
      "Ġcelebr": 3378,
      "mond": 3379,
      "turn": 3380,
      "wa": 3381,
      "Ġtal": 3382,
      "Ġwat": 3383,
      "rie": 3384,
      "Ġspent": 3385,
      "ipur": 3386,
      "Ġdise": 3387,
      "Ġformed": 3388,
      "Ġmedal": 3389,
      "Ġwonderful": 3390,
      "Ġpicture": 3391,
      "Ġterrit": 3392,
      "len": 3393,
      "rup": 3394,
      "Ġsounds": 3395,
      "Ġmouth": 3396,
      "ened": 3397,
      "Ġkm": 3398,
      "ada": 3399,
      "Ġdocum": 3400,
      "ceed": 3401,
      "uman": 3402,
      "ables": 3403,
      "Ġpresidential": 3404,
      "Ġmicro": 3405,
      "Ġtraining": 3406,
      "Ġcases": 3407,
      "Ġgradu": 3408,
      "Ġmichigan": 3409,
      "bes": 3410,
      "ns": 3411,
      "vid": 3412,
      "Ġken": 3413,
      "odes": 3414,
      "inkie": 3415,
      "Ġafternoon": 3416,
      "Ġeastern": 3417,
      ",...": 3418,
      "?\"": 3419,
      "house": 3420,
      "Ġcath": 3421,
      "Ġliter": 3422,
      "also": 3423,
      "Ġmel": 3424,
      "Ġarch": 3425,
      "Ġjoin": 3426,
      "Ġflat": 3427,
      "Ġconsider": 3428,
      "Ġnearly": 3429,
      "Ġvehic": 3430,
      "Ġmodel": 3431,
      "Ġnetwork": 3432,
      "bu": 3433,
      "Ġtour": 3434,
      "ergy": 3435,
      "Ġmac": 3436,
      "Ġdress": 3437,
      "Ġly": 3438,
      "arian": 3439,
      "Ġreach": 3440,
      "Ġko": 3441,
      "Ġsection": 3442,
      "ops": 3443,
      "istic": 3444,
      "ession": 3445,
      "Ġsax": 3446,
      "ardon": 3447,
      "Ġdial": 3448,
      "Ġcharl": 3449,
      "Ġfinan": 3450,
      "Ġincluded": 3451,
      "Ġmiles": 3452,
      "Ġretired": 3453,
      "Ġinstr": 3454,
      "Ġdriving": 3455,
      "Ġcurrently": 3456,
      "Ġnatural": 3457,
      "american": 3458,
      "Ġmachine": 3459,
      "Ġfederal": 3460,
      "14": 3461,
      "dra": 3462,
      "gog": 3463,
      "run": 3464,
      "Ġwed": 3465,
      "Ġsuff": 3466,
      "oud": 3467,
      "onom": 3468,
      "Ġbod": 3469,
      "Ġpers": 3470,
      "igr": 3471,
      "Ġrail": 3472,
      "Ġ2000": 3473,
      "Ġalive": 3474,
      "Ġworse": 3475,
      "Ġmatches": 3476,
      "Ġairport": 3477,
      "arring": 3478,
      "Ġhotel": 3479,
      "Ġmurder": 3480,
      "13": 3481,
      "ell": 3482,
      "four": 3483,
      "Ġegypt": 3484,
      "iger": 3485,
      "Ġfranc": 3486,
      "osh": 3487,
      "care": 3488,
      "Ġplays": 3489,
      "Ġ2002": 3490,
      "Ġdeput": 3491,
      "Ġsunday": 3492,
      "Ġmotion": 3493,
      "Ġhouses": 3494,
      "Ġdestro": 3495,
      "atlantique": 3496,
      "cour": 3497,
      "down": 3498,
      "ked": 3499,
      "ux": 3500,
      "yo": 3501,
      "Ġwa": 3502,
      "Ġsour": 3503,
      "Ġsite": 3504,
      "Ġperm": 3505,
      "Ġgives": 3506,
      "leg": 3507,
      "ential": 3508,
      "ado": 3509,
      "esty": 3510,
      "Ġlikely": 3511,
      "ively": 3512,
      "ends": 3513,
      "Ġhadn": 3514,
      "Ġguard": 3515,
      "Ġappeared": 3516,
      "Ġbitch": 3517,
      "Ġfamous": 3518,
      "Ġ50": 3519,
      "Ġsubject": 3520,
      "Ġbritain": 3521,
      "Ġconcerned": 3522,
      "eal": 3523,
      "ois": 3524,
      "pol": 3525,
      "Ġbri": 3526,
      "Ġmale": 3527,
      "Ġtow": 3528,
      "Ġren": 3529,
      "Ġkick": 3530,
      "Ġstore": 3531,
      "irty": 3532,
      "oking": 3533,
      "iana": 3534,
      "Ġthrow": 3535,
      "Ġ1995": 3536,
      "itional": 3537,
      "Ġmedical": 3538,
      "Ġmainly": 3539,
      "Ġdamn": 3540,
      "Ġclothes": 3541,
      "Ġgoddess": 3542,
      "huh": 3543,
      "oke": 3544,
      "heim": 3545,
      "Ġcities": 3546,
      "Ġdu": 3547,
      "Ġlay": 3548,
      "cell": 3549,
      "empt": 3550,
      "Ġthinks": 3551,
      "Ġfeat": 3552,
      "reek": 3553,
      "lands": 3554,
      "Ġcharles": 3555,
      "didn": 3556,
      "Ġspecific": 3557,
      "Ġimmedi": 3558,
      "Ġorganization": 3559,
      "hal": 3560,
      "Ġcatch": 3561,
      "ano": 3562,
      "Ġincome": 3563,
      "arily": 3564,
      "ators": 3565,
      "Ġthreat": 3566,
      "Ġray": 3567,
      "Ġrate": 3568,
      "Ġstarring": 3569,
      "Ġsaf": 3570,
      "Ġcovid": 3571,
      "Ġseeing": 3572,
      "Ġcars": 3573,
      "chen": 3574,
      "Ġslight": 3575,
      "ological": 3576,
      "Ġaddress": 3577,
      "Ġpassed": 3578,
      "Ġauthority": 3579,
      "Ġsettlement": 3580,
      "Ġchinese": 3581,
      "Ġder": 3582,
      "Ġles": 3583,
      "Ġfriday": 3584,
      "Ġspir": 3585,
      "Ġworkers": 3586,
      "âĻ«": 3587,
      "never": 3588,
      "iction": 3589,
      "Ġwriting": 3590,
      "Ġ1997": 3591,
      "Ġchristian": 3592,
      "aren": 3593,
      "mend": 3594,
      "Ġq": 3595,
      "Ġfix": 3596,
      "Ġdata": 3597,
      "atory": 3598,
      "owers": 3599,
      "Ġrat": 3600,
      "cks": 3601,
      "iple": 3602,
      "Ġanywhere": 3603,
      "comte": 3604,
      "Ġspeed": 3605,
      "Ġvalue": 3606,
      "Ġukraine": 3607,
      "ply": 3608,
      "Ġtheory": 3609,
      "Ġherself": 3610,
      "Ġamb": 3611,
      "Ġ1980": 3612,
      "197": 3613,
      "Ġaccount": 3614,
      "Ġparticularly": 3615,
      "something": 3616,
      "Ġangeles": 3617,
      "Ġindependent": 3618,
      "Ġscience": 3619,
      "Ġsociety": 3620,
      "Ġfestival": 3621,
      "lit": 3622,
      "mark": 3623,
      "Ġdrop": 3624,
      "Ġpap": 3625,
      "isn": 3626,
      "Ġforces": 3627,
      "ript": 3628,
      "Ġupon": 3629,
      "ips": 3630,
      "before": 3631,
      "Ġregard": 3632,
      "Ġsimple": 3633,
      "Ġinstit": 3634,
      "Ġcompeted": 3635,
      "Ġcritic": 3636,
      "damn": 3637,
      "Ġimagine": 3638,
      "Ġsudden": 3639,
      "franche": 3640,
      "Ġbourgog": 3641,
      "Ġbourgogne": 3642,
      "fine": 3643,
      "Ġdry": 3644,
      "asy": 3645,
      "Ġreact": 3646,
      "Ġrap": 3647,
      "those": 3648,
      "Ġdefe": 3649,
      "Ġcompan": 3650,
      "Ġways": 3651,
      "Ġwriter": 3652,
      "Ġfourth": 3653,
      "Ġshar": 3654,
      "Ġ1996": 3655,
      "Ġhang": 3656,
      "198": 3657,
      "Ġ1970": 3658,
      "Ġlanguages": 3659,
      "Ġdrag": 3660,
      "Ġgarden": 3661,
      "ients": 3662,
      "rick": 3663,
      "erve": 3664,
      "Ġmond": 3665,
      "orge": 3666,
      "ett": 3667,
      "Ġbell": 3668,
      "venue": 3669,
      "Ġprinc": 3670,
      "Ġmeth": 3671,
      "Ġempire": 3672,
      "Ġglass": 3673,
      "Ġhorse": 3674,
      "great": 3675,
      "Ġhigher": 3676,
      "Ġrichard": 3677,
      "Ġmaterial": 3678,
      "gas": 3679,
      "ias": 3680,
      "ties": 3681,
      "win": 3682,
      "zburg": 3683,
      "Ġcash": 3684,
      "Ġfat": 3685,
      "Ġgal": 3686,
      "Ġgentle": 3687,
      "Ġexcuse": 3688,
      "Ġbrand": 3689,
      "Ġpartner": 3690,
      "Ġsche": 3691,
      "Ġscreen": 3692,
      "Ġsla": 3693,
      "Ġ1986": 3694,
      "Ġassist": 3695,
      "Ġstudy": 3696,
      "Ġsky": 3697,
      "Ġskin": 3698,
      "Ġrepresented": 3699,
      "Ġeggs": 3700,
      "Ġ&": 3701,
      "Ġbol": 3702,
      "Ġna": 3703,
      "irt": 3704,
      "Ġtherefore": 3705,
      "Ġarab": 3706,
      "Ġcommand": 3707,
      "Ġfinish": 3708,
      "Ġpicked": 3709,
      "Ġperformance": 3710,
      "Ġborder": 3711,
      "Ġdangerous": 3712,
      "Ġcatholic": 3713,
      "Ġfinancial": 3714,
      "Ġaud": 3715,
      "rey": 3716,
      "Ġbang": 3717,
      "Ġoil": 3718,
      "Ġlake": 3719,
      "Ġnick": 3720,
      "Ġhun": 3721,
      "Ġnotice": 3722,
      "riage": 3723,
      "early": 3724,
      "Ġroyal": 3725,
      "Ġprint": 3726,
      "Ġslave": 3727,
      "Ġplanning": 3728,
      "Ġlights": 3729,
      "Ġpressure": 3730,
      "Ġjudge": 3731,
      "Ġversion": 3732,
      "since": 3733,
      "uf": 3734,
      "wise": 3735,
      "ero": 3736,
      "Ġmix": 3737,
      "oria": 3738,
      "Ġstone": 3739,
      "Ġjail": 3740,
      "antic": 3741,
      "Ġloved": 3742,
      "Ġcompl": 3743,
      "shit": 3744,
      "Ġregular": 3745,
      "Ġ1987": 3746,
      "Ġmissed": 3747,
      "Ġincludes": 3748,
      "Ġmedia": 3749,
      "Ġsongs": 3750,
      "awa": 3751,
      "Ġdoub": 3752,
      "Ġitaly": 3753,
      "ournal": 3754,
      "Ġvotes": 3755,
      "Ġtitle": 3756,
      "Ġexecutive": 3757,
      "Ġcandid": 3758,
      "bon": 3759,
      "ss": 3760,
      "hel": 3761,
      "Ġbrian": 3762,
      "Ġwear": 3763,
      "Ġride": 3764,
      "Ġcompos": 3765,
      "rently": 3766,
      "Ġattention": 3767,
      "Ġmajesty": 3768,
      "nesota": 3769,
      "Ġchampionships": 3770,
      "Ġvirgin": 3771,
      "Ġfavour": 3772,
      "Ġlucky": 3773,
      "Ġaustralia": 3774,
      "Ġwashington": 3775,
      "gree": 3776,
      "mom": 3777,
      "Ġought": 3778,
      "Ġtro": 3779,
      "Ġsom": 3780,
      "Ġemb": 3781,
      "ador": 3782,
      "Ġ190": 3783,
      "Ġvice": 3784,
      "Ġpeace": 3785,
      "Ġarm": 3786,
      "Ġ2023": 3787,
      "Ġminnesota": 3788,
      "Ġmostly": 3789,
      "iko": 3790,
      "Ġfifteen": 3791,
      "Ġsigned": 3792,
      "Ġprior": 3793,
      "Ġrepresentative": 3794,
      "Ġcorner": 3795,
      "Ġinflu": 3796,
      "uj": 3797,
      "Ġtim": 3798,
      "ini": 3799,
      "reci": 3800,
      "Ġcit": 3801,
      "Ġbother": 3802,
      "Ġdoll": 3803,
      "Ġsoft": 3804,
      "Ġclient": 3805,
      "Ġtripp": 3806,
      "Ġ1972": 3807,
      "Ġhandle": 3808,
      "pared": 3809,
      "Ġbrothers": 3810,
      "Ġactivist": 3811,
      "Ġrisk": 3812,
      "Ġholiday": 3813,
      "five": 3814,
      "year": 3815,
      "Ġess": 3816,
      "Ġwide": 3817,
      "had": 3818,
      "Ġfer": 3819,
      "Ġyo": 3820,
      "isl": 3821,
      "Ġnone": 3822,
      "Ġnations": 3823,
      "enth": 3824,
      "Ġconvers": 3825,
      "soft": 3826,
      "Ġexc": 3827,
      "Ġenergy": 3828,
      "Ġacting": 3829,
      "Ġlaugh": 3830,
      "ibly": 3831,
      "Ġbusy": 3832,
      "Ġsimply": 3833,
      "Ġsignific": 3834,
      "Ġforest": 3835,
      "Ġfighting": 3836,
      "Ġflying": 3837,
      "11": 3838,
      "bar": 3839,
      "fa": 3840,
      "face": 3841,
      "pre": 3842,
      "hest": 3843,
      "Ġwild": 3844,
      "Ġfant": 3845,
      "Ġnurs": 3846,
      "aly": 3847,
      "Ġknock": 3848,
      "ams": 3849,
      "think": 3850,
      "Ġnovel": 3851,
      "aret": 3852,
      "Ġgrace": 3853,
      "Ġ1992": 3854,
      "Ġsurv": 3855,
      "Ġcorrect": 3856,
      "Ġdouble": 3857,
      "Ġcontinue": 3858,
      "Ġresults": 3859,
      "ox": 3860,
      "rd": 3861,
      "ror": 3862,
      "sk": 3863,
      "sam": 3864,
      "Ġbot": 3865,
      "anny": 3866,
      "Ġdig": 3867,
      "Ġpil": 3868,
      "itude": 3869,
      "Ġbeg": 3870,
      "Ġrich": 3871,
      "Ġprogress": 3872,
      "Ġmeaning": 3873,
      "Ġourselves": 3874,
      "Ġchem": 3875,
      "Ġhole": 3876,
      "Ġ1988": 3877,
      "Ġattempt": 3878,
      "hood": 3879,
      "Ġstudied": 3880,
      "Ġtrees": 3881,
      "Ġpromise": 3882,
      "sometimes": 3883,
      "ength": 3884,
      "Ġquarter": 3885,
      "Ġwilson": 3886,
      "ais": 3887,
      "pan": 3888,
      "viet": 3889,
      "Ġsens": 3890,
      "Ġham": 3891,
      "Ġweather": 3892,
      "Ġru": 3893,
      "olk": 3894,
      "Ġuncle": 3895,
      "ateg": 3896,
      "Ġchic": 3897,
      "Ġchick": 3898,
      "Ġquiet": 3899,
      "Ġtalked": 3900,
      "Ġflor": 3901,
      "Ġ1989": 3902,
      "Ġmissing": 3903,
      "Ġlaws": 3904,
      "Ġdetect": 3905,
      "Ġafrica": 3906,
      "Ġstock": 3907,
      "Ġseventy": 3908,
      "Ġscientists": 3909,
      "Ġterrible": 3910,
      "Ġrelationship": 3911,
      "Ġcarolina": 3912,
      "Ġsafety": 3913,
      "belt": 3914,
      "cons": 3915,
      "ee": 3916,
      "help": 3917,
      "onia": 3918,
      "Ġjournal": 3919,
      "imb": 3920,
      "Ġdegree": 3921,
      "Ġmoon": 3922,
      "Ġspot": 3923,
      "Ġcalling": 3924,
      "Ġjoint": 3925,
      "Ġofficers": 3926,
      "Ġartist": 3927,
      "everything": 3928,
      "Ġvari": 3929,
      "Ġdetail": 3930,
      "Ġaware": 3931,
      "Ġapart": 3932,
      "Ġvisit": 3933,
      "Ġdefinitely": 3934,
      "Ġindividual": 3935,
      "Ġcompanies": 3936,
      "\").": 3937,
      "21": 3938,
      "gian": 3939,
      "rom": 3940,
      "war": 3941,
      "Ġsca": 3942,
      "uses": 3943,
      "Ġhoney": 3944,
      "Ġkn": 3945,
      "Ġforgot": 3946,
      "oken": 3947,
      "iel": 3948,
      "ipe": 3949,
      "Ġcoal": 3950,
      "Ġboat": 3951,
      "Ġpolish": 3952,
      "Ġcrime": 3953,
      "Ġlots": 3954,
      "Ġ1999": 3955,
      "Ġflight": 3956,
      "Ġcareful": 3957,
      "ograph": 3958,
      "Ġoccur": 3959,
      "Ġdivided": 3960,
      "Ġyellow": 3961,
      "Ġdutch": 3962,
      "Ġvalley": 3963,
      "iot": 3964,
      "mont": 3965,
      "Ġbeha": 3966,
      "anda": 3967,
      "Ġgoal": 3968,
      "ols": 3969,
      "Ġliber": 3970,
      "Ġnote": 3971,
      "riff": 3972,
      "asty": 3973,
      "love": 3974,
      "Ġroll": 3975,
      "ishop": 3976,
      "Ġscript": 3977,
      "Ġformula": 3978,
      "Ġcaptain": 3979,
      "Ġproduction": 3980,
      "Ġstandard": 3981,
      "Ġprovide": 3982,
      "Ġwalking": 3983,
      "Ġpenn": 3984,
      "Ġresponsible": 3985,
      "Ġagreed": 3986,
      "Ġprague": 3987,
      "Ġdisease": 3988,
      "gency": 3989,
      "life": 3990,
      "watch": 3991,
      "Ġtank": 3992,
      "Ġpred": 3993,
      "Ġant": 3994,
      "Ġinit": 3995,
      "asion": 3996,
      "oma": 3997,
      "Ġeff": 3998,
      "Ġreview": 3999,
      "Ġrow": 4000,
      "Ġrout": 4001,
      "Ġrough": 4002,
      "Ġneg": 4003,
      "ulous": 4004,
      "Ġtruck": 4005,
      "Ġoffer": 4006,
      "Ġactual": 4007,
      "Ġresour": 4008,
      "shire": 4009,
      "Ġgreenbelt": 4010,
      "Ġgolden": 4011,
      "Ġoppos": 4012,
      "Ġinspect": 4013,
      "pres": 4014,
      "round": 4015,
      "Ġfres": 4016,
      "Ġlines": 4017,
      "otte": 4018,
      "Ġrus": 4019,
      "Ġjr": 4020,
      "oln": 4021,
      "ument": 4022,
      "Ġclimate": 4023,
      "Ġnewsp": 4024,
      "Ġscr": 4025,
      "Ġjoe": 4026,
      "law": 4027,
      "Ġcaught": 4028,
      "Ġdecide": 4029,
      "Ġrelated": 4030,
      "twilight": 4031,
      "Ġsales": 4032,
      "Ġlegal": 4033,
      "Ġforeign": 4034,
      "incoln": 4035,
      "Ġcanadian": 4036,
      "Ġtechnology": 4037,
      "commun": 4038,
      "Ġstrike": 4039,
      "Ġadministration": 4040,
      "Ġculture": 4041,
      "Ġfrancis": 4042,
      "gi": 4043,
      "mus": 4044,
      "nic": 4045,
      "oibi": 4046,
      "Ġwo": 4047,
      "Ġmate": 4048,
      "Ġpak": 4049,
      "ites": 4050,
      "Ġnic": 4051,
      "usion": 4052,
      "Ġhuge": 4053,
      "stairs": 4054,
      "Ġsoviet": 4055,
      "Ġmanipur": 4056,
      "âĢĿ": 4057,
      "Ġcommer": 4058,
      "Ġremain": 4059,
      "Ġ1991": 4060,
      "Ġstatement": 4061,
      "Ġwinter": 4062,
      "Ġcorpor": 4063,
      "Ġshoes": 4064,
      "syl": 4065,
      "Ġmexican": 4066,
      "Ġnecessary": 4067,
      "Ġjoseph": 4068,
      "jan": 4069,
      "ket": 4070,
      "Ġum": 4071,
      "Ġfc": 4072,
      "Ġpun": 4073,
      "Ġkong": 4074,
      "Ġkore": 4075,
      "Ġload": 4076,
      "Ġworried": 4077,
      "Ġproced": 4078,
      "Ġplus": 4079,
      "Ġcovered": 4080,
      "actually": 4081,
      "Ġplayers": 4082,
      "Ġadult": 4083,
      "Ġfocus": 4084,
      "Ġrecently": 4085,
      "Ġ1993": 4086,
      "Ġslaves": 4087,
      "Ġprize": 4088,
      "Ġpositive": 4089,
      "Ġeleven": 4090,
      "stein": 4091,
      "ĠâĢľ": 4092,
      "Ġdocument": 4093,
      "aur": 4094,
      "six": 4095,
      "Ġtap": 4096,
      "real": 4097,
      "Ġbay": 4098,
      "Ġdom": 4099,
      "Ġgro": 4100,
      "Ġreasons": 4101,
      "Ġstuck": 4102,
      "Ġasse": 4103,
      "Ġprop": 4104,
      "Ġtwice": 4105,
      "Ġindeed": 4106,
      "Ġblow": 4107,
      "Ġappreci": 4108,
      "Ġ1985": 4109,
      "Ġcreate": 4110,
      "Ġkidding": 4111,
      "Ġwindow": 4112,
      "90": 4113,
      "aven": 4114,
      "char": 4115,
      "nie": 4116,
      "Ġsad": 4117,
      "Ġsight": 4118,
      "Ġbes": 4119,
      "Ġbav": 4120,
      "Ġmuse": 4121,
      "Ġinj": 4122,
      "Ġonto": 4123,
      "Ġweight": 4124,
      "Ġweird": 4125,
      "Ġry": 4126,
      "were": 4127,
      "Ġplant": 4128,
      "Ġquit": 4129,
      "Ġrecom": 4130,
      "Ġevents": 4131,
      "Ġcompetition": 4132,
      "Ġindustry": 4133,
      "Ġsaxony": 4134,
      "Ġslavery": 4135,
      "Ġchicago": 4136,
      "ev": 4137,
      "gues": 4138,
      "rel": 4139,
      "Ġsmo": 4140,
      "erc": 4141,
      "Ġmaster": 4142,
      "ani": 4143,
      "Ġanti": 4144,
      "Ġnavy": 4145,
      "ira": 4146,
      "thou": 4147,
      "Ġactive": 4148,
      "Ġcommission": 4149,
      "Ġaccess": 4150,
      "Ġremind": 4151,
      "Ġdistricts": 4152,
      "Ġflag": 4153,
      "Ġsmith": 4154,
      "ologist": 4155,
      "Ġschools": 4156,
      "Ġloss": 4157,
      "Ġhonor": 4158,
      "Ġhonest": 4159,
      "Ġmotor": 4160,
      "Ġeconomic": 4161,
      "Ġpractice": 4162,
      "adesh": 4163,
      "Ġemergency": 4164,
      "Ġestabl": 4165,
      "Ġdeputy": 4166,
      "Ġcitiz": 4167,
      "itness": 4168,
      "aro": 4169,
      "Ġitem": 4170,
      "Ġwaste": 4171,
      "them": 4172,
      "Ġplans": 4173,
      "Ġplants": 4174,
      "Ġbranch": 4175,
      "Ġindic": 4176,
      "Ġprepared": 4177,
      "Ġchanges": 4178,
      "Ġcontact": 4179,
      "Ġstrugg": 4180,
      "Ġoperation": 4181,
      "Ġmanaged": 4182,
      "Ġhomes": 4183,
      "Ġmunicipalities": 4184,
      "Ġmonday": 4185,
      "father": 4186,
      "inct": 4187,
      "Ġmap": 4188,
      "ali": 4189,
      "Ġrod": 4190,
      "Ġmeat": 4191,
      "Ġprec": 4192,
      "Ġ40": 4193,
      "Ġautonom": 4194,
      "Ġopened": 4195,
      "Ġraised": 4196,
      "Ġlabor": 4197,
      "Ġestim": 4198,
      "Ġmajority": 4199,
      "Ġmerged": 4200,
      "Ġconstitution": 4201,
      "Ġdarling": 4202,
      "works": 4203,
      "Ġladies": 4204,
      "Ġproducer": 4205,
      "Ġmistake": 4206,
      "Ġimmediately": 4207,
      "ez": 4208,
      "jul": 4209,
      "lar": 4210,
      "Ġ)": 4211,
      "Ġdum": 4212,
      "Ġpaint": 4213,
      "Ġgreek": 4214,
      "Ġlength": 4215,
      "Ġhors": 4216,
      "Ġbear": 4217,
      "shut": 4218,
      "Ġcontribut": 4219,
      "Ġ1982": 4220,
      "Ġcolour": 4221,
      "Ġproduce": 4222,
      "zech": 4223,
      "Ġfrogs": 4224,
      "Ġvictim": 4225,
      "Ġfavor": 4226,
      "Ġarrested": 4227,
      "Ġappointed": 4228,
      "nis": 4229,
      "nat": 4230,
      "ole": 4231,
      "sl": 4232,
      "sch": 4233,
      "wow": 4234,
      "Ġtun": 4235,
      "Ġgir": 4236,
      "ases": 4237,
      "Ġhind": 4238,
      "Ġordin": 4239,
      "ender": 4240,
      "iance": 4241,
      "Ġafford": 4242,
      "check": 4243,
      "Ġ1979": 4244,
      "Ġweekend": 4245,
      "Ġplane": 4246,
      "Ġmagaz": 4247,
      "Ġequip": 4248,
      "Ġbroadcast": 4249,
      "Ġassemb": 4250,
      "Ġmuseum": 4251,
      "ckey": 4252,
      "lu": 4253,
      "nam": 4254,
      "Ġ:": 4255,
      "het": 4256,
      "Ġcamer": 4257,
      "Ġdia": 4258,
      "Ġpin": 4259,
      "owd": 4260,
      "Ġthomas": 4261,
      "etts": 4262,
      "ilities": 4263,
      "ouri": 4264,
      "iff": 4265,
      "ortun": 4266,
      "ube": 4267,
      "Ġchap": 4268,
      "Ġcarried": 4269,
      "Ġstarts": 4270,
      "should": 4271,
      "Ġbigger": 4272,
      "Ġstudio": 4273,
      "Ġlegs": 4274,
      "Ġislands": 4275,
      "Ġapolog": 4276,
      "Ġtotally": 4277,
      "Ġfairly": 4278,
      "Ġopportun": 4279,
      "Ġcastle": 4280,
      "Ġhighest": 4281,
      "writer": 4282,
      "Ġenvironmental": 4283,
      "Ġneighbour": 4284,
      "Ġdemand": 4285,
      "elect": 4286,
      "net": 4287,
      "Ġtor": 4288,
      "Ġsac": 4289,
      "Ġble": 4290,
      "itation": 4291,
      "Ġlincoln": 4292,
      "aska": 4293,
      "Ġram": 4294,
      "lder": 4295,
      "Ġunit": 4296,
      "Ġpropos": 4297,
      "Ġclosed": 4298,
      "Ġresign": 4299,
      "Ġresolution": 4300,
      "anyway": 4301,
      "host": 4302,
      "amples": 4303,
      "Ġrealize": 4304,
      "ashion": 4305,
      "Ġyounger": 4306,
      "Ġrussia": 4307,
      "Ġdesigned": 4308,
      "Ġproperty": 4309,
      "Ġargent": 4310,
      "Ġoxford": 4311,
      "Ġtarget": 4312,
      "Ġamazing": 4313,
      "Ġdialect": 4314,
      "Ġsignificant": 4315,
      "Ġautonomous": 4316,
      "40": 4317,
      "fall": 4318,
      "mi": 4319,
      "person": 4320,
      "uly": 4321,
      "ÌĦ": 4322,
      "Ġsale": 4323,
      "Ġcart": 4324,
      "Ġbishop": 4325,
      "Ġdyn": 4326,
      "Ġinvent": 4327,
      "Ġgall": 4328,
      "isa": 4329,
      "Ġeating": 4330,
      "Ġreached": 4331,
      "Ġrh": 4332,
      "Ġmechan": 4333,
      "illi": 4334,
      "Ġshown": 4335,
      "Ġspr": 4336,
      "Ġspring": 4337,
      "Ġfellow": 4338,
      "Ġagent": 4339,
      "ucky": 4340,
      "perhaps": 4341,
      "Ġwars": 4342,
      "comes": 4343,
      "Ġ1981": 4344,
      "Ġdriver": 4345,
      "Ġtransport": 4346,
      "Ġsystems": 4347,
      "Ġdemocracy": 4348,
      "Ġenjoy": 4349,
      "during": 4350,
      "hmm": 4351,
      "nord": 4352,
      "Ġbon": 4353,
      "llen": 4354,
      "Ġnature": 4355,
      "Ġheavy": 4356,
      "iga": 4357,
      "Ġstyle": 4358,
      "Ġjen": 4359,
      "Ġsearch": 4360,
      "istry": 4361,
      "ulations": 4362,
      "Ġplat": 4363,
      "Ġspoken": 4364,
      "Ġque": 4365,
      "cious": 4366,
      "Ġfox": 4367,
      "ization": 4368,
      "Ġtells": 4369,
      "Ġdepression": 4370,
      "Ġ1969": 4371,
      "Ġcalm": 4372,
      "Ġautom": 4373,
      "Ġofficially": 4374,
      "centr": 4375,
      "Ġdaddy": 4376,
      "ancing": 4377,
      "Ġoccup": 4378,
      "Ġadvice": 4379,
      "Ġduty": 4380,
      "Ġmartin": 4381,
      "Ġmemory": 4382,
      "Ġsuspect": 4383,
      "Ġodd": 4384,
      "Ġmicrosoft": 4385,
      "Ġvirginia": 4386,
      "dis": 4387,
      "fast": 4388,
      "hon": 4389,
      "hur": 4390,
      "make": 4391,
      "nice": 4392,
      "spe": 4393,
      "water": 4394,
      "Ġtan": 4395,
      "Ġwis": 4396,
      "Ġczech": 4397,
      "Ġfought": 4398,
      "Ġgate": 4399,
      "usetts": 4400,
      "christ": 4401,
      "Ġfeed": 4402,
      "âĢĶ": 4403,
      "Ġbob": 4404,
      "Ġlaura": 4405,
      "achusetts": 4406,
      "Ġwarm": 4407,
      "Ġcheap": 4408,
      "Ġhockey": 4409,
      "Ġstrange": 4410,
      "196": 4411,
      "Ġstudents": 4412,
      "Ġmilk": 4413,
      "Ġromantic": 4414,
      "Ġreturned": 4415,
      "shall": 4416,
      "Ġanimals": 4417,
      "Ġmessage": 4418,
      "fortun": 4419,
      "Ġflorida": 4420,
      "Ġestablished": 4421,
      "\"?": 4422,
      "23": 4423,
      "Ġtired": 4424,
      "Ġtask": 4425,
      "Ġtheat": 4426,
      "Ġcam": 4427,
      "Ġbac": 4428,
      "Ġbike": 4429,
      "Ġoce": 4430,
      "Ġpig": 4431,
      "Ġlying": 4432,
      "isher": 4433,
      "Ġnation": 4434,
      "Ġrot": 4435,
      "Ġkh": 4436,
      "sec": 4437,
      "Ġbye": 4438,
      "Ġsplit": 4439,
      "too": 4440,
      "Ġgrant": 4441,
      "ordin": 4442,
      "grand": 4443,
      "Ġconserv": 4444,
      "Ġtrip": 4445,
      "whoa": 4446,
      "Ġ1964": 4447,
      "ĠĠĠ": 4448,
      "standing": 4449,
      "Ġhighly": 4450,
      "Ġleaders": 4451,
      "Ġfollowed": 4452,
      "everyone": 4453,
      "Ġsuit": 4454,
      "Ġterritory": 4455,
      "Ġhorses": 4456,
      "friend": 4457,
      "Ġcode": 4458,
      "Ġfal": 4459,
      "ening": 4460,
      "Ġpit": 4461,
      "omi": 4462,
      "Ġreve": 4463,
      "vert": 4464,
      "Ġjura": 4465,
      "Ġgoals": 4466,
      "Ġ(,": 4467,
      "Ġcomment": 4468,
      "Ġexerc": 4469,
      "Ġmarry": 4470,
      "Ġlai": 4471,
      "Ġscot": 4472,
      "Ġ1998": 4473,
      "Ġfeels": 4474,
      "Ġsymb": 4475,
      "Ġmissouri": 4476,
      "Ġpaying": 4477,
      "Ġjohnson": 4478,
      "Ġadded": 4479,
      "Ġbasis": 4480,
      "Ġpromot": 4481,
      "Ġactivities": 4482,
      "Ġtemper": 4483,
      "urban": 4484,
      "Ġjersey": 4485,
      "Ġsuccessful": 4486,
      "Ġscared": 4487,
      "Ġeffort": 4488,
      "bc": 4489,
      "Ġtight": 4490,
      "Ġari": 4491,
      "Ġmas": 4492,
      "Ġpac": 4493,
      "alpes": 4494,
      "Ġeh": 4495,
      "ila": 4496,
      "geography": 4497,
      "Ġconcentr": 4498,
      "Ġcoat": 4499,
      "Ġlee": 4500,
      "Ġchuck": 4501,
      "Ġadvent": 4502,
      "Ġacqu": 4503,
      "Ġserve": 4504,
      "Ġphr": 4505,
      "Ġmusical": 4506,
      "Ġuniverse": 4507,
      "Ġreported": 4508,
      "Ġlegisl": 4509,
      "Ġspeaking": 4510,
      "Ġconstr": 4511,
      "Ġreading": 4512,
      "Ġforever": 4513,
      "Ġhurry": 4514,
      "Ġperformed": 4515,
      "Ġrules": 4516,
      "Ġsource": 4517,
      "Ġmethod": 4518,
      "cont": 4519,
      "pardon": 4520,
      "wich": 4521,
      "Ġwrest": 4522,
      "Ġcow": 4523,
      "Ġpus": 4524,
      "Ġlock": 4525,
      "Ġunless": 4526,
      "Ġuses": 4527,
      "Ġjustice": 4528,
      "nobody": 4529,
      "Ġarts": 4530,
      "Ġadop": 4531,
      "Ġscott": 4532,
      "Ġsmart": 4533,
      "Ġspee": 4534,
      "Ġowned": 4535,
      "Ġattract": 4536,
      "looks": 4537,
      "Ġ1930": 4538,
      "Ġtransl": 4539,
      "Ġtransfer": 4540,
      "Ġpossibly": 4541,
      "Ġtravel": 4542,
      "Ġmagic": 4543,
      "Ġwatching": 4544,
      "Ġoriginally": 4545,
      "Ġsilver": 4546,
      "ua": 4547,
      "Ġwine": 4548,
      "onse": 4549,
      "Ġpu": 4550,
      "Ġstorm": 4551,
      "thew": 4552,
      "Ġjones": 4553,
      "road": 4554,
      "ola": 4555,
      "Ġdonald": 4556,
      "apped": 4557,
      "Ġbrain": 4558,
      "Ġrose": 4559,
      "Ġprin": 4560,
      "Ġfool": 4561,
      "Ġresident": 4562,
      "anything": 4563,
      "Ġcrew": 4564,
      "Ġeighteen": 4565,
      "Ġ1974": 4566,
      "Ġsites": 4567,
      "Ġleading": 4568,
      "Ġsmaller": 4569,
      "Ġbroke": 4570,
      "Ġtaught": 4571,
      "Ġnormally": 4572,
      "Ġdebuted": 4573,
      "rupt": 4574,
      "Ġresources": 4575,
      "cu": 4576,
      "lam": 4577,
      "oid": 4578,
      "Ġsid": 4579,
      "once": 4580,
      "Ġow": 4581,
      "itar": 4582,
      "Ġgift": 4583,
      "vere": 4584,
      "sequ": 4585,
      "eagues": 4586,
      "Ġven": 4587,
      "Ġbridge": 4588,
      "ughing": 4589,
      "Ġmusician": 4590,
      "speak": 4591,
      "Ġsubst": 4592,
      "Ġ1943": 4593,
      "Ġroads": 4594,
      "Ġmedic": 4595,
      "Ġcommunist": 4596,
      "Ġbroken": 4597,
      "Ġillness": 4598,
      "everybody": 4599,
      "Ġlistening": 4600,
      "Ġcontinued": 4601,
      "Ġcatal": 4602,
      "Ġsoldiers": 4603,
      "Ġpurpose": 4604,
      "Ġsusp": 4605,
      "Ġentertain": 4606,
      "Ġvehicle": 4607,
      "Ġslightly": 4608,
      "Ġspirit": 4609,
      "Ġdoubt": 4610,
      "Ġmagazine": 4611,
      "Ġassembly": 4612,
      "saint": 4613,
      "uay": 4614,
      "Ġcort": 4615,
      "Ġoption": 4616,
      "Ġpeak": 4617,
      "aria": 4618,
      "Ġheaven": 4619,
      "using": 4620,
      "Ġhong": 4621,
      "Ġhorn": 4622,
      "Ġjun": 4623,
      "chuck": 4624,
      "Ġvac": 4625,
      "Ġbutter": 4626,
      "emp": 4627,
      "Ġsaving": 4628,
      "Ġprince": 4629,
      "Ġprevious": 4630,
      "Ġshape": 4631,
      "Ġzeal": 4632,
      "Ġtypes": 4633,
      "Ġeasily": 4634,
      "Ġbasically": 4635,
      "Ġartists": 4636,
      "Ġdogs": 4637,
      "Ġinsurance": 4638,
      "Ġgenerally": 4639,
      "Ġdropped": 4640,
      "Ġimprove": 4641,
      "sylvan": 4642,
      "Ġzealand": 4643,
      "both": 4644,
      "mum": 4645,
      "heart": 4646,
      "Ġsnow": 4647,
      "Ġbent": 4648,
      "Ġbomb": 4649,
      "Ġmort": 4650,
      "anian": 4651,
      "Ġfashion": 4652,
      "Ġgang": 4653,
      "asing": 4654,
      "Ġbey": 4655,
      "igen": 4656,
      "Ġkil": 4657,
      "Ġlog": 4658,
      "umn": 4659,
      "apt": 4660,
      "bell": 4661,
      "Ġadm": 4662,
      "chester": 4663,
      "Ġshowed": 4664,
      "Ġbread": 4665,
      "Ġorganis": 4666,
      "Ġdamage": 4667,
      "Ġanimated": 4668,
      "Ġlimited": 4669,
      "Ġfault": 4670,
      "Ġmassachusetts": 4671,
      "Ġhousing": 4672,
      "remember": 4673,
      "Ġbrief": 4674,
      "Ġequipment": 4675,
      "illiant": 4676,
      "22": 4677,
      "ios": 4678,
      "nit": 4679,
      "oon": 4680,
      "zen": 4681,
      "reg": 4682,
      "Ġfirm": 4683,
      "itan": 4684,
      "Ġgay": 4685,
      "Ġlink": 4686,
      "Ġitems": 4687,
      "Ġjesus": 4688,
      "imum": 4689,
      "thoibi": 4690,
      "ques": 4691,
      "hand": 4692,
      "Ġï¿½ï¿½ï¿½ï¿½ï¿½": 4693,
      "Ġbits": 4694,
      "Ġ1968": 4695,
      "Ġbelieved": 4696,
      "place": 4697,
      "Ġstudies": 4698,
      "Ġopening": 4699,
      "Ġbasket": 4700,
      "Ġconstant": 4701,
      "Ġpieces": 4702,
      "Ġcopy": 4703,
      "Ġpainting": 4704,
      "Ġbaseball": 4705,
      "Ġlatin": 4706,
      "michael": 4707,
      "Ġdiscovered": 4708,
      "Ġdunno": 4709,
      "Ġbodies": 4710,
      "!\"": 4711,
      ",\"": 4712,
      ".,": 4713,
      "big": 4714,
      "hu": 4715,
      "mes": 4716,
      "mother": 4717,
      "pinkie": 4718,
      "rid": 4719,
      "sen": 4720,
      "want": 4721,
      "Ġeth": 4722,
      "iny": 4723,
      "Ġfred": 4724,
      "Ġinha": 4725,
      "Ġhautes": 4726,
      "Ġell": 4727,
      "Ġweb": 4728,
      "Ġkar": 4729,
      "Ġjess": 4730,
      "stay": 4731,
      "Ġsequ": 4732,
      "Ġworst": 4733,
      "Ġnose": 4734,
      "Ġfear": 4735,
      "Ġarms": 4736,
      "Ġwhose": 4737,
      "Ġafc": 4738,
      "Ġpartners": 4739,
      "Ġmarks": 4740,
      "Ġscream": 4741,
      "Ġexpress": 4742,
      "Ġthroughout": 4743,
      "Ġdesp": 4744,
      "Ġconsum": 4745,
      "Ġ1976": 4746,
      "Ġcapt": 4747,
      "Ġstayed": 4748,
      "Ġtyp": 4749,
      "Ġresponse": 4750,
      "Ġtraffic": 4751,
      "Ġjackson": 4752,
      "Ġprimary": 4753,
      "Ġstanley": 4754,
      "Ġaffairs": 4755,
      "according": 4756,
      "Ġachieve": 4757,
      "Ġsuddenly": 4758,
      "ril": 4759,
      "Ġsuck": 4760,
      "Ġchat": 4761,
      "Ġbid": 4762,
      "Ġmud": 4763,
      "Ġdip": 4764,
      "Ġhay": 4765,
      "iring": 4766,
      "Ġalan": 4767,
      "reng": 4768,
      "Ġleima": 4769,
      "Ġchile": 4770,
      "next": 4771,
      "Ġpoland": 4772,
      "Ġscored": 4773,
      "Ġhook": 4774,
      "Ġ1984": 4775,
      "Ġdirectors": 4776,
      "Ġ60": 4777,
      "2020": 4778,
      "Ġfuneral": 4779,
      "Ġcert": 4780,
      "uesday": 4781,
      "Ġinterview": 4782,
      "Ġreports": 4783,
      "jean": 4784,
      "Ġconstitu": 4785,
      "Ġreplaced": 4786,
      "Ġintroduced": 4787,
      "Ġdrugs": 4788,
      "known": 4789,
      "Ġbenefit": 4790,
      "Ġpennsylvan": 4791,
      "bing": 4792,
      "lad": 4793,
      "mad": 4794,
      "sup": 4795,
      "try": 4796,
      "Ġbast": 4797,
      "Ġbord": 4798,
      "ena": 4799,
      "Ġpurs": 4800,
      "Ġlic": 4801,
      "Ġlunch": 4802,
      "Ġnative": 4803,
      "Ġros": 4804,
      "Ġknight": 4805,
      "ching": 4806,
      "iling": 4807,
      "olar": 4808,
      "ounts": 4809,
      "aph": 4810,
      "aki": 4811,
      "while": 4812,
      "Ġadvis": 4813,
      "Ġletters": 4814,
      "Ġamericans": 4815,
      "Ġregional": 4816,
      "ighs": 4817,
      "Ġkeeping": 4818,
      "Ġedge": 4819,
      "Ġ1966": 4820,
      "Ġlarger": 4821,
      "Ġjew": 4822,
      "Ġjeff": 4823,
      "ropical": 4824,
      "Ġbasic": 4825,
      "chair": 4826,
      "Ġawful": 4827,
      "Ġsentence": 4828,
      "Ġfreed": 4829,
      "Ġvaudois": 4830,
      "probably": 4831,
      "Ġcabinet": 4832,
      "Ġseparate": 4833,
      "Ġconversation": 4834,
      "communes": 4835,
      "Ġappreciate": 4836,
      "Ġordinary": 4837,
      "Ġopportunity": 4838,
      "Ġocean": 4839,
      "Ġpennsylvania": 4840,
      "cies": 4841,
      "ders": 4842,
      "eh": 4843,
      "lim": 4844,
      "lie": 4845,
      "mart": 4846,
      "wom": 4847,
      "Ġbound": 4848,
      "Ġpath": 4849,
      "ingthou": 4850,
      "Ġng": 4851,
      "Ġwearing": 4852,
      "Ġkne": 4853,
      "ammy": 4854,
      "ills": 4855,
      "Ġliked": 4856,
      "Ġnotes": 4857,
      "enda": 4858,
      "Ġclar": 4859,
      "Ġguitar": 4860,
      "Ġappa": 4861,
      "Ġparam": 4862,
      "Ġ1950": 4863,
      "Ġchampion": 4864,
      "Ġsenior": 4865,
      "ropri": 4866,
      "Ġbedroom": 4867,
      "Ġexperien": 4868,
      "Ġiron": 4869,
      "Ġeffects": 4870,
      "Ġprotection": 4871,
      "Ġportugal": 4872,
      "Ġgentlemen": 4873,
      "dav": 4874,
      "eight": 4875,
      "oe": 4876,
      "pet": 4877,
      "sit": 4878,
      "western": 4879,
      "ining": 4880,
      "Ġwash": 4881,
      "Ġryed": 4882,
      "Ġlift": 4883,
      "rial": 4884,
      "Ġupset": 4885,
      "whatever": 4886,
      "fered": 4887,
      "Ġcris": 4888,
      "Ġcrack": 4889,
      "Ġcrown": 4890,
      "Ġbelow": 4891,
      "Ġgreatest": 4892,
      "Ġconsult": 4893,
      "Ġthirteen": 4894,
      "book": 4895,
      "Ġsinging": 4896,
      "Ġintell": 4897,
      "Ġpatient": 4898,
      "Ġaustrian": 4899,
      "Ġemot": 4900,
      "Ġguns": 4901,
      "Ġstephen": 4902,
      "Ġconditions": 4903,
      "Ġarrange": 4904,
      "Ġkitchen": 4905,
      "Ġscheme": 4906,
      "Ġryedale": 4907,
      "24": 4908,
      "wan": 4909,
      "Ġtend": 4910,
      "Ġtast": 4911,
      "Ġtail": 4912,
      "Ġath": 4913,
      "Ġwitness": 4914,
      "Ġcake": 4915,
      "Ġcred": 4916,
      "Ġoffered": 4917,
      "alys": 4918,
      "Ġrush": 4919,
      "Ġka": 4920,
      "Ġatlant": 4921,
      "Ġmarg": 4922,
      "Ġimpact": 4923,
      "Ġbiggest": 4924,
      "lax": 4925,
      "Ġfifth": 4926,
      "Ġ1946": 4927,
      "Ġfootballer": 4928,
      "Ġinvestment": 4929,
      "Ġgeorg": 4930,
      "Ġdavis": 4931,
      "Ġaccepted": 4932,
      "Ġadministrative": 4933,
      "Ġmultiple": 4934,
      "Ġetc": 4935,
      "ufact": 4936,
      "Ġcommercial": 4937,
      "Ġcorporation": 4938,
      "Ġphrase": 4939,
      "hin": 4940,
      "him": 4941,
      "luc": 4942,
      "tod": 4943,
      "yep": 4944,
      "Ġ0": 4945,
      "Ġtall": 4946,
      "Ġire": 4947,
      "Ġcub": 4948,
      "orpor": 4949,
      "Ġemm": 4950,
      "Ġreck": 4951,
      "Ġstories": 4952,
      "iled": 4953,
      "Ġdeleg": 4954,
      "Ġ(),": 4955,
      "Ġleon": 4956,
      "ava": 4957,
      "Ġhelping": 4958,
      "Ġharry": 4959,
      "Ġ189": 4960,
      "Ġrecorded": 4961,
      "Ġempty": 4962,
      "Ġartic": 4963,
      "Ġsoutheast": 4964,
      "Ġfalling": 4965,
      "Ġcircum": 4966,
      "Ġfunds": 4967,
      "Ġresponsibility": 4968,
      "Ġinvestigation": 4969,
      "Ġideas": 4970,
      "Ġwelcome": 4971,
      "Ġweapon": 4972,
      "music": 4973,
      "Ġcitizens": 4974,
      "500": 4975,
      "bow": 4976,
      "pop": 4977,
      "part": 4978,
      "Ì§": 4979,
      "Ġ/": 4980,
      "Ġtuesday": 4981,
      "Ġopt": 4982,
      "iles": 4983,
      "ilies": 4984,
      "Ġabs": 4985,
      "Ġwheel": 4986,
      "absolutely": 4987,
      "akota": 4988,
      "load": 4989,
      "Ġmanufact": 4990,
      "Ġbright": 4991,
      "lfriend": 4992,
      "Ġfourteen": 4993,
      "Ġswim": 4994,
      "Ġfactory": 4995,
      "Ġ1940": 4996,
      "ception": 4997,
      "Ġfiles": 4998,
      "Ġ1939": 4999,
      "Ġemper": 5000,
      "Ġnether": 5001,
      "mrs": 5002,
      "change": 5003,
      "Ġadvant": 5004,
      "Ġpalace": 5005,
      "Ġhistorical": 5006,
      "Ġdescribed": 5007,
      "hangba": 5008,
      "Ġpremium": 5009,
      "Ġreligious": 5010,
      "Ġsmoke": 5011,
      "bill": 5012,
      "bra": 5013,
      "lou": 5014,
      "ost": 5015,
      "pret": 5016,
      "ram": 5017,
      "tri": 5018,
      "zz": 5019,
      "Ġtas": 5020,
      "Ġtires": 5021,
      "Ġwu": 5022,
      "Ġsab": 5023,
      "enix": 5024,
      "ori": 5025,
      "Ġpad": 5026,
      "Ġpush": 5027,
      "andy": 5028,
      "rol": 5029,
      "Ġash": 5030,
      "Ġlikes": 5031,
      "Ġability": 5032,
      "Ġleo": 5033,
      "Ġtrick": 5034,
      "Ġrepe": 5035,
      "Ġdisney": 5036,
      "Ġcrimin": 5037,
      "Ġleaves": 5038,
      "Ġexpand": 5039,
      "Ġexpensive": 5040,
      "Ġruns": 5041,
      "Ġ1942": 5042,
      "Ġ1947": 5043,
      "Ġ90": 5044,
      "Ġprofit": 5045,
      "exactly": 5046,
      "Ġorganized": 5047,
      "Ġincident": 5048,
      "Ġwinning": 5049,
      "Ġlabel": 5050,
      "Ġprograms": 5051,
      "Ġcosts": 5052,
      "Ġlosing": 5053,
      "Ġdanny": 5054,
      "kyo": 5055,
      "Ġreligion": 5056,
      "Ġlucy": 5057,
      "Ġcharlotte": 5058,
      "cue": 5059,
      "div": 5060,
      "ivers": 5061,
      "mars": 5062,
      "sar": 5063,
      "uese": 5064,
      "ware": 5065,
      "yl": 5066,
      "ÅĤ": 5067,
      "Ġcra": 5068,
      "Ġtokyo": 5069,
      "Ġlack": 5070,
      "vell": 5071,
      "aling": 5072,
      "Ġremo": 5073,
      "aching": 5074,
      "Ġjump": 5075,
      "Ġfran": 5076,
      "Ġordered": 5077,
      "Ġbron": 5078,
      "Ġbrilliant": 5079,
      "Ġchallen": 5080,
      "Ġcomplet": 5081,
      "Ġnortheast": 5082,
      "vention": 5083,
      "Ġdirection": 5084,
      "Ġdirectly": 5085,
      "Ġ1977": 5086,
      "Ġnorthwest": 5087,
      "Ġ1962": 5088,
      "Ġ1941": 5089,
      "Ġbarcel": 5090,
      "Ġstaying": 5091,
      "Ġeasier": 5092,
      "although": 5093,
      "Ġwalked": 5094,
      "Ġinternet": 5095,
      "Ġvalais": 5096,
      "Ġbringing": 5097,
      "Ġholding": 5098,
      "Ġcharacters": 5099,
      "Ġbillion": 5100,
      "Ġlearned": 5101,
      "ippi": 5102,
      "Ġgarage": 5103,
      "Ġpotato": 5104,
      "Ġrecommend": 5105,
      "fortunately": 5106,
      "Ġbeyond": 5107,
      "Ġireland": 5108,
      "Ġnetherlands": 5109,
      "jun": 5110,
      "met": 5111,
      "san": 5112,
      "Ġward": 5113,
      "another": 5114,
      "Ġtox": 5115,
      "ils": 5116,
      "ille": 5117,
      "Ġaltern": 5118,
      "Ġunits": 5119,
      "ulf": 5120,
      "Ġsaved": 5121,
      "aka": 5122,
      "aked": 5123,
      "tered": 5124,
      "text": 5125,
      "Ġguar": 5126,
      "angle": 5127,
      "cles": 5128,
      "Ġcrowd": 5129,
      "Ġwarner": 5130,
      "Ġregions": 5131,
      "Ġmission": 5132,
      "Ġsurround": 5133,
      "Ġmaintain": 5134,
      "Ġfunction": 5135,
      "Ġcommunic": 5136,
      "Ġpattern": 5137,
      "Ġbreakfast": 5138,
      "Ġexpected": 5139,
      "Ġutah": 5140,
      "Ġfeatures": 5141,
      "Ġnewspaper": 5142,
      "Ġfrancisco": 5143,
      "found": 5144,
      "hib": 5145,
      "rig": 5146,
      "zie": 5147,
      "Ġsake": 5148,
      "Ġbones": 5149,
      "Ġot": 5150,
      "Ġdancing": 5151,
      "Ġnar": 5152,
      "Ġnong": 5153,
      "oto": 5154,
      "leave": 5155,
      "Ġweak": 5156,
      "Ġstations": 5157,
      "star": 5158,
      "ctions": 5159,
      "open": 5160,
      "Ġnoticed": 5161,
      "Ġviet": 5162,
      "Ġprove": 5163,
      "iano": 5164,
      "Ġarmed": 5165,
      "Ġchamber": 5166,
      "Ġmarriage": 5167,
      "Ġscore": 5168,
      "Ġdistance": 5169,
      "Ġindones": 5170,
      "Ġkeith": 5171,
      "Ġfeelings": 5172,
      "ï¿½ï¿½ï¿½": 5173,
      "Ġelectric": 5174,
      "boy": 5175,
      "Ġopin": 5176,
      "Ġtowns": 5177,
      "Ġtennes": 5178,
      "Ġaddition": 5179,
      "Ġextreme": 5180,
      "twenty": 5181,
      "Ġfully": 5182,
      "ledge": 5183,
      "Ġirish": 5184,
      "Ġassociated": 5185,
      "Ġeconomy": 5186,
      "Ġseriously": 5187,
      "Ġperfectly": 5188,
      "Ġdebate": 5189,
      "Ġportuguese": 5190,
      "Ġcandidate": 5191,
      "Ġdetective": 5192,
      "Ġspeech": 5193,
      "Ġinhabit": 5194,
      "Ġtennessee": 5195,
      "cap": 5196,
      "wide": 5197,
      "Ġted": 5198,
      "Ġwol": 5199,
      "Ġcig": 5200,
      "Ġbul": 5201,
      "Ġfu": 5202,
      "orf": 5203,
      "Ġghost": 5204,
      "Ġningthou": 5205,
      "aled": 5206,
      "alous": 5207,
      "Ġheat": 5208,
      "Ġbecoming": 5209,
      "Ġron": 5210,
      "still": 5211,
      "iment": 5212,
      "roke": 5213,
      "thirty": 5214,
      "Ġneck": 5215,
      "Ġspin": 5216,
      "Ġguil": 5217,
      "issippi": 5218,
      "Ġprefer": 5219,
      "Ġcontest": 5220,
      "Ġholly": 5221,
      "Ġ1983": 5222,
      "Ġswed": 5223,
      "ossible": 5224,
      "Ġcream": 5225,
      "Ġturns": 5226,
      "Ġ1956": 5227,
      "Ġ1957": 5228,
      "Ġ1959": 5229,
      "Ġstudent": 5230,
      "Ġcalcul": 5231,
      "Ġcommunities": 5232,
      "Ġsupported": 5233,
      "Ġchoose": 5234,
      "Ġawarded": 5235,
      "Ġsucceed": 5236,
      "Ġtemple": 5237,
      "black": 5238,
      "Ġhistoric": 5239,
      "Ġbalance": 5240,
      "Ġcustomer": 5241,
      "Ġassistant": 5242,
      "Ġchicken": 5243,
      "Ġbavaria": 5244,
      "Ġexercise": 5245,
      "emplo": 5246,
      "25": 5247,
      "cht": 5248,
      "die": 5249,
      "iy": 5250,
      "won": 5251,
      "Ġtough": 5252,
      "Ġsilly": 5253,
      "oul": 5254,
      "happ": 5255,
      "Ġded": 5256,
      "ision": 5257,
      "Ġhye": 5258,
      "Ġmeas": 5259,
      "uries": 5260,
      "ante": 5261,
      "Ġspoke": 5262,
      "ipped": 5263,
      "Ġcalls": 5264,
      "Ġgrew": 5265,
      "going": 5266,
      "Ġends": 5267,
      "Ġ188": 5268,
      "Ġ1973": 5269,
      "Ġ1975": 5270,
      "Ġ1978": 5271,
      "Ġmetal": 5272,
      "Ġ1958": 5273,
      "Ġbusinessman": 5274,
      "someone": 5275,
      "Ġflorence": 5276,
      "Ġanimal": 5277,
      "Ġsarah": 5278,
      "career": 5279,
      "Ġjournalist": 5280,
      "Ġgirlfriend": 5281,
      "Ġpacific": 5282,
      "Ġbarcelona": 5283,
      "mind": 5284,
      "pat": 5285,
      "rat": 5286,
      "zi": 5287,
      "Ġtu": 5288,
      "Ġtag": 5289,
      "Ġtropical": 5290,
      "Ġdakota": 5291,
      "ales": 5292,
      "Ġrevenue": 5293,
      "acement": 5294,
      "Ġasia": 5295,
      "thology": 5296,
      "umber": 5297,
      "rend": 5298,
      "agn": 5299,
      "Ġwrit": 5300,
      "Ġapplic": 5301,
      "lied": 5302,
      "Ġhelps": 5303,
      "Ġoldest": 5304,
      "Ġforms": 5305,
      "Ġmatthew": 5306,
      "Ġfamilies": 5307,
      "Ġ1945": 5308,
      "Ġ1952": 5309,
      "Ġevac": 5310,
      "Ġswitch": 5311,
      "Ġspeakers": 5312,
      "Ġclock": 5313,
      "Ġauthorities": 5314,
      "Ġcomplex": 5315,
      "Ġphilipp": 5316,
      "Ġseemed": 5317,
      "Ġcarrying": 5318,
      "Ġhills": 5319,
      "Ġrequirements": 5320,
      "Ġsurprised": 5321,
      "Ġhoping": 5322,
      "Ġaffected": 5323,
      "Ġentertainment": 5324,
      "Ġemperor": 5325,
      "Ġinhabitants": 5326,
      "bas": 5327,
      "cong": 5328,
      "fred": 5329,
      "swe": 5330,
      "ski": 5331,
      "tv": 5332,
      "vy": 5333,
      "Ġast": 5334,
      "Ġwals": 5335,
      "Ġdomin": 5336,
      "ora": 5337,
      "iture": 5338,
      "Ġgam": 5339,
      "Ġgros": 5340,
      "Ġlas": 5341,
      "iculous": 5342,
      "Ġstreng": 5343,
      "their": 5344,
      "Ġjam": 5345,
      "stone": 5346,
      "Ġloves": 5347,
      "Ġcomfort": 5348,
      "Ġalle": 5349,
      "abeth": 5350,
      "eless": 5351,
      "Ġlect": 5352,
      "Ġagency": 5353,
      "Ġguest": 5354,
      "Ġlaun": 5355,
      "avier": 5356,
      "Ġregul": 5357,
      "coll": 5358,
      "Ġuseful": 5359,
      "Ġtrial": 5360,
      "ika": 5361,
      "Ġplanned": 5362,
      "Ġraise": 5363,
      "Ġsalary": 5364,
      "ropol": 5365,
      "Ġrestaur": 5366,
      "Ġboyfriend": 5367,
      "Ġaustria": 5368,
      "Ġballs": 5369,
      "Ġvirt": 5370,
      "Ġcondition": 5371,
      "Ġfailed": 5372,
      "Ġturk": 5373,
      "Ġjulia": 5374,
      "Ġapparently": 5375,
      "Ġwalsall": 5376,
      "60": 5377,
      "bad": 5378,
      "later": 5379,
      "pot": 5380,
      "rzburg": 5381,
      "ym": 5382,
      "Ġ;": 5383,
      "Ġurban": 5384,
      "Ġwound": 5385,
      "Ġsed": 5386,
      "oned": 5387,
      "Ġbug": 5388,
      "Ġanne": 5389,
      "edia": 5390,
      "Ġinnit": 5391,
      "alie": 5392,
      "Ġkat": 5393,
      "Ġselling": 5394,
      "eau": 5395,
      "ophy": 5396,
      "Ġknowing": 5397,
      "Ġunemplo": 5398,
      "Ġconv": 5399,
      "emic": 5400,
      "Ġfeature": 5401,
      "Ġgrass": 5402,
      "Ġadmit": 5403,
      "Ġscene": 5404,
      "Ġjoy": 5405,
      "door": 5406,
      "undant": 5407,
      "fecture": 5408,
      "Ġretire": 5409,
      "Ġ1933": 5410,
      "Ġbird": 5411,
      "Ġshock": 5412,
      "somebody": 5413,
      "Ġequal": 5414,
      "Ġrequest": 5415,
      "Ġlevels": 5416,
      "Ġphilip": 5417,
      "Ġconcern": 5418,
      "Ġproperly": 5419,
      "Ġfaith": 5420,
      "mission": 5421,
      "Ġindustrial": 5422,
      "Ġbathroom": 5423,
      "Ġarrived": 5424,
      "Ġweapons": 5425,
      "Ġprincip": 5426,
      "Ġcamera": 5427,
      "Ġautomatic": 5428,
      "Ġbasketball": 5429,
      "ropriate": 5430,
      "david": 5431,
      "alysis": 5432,
      "Ġgeorgia": 5433,
      "cor": 5434,
      "fit": 5435,
      "fif": 5436,
      "must": 5437,
      "ng": 5438,
      "nick": 5439,
      "py": 5440,
      "sing": 5441,
      "Ġwet": 5442,
      "Ġcous": 5443,
      "Ġol": 5444,
      "Ġos": 5445,
      "Ġpand": 5446,
      "Ġpence": 5447,
      "itect": 5448,
      "Ġlane": 5449,
      "att": 5450,
      "Ġkir": 5451,
      "stra": 5452,
      "Ġalt": 5453,
      "quar": 5454,
      "urer": 5455,
      "teenth": 5456,
      "Ġcarl": 5457,
      "aval": 5458,
      "Ġslate": 5459,
      "Ġconsist": 5460,
      "Ġrelative": 5461,
      "Ġ1944": 5462,
      "Ġrecording": 5463,
      "Ġpatrick": 5464,
      "Ġlearning": 5465,
      "Ġsugar": 5466,
      "Ġagreement": 5467,
      "Ġaustralian": 5468,
      "Ġtreaty": 5469,
      "Ġglobal": 5470,
      "Ġcomplain": 5471,
      "Ġfresh": 5472,
      "Ġprocedures": 5473,
      "Ġmedicine": 5474,
      "today": 5475,
      "Ġguilty": 5476,
      "ban": 5477,
      "girl": 5478,
      "jam": 5479,
      "las": 5480,
      "oba": 5481,
      "pal": 5482,
      "ran": 5483,
      "rad": 5484,
      "Ġou": 5485,
      "Ġcin": 5486,
      "Ġdick": 5487,
      "Ġpul": 5488,
      "Ġpatch": 5489,
      "Ġniger": 5490,
      "Ġhide": 5491,
      "Ġjac": 5492,
      "imately": 5493,
      "Ġdoo": 5494,
      "Ġdoors": 5495,
      "Ġseasons": 5496,
      "thr": 5497,
      "again": 5498,
      "Ġquant": 5499,
      "Ġotherwise": 5500,
      "Ġoverall": 5501,
      "ensions": 5502,
      "Ġafterwards": 5503,
      "Ġscrew": 5504,
      "uctions": 5505,
      "Ġsixteen": 5506,
      "Ġ1967": 5507,
      "Ġassum": 5508,
      "Ġjohnny": 5509,
      "Ġsenator": 5510,
      "welcome": 5511,
      "Ġburied": 5512,
      "Ġcollection": 5513,
      "Ġspending": 5514,
      "Ġapproach": 5515,
      "Ġangry": 5516,
      "Ġstatus": 5517,
      "Ġidentified": 5518,
      "worth": 5519,
      "Ġnecessarily": 5520,
      "Ġsurprise": 5521,
      "Ġmountains": 5522,
      "Ġreferred": 5523,
      "Ġconfederate": 5524,
      "Ġdeliver": 5525,
      "Ġinstitute": 5526,
      "Ġapologize": 5527,
      "Ġtheatre": 5528,
      "Ġcortana": 5529,
      "fam": 5530,
      "gro": 5531,
      "kar": 5532,
      "nan": 5533,
      "song": 5534,
      "tan": 5535,
      "Ġaz": 5536,
      "inson": 5537,
      "Ġiii": 5538,
      "haba": 5539,
      "Ġlor": 5540,
      "Ġbecomes": 5541,
      "ente": 5542,
      "Ġrick": 5543,
      "Ġforced": 5544,
      "istan": 5545,
      "april": 5546,
      "Ġupper": 5547,
      "Ġplenty": 5548,
      "cket": 5549,
      "rens": 5550,
      "Ġencour": 5551,
      "Ġpoly": 5552,
      "however": 5553,
      "Ġpregn": 5554,
      "Ġapple": 5555,
      "Ġrecent": 5556,
      "mann": 5557,
      "Ġpho": 5558,
      "Ġexplo": 5559,
      "Ġimpossible": 5560,
      "Ġhanging": 5561,
      "Ġassurance": 5562,
      "Ġcolomb": 5563,
      "Ġ1954": 5564,
      "Ġreduced": 5565,
      "Ġprovided": 5566,
      "Ġorganism": 5567,
      "Ġjealous": 5568,
      "Ġlegend": 5569,
      "Ġpowerful": 5570,
      "Ġattacked": 5571,
      "Ġreflect": 5572,
      "Ġorganizations": 5573,
      "Ġdecisions": 5574,
      "Ġships": 5575,
      "Ġdisappear": 5576,
      "Ġdisappoint": 5577,
      "Ġpleasure": 5578,
      "Ġticket": 5579,
      "Ġarchitect": 5580,
      "cellent": 5581,
      "Ġoccurred": 5582,
      "Ġnegative": 5583,
      "hurry": 5584,
      "Ġsymbol": 5585,
      "speaking": 5586,
      "Ġcircumst": 5587,
      "bur": 5588,
      "pha": 5589,
      "yment": 5590,
      "Ġshan": 5591,
      "Ġcot": 5592,
      "Ġbible": 5593,
      "Ġborrow": 5594,
      "Ġfisher": 5595,
      "Ġdoug": 5596,
      "order": 5597,
      "eding": 5598,
      "Ġgut": 5599,
      "Ġnur": 5600,
      "athe": 5601,
      "lear": 5602,
      "ette": 5603,
      "Ġelder": 5604,
      "Ġkings": 5605,
      "imet": 5606,
      "adium": 5607,
      "roat": 5608,
      "Ġdoct": 5609,
      "Ġeric": 5610,
      "Ġneither": 5611,
      "umi": 5612,
      "Ġnoise": 5613,
      "Ġarmen": 5614,
      "aging": 5615,
      "Ġamend": 5616,
      "uguay": 5617,
      "ivity": 5618,
      "bey": 5619,
      "Ġcommander": 5620,
      "izing": 5621,
      "Ġufo": 5622,
      "Ġchanging": 5623,
      "Ġspell": 5624,
      "Ġswiss": 5625,
      "Ġsett": 5626,
      "Ġkilling": 5627,
      "Ġ1955": 5628,
      "Ġreduce": 5629,
      "Ġprovin": 5630,
      "cilia": 5631,
      "Ġpriest": 5632,
      "Ġveget": 5633,
      "Ġeventually": 5634,
      "Ġcops": 5635,
      "Ġimmigr": 5636,
      "Ġvictory": 5637,
      "Ġappears": 5638,
      "Ġdescribe": 5639,
      "Ġfailure": 5640,
      "Ġcyclist": 5641,
      "Ġwedding": 5642,
      "Ġpapers": 5643,
      "Ġsharp": 5644,
      "Ġgalax": 5645,
      "Ġdollars": 5646,
      "Ġpakhangba": 5647,
      "Ġphoenix": 5648,
      "28": 5649,
      "away": 5650,
      "blo": 5651,
      "cing": 5652,
      "dan": 5653,
      "far": 5654,
      "kins": 5655,
      "Ġtie": 5656,
      "Ġcateg": 5657,
      "Ġowe": 5658,
      "Ġdying": 5659,
      "Ġpy": 5660,
      "Ġpink": 5661,
      "Ġpure": 5662,
      "astern": 5663,
      "Ġreference": 5664,
      "Ġrang": 5665,
      "Ġross": 5666,
      "Ġrank": 5667,
      "uten": 5668,
      "aches": 5669,
      "step": 5670,
      "istics": 5671,
      "ulty": 5672,
      "Ġvic": 5673,
      "...?": 5674,
      "iels": 5675,
      "emen": 5676,
      "Ġresist": 5677,
      "Ġprevent": 5678,
      "Ġkelly": 5679,
      "Ġparag": 5680,
      "Ġflowers": 5681,
      "Ġfoundation": 5682,
      "Ġsixth": 5683,
      "Ġedition": 5684,
      "Ġeditor": 5685,
      "Ġmississippi": 5686,
      "Ġcapac": 5687,
      "phil": 5688,
      "Ġthousands": 5689,
      "Ġrespond": 5690,
      "Ġspeaker": 5691,
      "Ġchecked": 5692,
      "Ġ1928": 5693,
      "Ġdrinking": 5694,
      "Ġepisodes": 5695,
      "Ġdiscussion": 5696,
      "Ġliterature": 5697,
      "Ġtemperature": 5698,
      "Ġbastard": 5699,
      "bury": 5700,
      "cest": 5701,
      "fs": 5702,
      "pers": 5703,
      "hem": 5704,
      "Ġwake": 5705,
      "Ġsin": 5706,
      "Ġslo": 5707,
      "Ġbone": 5708,
      "Ġbax": 5709,
      "icide": 5710,
      "aylor": 5711,
      "Ġbeer": 5712,
      "igg": 5713,
      "una": 5714,
      "Ġsel": 5715,
      "Ġfract": 5716,
      "Ġlibr": 5717,
      "Ġdemon": 5718,
      "aine": 5719,
      "Ġmole": 5720,
      "Ġupstairs": 5721,
      "pping": 5722,
      "Ġpoems": 5723,
      "Ġperu": 5724,
      "Ġminus": 5725,
      "Ġeliz": 5726,
      "Ġattorn": 5727,
      "Ġpolitics": 5728,
      "box": 5729,
      "Ġcolleagues": 5730,
      "Ġturning": 5731,
      "Ġ1948": 5732,
      "Ġentered": 5733,
      "Ġ1938": 5734,
      "Ġfuckin": 5735,
      "baij": 5736,
      "Ġconfl": 5737,
      "Ġhardly": 5738,
      "Ġrooms": 5739,
      "without": 5740,
      "trans": 5741,
      "apping": 5742,
      "Ġpromised": 5743,
      "chers": 5744,
      "Ġbrazilian": 5745,
      "ronic": 5746,
      "Ġrequirement": 5747,
      "Ġparticipated": 5748,
      "Ġuruguay": 5749,
      "Ġprotests": 5750,
      "Ġduke": 5751,
      "Ġopposite": 5752,
      "Ġkorea": 5753,
      "Ġprincess": 5754,
      "Ġathlet": 5755,
      "Ġlaunched": 5756,
      "26": 5757,
      "45": 5758,
      "such": 5759,
      "tis": 5760,
      "town": 5761,
      "zo": 5762,
      "Ġtam": 5763,
      "Ġaim": 5764,
      "Ġig": 5765,
      "orter": 5766,
      "Ġanton": 5767,
      "Ġlam": 5768,
      "Ġny": 5769,
      "icated": 5770,
      "idency": 5771,
      "Ġmeasure": 5772,
      "Ġbutt": 5773,
      "Ġteach": 5774,
      "Ġadam": 5775,
      "Ġpoem": 5776,
      "Ġscrap": 5777,
      "Ġblind": 5778,
      "Ġappropriate": 5779,
      "many": 5780,
      "Ġohio": 5781,
      "Ġmathe": 5782,
      "Ġcounties": 5783,
      "Ġ1963": 5784,
      "Ġassess": 5785,
      "Ġtownship": 5786,
      "Ġsurface": 5787,
      "Ġsigns": 5788,
      "Ġ179": 5789,
      "Ġevil": 5790,
      "Ġcutting": 5791,
      "Ġchocol": 5792,
      "Ġdeterm": 5793,
      "Ġshops": 5794,
      "Ġmadam": 5795,
      "Ġolympic": 5796,
      "Ġfilled": 5797,
      "Ġgraduating": 5798,
      "Ġdestroyed": 5799,
      "Ġcrisis": 5800,
      "Ġintellig": 5801,
      "Ġconflict": 5802,
      "bab": 5803,
      "each": 5804,
      "hl": 5805,
      "lom": 5806,
      "long": 5807,
      "mike": 5808,
      "uals": 5809,
      "vaud": 5810,
      "Ġtes": 5811,
      "Ġsides": 5812,
      "anne": 5813,
      "Ġfict": 5814,
      "Ġdare": 5815,
      "Ġancest": 5816,
      "itz": 5817,
      "Ġinfect": 5818,
      "Ġnaz": 5819,
      "ala": 5820,
      "Ġheight": 5821,
      "leep": 5822,
      "aya": 5823,
      "lying": 5824,
      "oded": 5825,
      "Ġwhom": 5826,
      "okes": 5827,
      "Ġorange": 5828,
      "Ġcomplic": 5829,
      "sho": 5830,
      "Ġrecall": 5831,
      "Ġowners": 5832,
      "Ġ80": 5833,
      "spike": 5834,
      "Ġ1951": 5835,
      "Ġsimon": 5836,
      "Ġ1931": 5837,
      "Ġille": 5838,
      "nesday": 5839,
      "Ġoperating": 5840,
      "ricult": 5841,
      "Ġstarred": 5842,
      "Ġelement": 5843,
      "Ġengineering": 5844,
      "Ġarrondissement": 5845,
      "Ġpoetry": 5846,
      "Ġemploye": 5847,
      "Ġrevolutionary": 5848,
      "Ġtanker": 5849,
      "Ġinspector": 5850,
      "Ġdynasty": 5851,
      "orporated": 5852,
      "Ġadvantage": 5853,
      "'.": 5854,
      "ben": 5855,
      "bish": 5856,
      "cur": 5857,
      "hou": 5858,
      "horn": 5859,
      "jesus": 5860,
      "name": 5861,
      "nard": 5862,
      "uen": 5863,
      "Ġaunt": 5864,
      "Ġcute": 5865,
      "aning": 5866,
      "Ġfancy": 5867,
      "Ġdwell": 5868,
      "Ġduck": 5869,
      "Ġdressed": 5870,
      "Ġpup": 5871,
      "ingham": 5872,
      "ashed": 5873,
      "Ġnad": 5874,
      "Ġhamp": 5875,
      "Ġrelax": 5876,
      "Ġstor": 5877,
      "allow": 5878,
      "Ġfraud": 5879,
      "Ġlif": 5880,
      "Ġliqu": 5881,
      "ustr": 5882,
      "Ġknowledge": 5883,
      "Ġnoted": 5884,
      "rible": 5885,
      "Ġcomments": 5886,
      "quir": 5887,
      "apo": 5888,
      "rences": 5889,
      "Ġcovers": 5890,
      "Ġours": 5891,
      "Ġeverywhere": 5892,
      "izes": 5893,
      "Ġsupreme": 5894,
      "Ġreco": 5895,
      "Ġgenus": 5896,
      "Ġcreation": 5897,
      "goodbye": 5898,
      "Ġdaily": 5899,
      "Ġsteam": 5900,
      "Ġsoul": 5901,
      "Ġprofession": 5902,
      "Ġshopping": 5903,
      "Ġhonour": 5904,
      "commod": 5905,
      "Ġpotential": 5906,
      "Ġwoods": 5907,
      "Ġtower": 5908,
      "Ġmixed": 5909,
      "igenous": 5910,
      "Ġethnic": 5911,
      "Ġfreedom": 5912,
      "happy": 5913,
      "Ġcapacity": 5914,
      ",.": 5915,
      "bro": 5916,
      "cd": 5917,
      "hn": 5918,
      "james": 5919,
      "low": 5920,
      "might": 5921,
      "rics": 5922,
      "sed": 5923,
      "wall": 5924,
      "ĠâĻ«": 5925,
      "Ġwha": 5926,
      "Ġsi": 5927,
      "Ġmu": 5928,
      "Ġfurn": 5929,
      "enzie": 5930,
      "Ġpair": 5931,
      "ester": 5932,
      "Ġgain": 5933,
      "Ġlyn": 5934,
      "asc": 5935,
      "Ġhu": 5936,
      "Ġbeach": 5937,
      "Ġrome": 5938,
      "Ġstood": 5939,
      "Ġjon": 5940,
      "Ġsem": 5941,
      "Ġera": 5942,
      "Ġages": 5943,
      "Ġagricult": 5944,
      "Ġenem": 5945,
      "bered": 5946,
      "Ġaccommod": 5947,
      "Ġindigenous": 5948,
      "Ġuci": 5949,
      "uctive": 5950,
      "Ġshowing": 5951,
      "Ġsorts": 5952,
      "Ġdesk": 5953,
      "Ġobs": 5954,
      "Ġ1971": 5955,
      "Ġ1961": 5956,
      "Ġkidn": 5957,
      "Ġsteve": 5958,
      "Ġdeaths": 5959,
      "Ġsalt": 5960,
      "Ġbirds": 5961,
      "Ġreceive": 5962,
      "Ġmurdered": 5963,
      "Ġoccasion": 5964,
      "Ġdreams": 5965,
      "Ġcritical": 5966,
      "Ġincreased": 5967,
      "Ġlimit": 5968,
      "Ġpulled": 5969,
      "borough": 5970,
      "Ġukrainian": 5971,
      "Ġsanta": 5972,
      "Ġescape": 5973,
      "Ġtalent": 5974,
      "Ġraymond": 5975,
      "Ġadopted": 5976,
      "Ġcatalonia": 5977,
      "Ġreckon": 5978,
      "Ġcompleted": 5979,
      "rigo": 5980,
      "',": 5981,
      "70": 5982,
      "bian": 5983,
      "gon": 5984,
      "ker": 5985,
      "mary": 5986,
      "su": 5987,
      "show": 5988,
      "tic": 5989,
      "wer": 5990,
      "Ġtip": 5991,
      "Ġaur": 5992,
      "includ": 5993,
      "Ġwid": 5994,
      "Ġwik": 5995,
      "Ġfan": 5996,
      "eds": 5997,
      "Ġofthe": 5998,
      "Ġandy": 5999,
      "Ġthroat": 6000,
      "Ġkham": 6001,
      "Ġford": 6002,
      "irmed": 6003,
      "cho": 6004,
      "Ġliver": 6005,
      "Ġabd": 6006,
      "Ġvin": 6007,
      "resp": 6008,
      "Ġquid": 6009,
      "Ġgrown": 6010,
      "Ġparties": 6011,
      "icks": 6012,
      "Ġproud": 6013,
      "Ġboot": 6014,
      "white": 6015,
      "icted": 6016,
      "Ġcompens": 6017,
      "Ġacid": 6018,
      "Ġscen": 6019,
      "Ġsched": 6020,
      "Ġholl": 6021,
      "Ġchart": 6022,
      "ucted": 6023,
      "Ġdeserve": 6024,
      "laugh": 6025,
      "alex": 6026,
      "Ġmuslim": 6027,
      "Ġcolumn": 6028,
      "Ġ1934": 6029,
      "Ġ1936": 6030,
      "Ġadditional": 6031,
      "Ġtelephone": 6032,
      "Ġextent": 6033,
      "etera": 6034,
      "Ġ1927": 6035,
      "Ġ1929": 6036,
      "Ġridiculous": 6037,
      "Ġsquad": 6038,
      "Ġfreud": 6039,
      "porary": 6040,
      "Ġdevice": 6041,
      "Ġterror": 6042,
      "Ġangle": 6043,
      "Ġquarry": 6044,
      "Ġwilliams": 6045,
      "belie": 6046,
      "Ġdiagn": 6047,
      "Ġconsumption": 6048,
      "Ġcriminal": 6049,
      "Ġcircumstances": 6050,
      "Ġfictional": 6051,
      "dar": 6052,
      "honey": 6053,
      "iat": 6054,
      "jim": 6055,
      "nings": 6056,
      "tim": 6057,
      "vant": 6058,
      "vation": 6059,
      "yla": 6060,
      "Ġay": 6061,
      "Ġcards": 6062,
      "Ġbum": 6063,
      "Ġbund": 6064,
      "Ġmck": 6065,
      "Ġdv": 6066,
      "enn": 6067,
      "Ġtoy": 6068,
      "Ġga": 6069,
      "Ġhug": 6070,
      "Ġkum": 6071,
      "Ġfright": 6072,
      "Ġmosc": 6073,
      "Ġcontext": 6074,
      "Ġmyster": 6075,
      "osen": 6076,
      "ema": 6077,
      "rael": 6078,
      "Ġwhoa": 6079,
      "Ġactions": 6080,
      "Ġjoke": 6081,
      "atherine": 6082,
      "Ġgene": 6083,
      "Ġzero": 6084,
      "Ġkeeps": 6085,
      "Ġcolumb": 6086,
      "plus": 6087,
      "Ġbloke": 6088,
      "Ġinstance": 6089,
      "arrass": 6090,
      "iety": 6091,
      "Ġpicking": 6092,
      "master": 6093,
      "Ġsolution": 6094,
      "Ġsoldier": 6095,
      "Ġincreasing": 6096,
      "ondissements": 6097,
      "Ġcirc": 6098,
      "Ġgrowing": 6099,
      "Ġargument": 6100,
      "Ġproducts": 6101,
      "Ġconnection": 6102,
      "****": 6103,
      "Ġtraditional": 6104,
      "Ġwales": 6105,
      "Ġbelongs": 6106,
      "Ġegyptian": 6107,
      "president": 6108,
      "Ġproposed": 6109,
      "Ġargentina": 6110,
      "Ġbronze": 6111,
      "ropolitan": 6112,
      "Ġattorney": 6113,
      "Ġmathemat": 6114,
      "29": 6115,
      "bles": 6116,
      "date": 6117,
      "fur": 6118,
      "ji": 6119,
      "jin": 6120,
      "jac": 6121,
      "mill": 6122,
      "mine": 6123,
      "pool": 6124,
      "zona": 6125,
      "Ġult": 6126,
      "Ġwave": 6127,
      "haus": 6128,
      "Ġcraft": 6129,
      "Ġbc": 6130,
      "Ġmath": 6131,
      "Ġdust": 6132,
      "organ": 6133,
      "ingu": 6134,
      "Ġlind": 6135,
      "Ġandrew": 6136,
      "utions": 6137,
      "sell": 6138,
      "seven": 6139,
      "Ġdoc": 6140,
      "thur": 6141,
      "Ġfruit": 6142,
      "tery": 6143,
      "Ġlies": 6144,
      "Ġmoves": 6145,
      "Ġworship": 6146,
      "Ġconcept": 6147,
      "Ġshr": 6148,
      "inde": 6149,
      "Ġcock": 6150,
      "Ġpray": 6151,
      "Ġenc": 6152,
      "Ġbog": 6153,
      "Ġcommitted": 6154,
      "ensity": 6155,
      "Ġrescue": 6156,
      "ilda": 6157,
      "Ġcrap": 6158,
      "Ġcrash": 6159,
      "Ġchester": 6160,
      "Ġflows": 6161,
      "Ġhousehold": 6162,
      "Ġ185": 6163,
      "Ġattitude": 6164,
      "Ġ73": 6165,
      "Ġsyn": 6166,
      "Ġtribut": 6167,
      "boat": 6168,
      "Ġrelations": 6169,
      "ierre": 6170,
      "phy": 6171,
      "Ġlarry": 6172,
      "Ġsteel": 6173,
      "Ġincred": 6174,
      "Ġevan": 6175,
      "Ġpossibility": 6176,
      "Ġsupporting": 6177,
      "Ġoperations": 6178,
      "ancies": 6179,
      "Ġbandage": 6180,
      "Ġactivity": 6181,
      "Ġphilos": 6182,
      "Ġvictor": 6183,
      "Ġgrowth": 6184,
      "Ġseventeen": 6185,
      "Ġrecognize": 6186,
      "Ġindependence": 6187,
      "Ġshooting": 6188,
      "Ġracing": 6189,
      "break": 6190,
      "Ġdelivery": 6191,
      "Ġviolence": 6192,
      "Ġdestroy": 6193,
      "Ġambass": 6194,
      "Ġroute": 6195,
      "Ġconservative": 6196,
      "Ġadventure": 6197,
      "Ġmargaret": 6198,
      "Ġvietnam": 6199,
      "Ġopinion": 6200,
      "Ġcousin": 6201,
      "Ġcotton": 6202,
      "Ġlibrary": 6203,
      "bie": 6204,
      "bby": 6205,
      "det": 6206,
      "gra": 6207,
      "oy": 6208,
      "Ġtat": 6209,
      "Ġazer": 6210,
      "erto": 6211,
      "Ġmut": 6212,
      "Ġfinger": 6213,
      "Ġdiss": 6214,
      "Ġdirty": 6215,
      "Ġpinkie": 6216,
      "Ġpowers": 6217,
      "ede": 6218,
      "ario": 6219,
      "Ġislam": 6220,
      "etime": 6221,
      "Ġhaw": 6222,
      "Ġhara": 6223,
      "Ġreality": 6224,
      "Ġrand": 6225,
      "Ġkr": 6226,
      "Ġkyle": 6227,
      "illed": 6228,
      "rier": 6229,
      "uments": 6230,
      "Ġsheet": 6231,
      "Ġsheriff": 6232,
      "quick": 6233,
      "osis": 6234,
      "Ġprovision": 6235,
      "abor": 6236,
      "Ġteeth": 6237,
      "rene": 6238,
      "Ġprices": 6239,
      "Ġboston": 6240,
      "Ġdisaster": 6241,
      "Ġholy": 6242,
      "death": 6243,
      "Ġharv": 6244,
      "Ġcharges": 6245,
      "Ġowner": 6246,
      "Ġ70": 6247,
      "Ġcreating": 6248,
      "Ġbreath": 6249,
      "Ġaccounts": 6250,
      "Ġ1932": 6251,
      "Ġsalzburg": 6252,
      "uki": 6253,
      "ursday": 6254,
      "Ġexplained": 6255,
      "Ġpurple": 6256,
      "Ġsuggested": 6257,
      "Ġidentify": 6258,
      "Ġrecognized": 6259,
      "Ġappointment": 6260,
      "Ġneighbor": 6261,
      "Ġembarrass": 6262,
      "Ġpilot": 6263,
      "Ġchemical": 6264,
      "Ġatlantic": 6265,
      "Ġamendment": 6266,
      "Ġdemonstr": 6267,
      "Ġchocolate": 6268,
      "laughs": 6269,
      "Ġmoscow": 6270,
      "Ġazerbaij": 6271,
      "27": 6272,
      "48": 6273,
      "fil": 6274,
      "lon": 6275,
      "lies": 6276,
      "lah": 6277,
      "lines": 6278,
      "prod": 6279,
      "tha": 6280,
      "top": 6281,
      "Ġfet": 6282,
      "Ġfeder": 6283,
      "enna": 6284,
      "Ġanthem": 6285,
      "Ġginger": 6286,
      "Ġnea": 6287,
      "oms": 6288,
      "Ġhir": 6289,
      "Ġreign": 6290,
      "Ġkent": 6291,
      "ldon": 6292,
      "amm": 6293,
      "andra": 6294,
      "upin": 6295,
      "Ġvent": 6296,
      "...\"": 6297,
      "queen": 6298,
      "Ġconsequ": 6299,
      "appa": 6300,
      "Ġplot": 6301,
      "Ġplaced": 6302,
      "Ġexamples": 6303,
      "Ġexchange": 6304,
      "mmm": 6305,
      "Ġmarine": 6306,
      "bec": 6307,
      "Ġovertime": 6308,
      "Ìģ,": 6309,
      "Ġcomposed": 6310,
      "Ġgreg": 6311,
      "Ġlaid": 6312,
      "Ġbless": 6313,
      "Ġblame": 6314,
      "Ġblank": 6315,
      "Ġ33": 6316,
      "Ġprepar": 6317,
      "Ġprefecture": 6318,
      "Ġdepends": 6319,
      "Ġpresidency": 6320,
      "Ġchest": 6321,
      "Ġlasted": 6322,
      "Ġsmoking": 6323,
      "Ġ180": 6324,
      "Ġ187": 6325,
      "Ġ74": 6326,
      "Ġdecor": 6327,
      "Ġrealized": 6328,
      "Ġplanet": 6329,
      "Ġhighway": 6330,
      "certain": 6331,
      "crit": 6332,
      "Ġdefence": 6333,
      "Ġdefense": 6334,
      "Ġcurtis": 6335,
      "Ġconfirmed": 6336,
      "Ġwinner": 6337,
      "Ġvillages": 6338,
      "Ġrivers": 6339,
      "Ġbuildings": 6340,
      "Ġfilms": 6341,
      "Ġclassic": 6342,
      "Ġsolid": 6343,
      "Ġrequired": 6344,
      "Ġcasual": 6345,
      "Ġprojects": 6346,
      "Ġmassive": 6347,
      "Ġdistribution": 6348,
      "Ġkitty": 6349,
      "Ġcloser": 6350,
      "Ġclaimed": 6351,
      "Ġmirror": 6352,
      "Ġbowling": 6353,
      "Ġpriority": 6354,
      "Ġinfluence": 6355,
      "Ġfantasy": 6356,
      "Ġdomest": 6357,
      "Ġarizona": 6358,
      "woman": 6359,
      "Ġremoved": 6360,
      "Ġstrength": 6361,
      "utenant": 6362,
      "Ġelizabeth": 6363,
      "ares": 6364,
      "bly": 6365,
      "fight": 6366,
      "fire": 6367,
      "little": 6368,
      "wha": 6369,
      "rec": 6370,
      "Ġign": 6371,
      "Ġfame": 6372,
      "orin": 6373,
      "Ġpitch": 6374,
      "Ġger": 6375,
      "Ġstadium": 6376,
      "theastern": 6377,
      "Ġmeal": 6378,
      "....": 6379,
      "iro": 6380,
      "Ġwhis": 6381,
      "ulate": 6382,
      "Ġdivis": 6383,
      "Ġbackground": 6384,
      "Ġhoward": 6385,
      "Ġadvert": 6386,
      "Ġgrey": 6387,
      "clus": 6388,
      "club": 6389,
      "ksh": 6390,
      "movie": 6391,
      "Ġkeys": 6392,
      "Ġworldwide": 6393,
      "Ġcheese": 6394,
      "Ġscholar": 6395,
      "Ġdirectory": 6396,
      "Ġseconds": 6397,
      "Ġjane": 6398,
      "Ġ76": 6399,
      "Ġobvious": 6400,
      "Ġcauses": 6401,
      "Ġmetropolitan": 6402,
      "Ġmillions": 6403,
      "azz": 6404,
      "Ġ1949": 6405,
      "Ġraf": 6406,
      "Ġhumans": 6407,
      "Ġgrandma": 6408,
      "Ġannual": 6409,
      "Ġestate": 6410,
      "Ġdraft": 6411,
      "Ġflood": 6412,
      "Ġapartment": 6413,
      "Ġloud": 6414,
      "Ġpolicies": 6415,
      "Ġverb": 6416,
      "Ġsexual": 6417,
      "offic": 6418,
      "Ġborough": 6419,
      "Ġvoting": 6420,
      "Ġpensioners": 6421,
      "Ġcultural": 6422,
      "Ġdeclared": 6423,
      "Ġwednesday": 6424,
      "Ġcomposer": 6425,
      "Ġjunior": 6426,
      "Ġtaste": 6427,
      "Ġtasks": 6428,
      "Ġextremely": 6429,
      "dri": 6430,
      "iac": 6431,
      "pri": 6432,
      "peter": 6433,
      "sn": 6434,
      "sal": 6435,
      "uy": 6436,
      "uate": 6437,
      "Ġtaylor": 6438,
      "reck": 6439,
      "Ġsod": 6440,
      "Ġsang": 6441,
      "Ġsession": 6442,
      "haw": 6443,
      "Ġbond": 6444,
      "Ġmack": 6445,
      "Ġmount": 6446,
      "Ġfro": 6447,
      "Ġfolk": 6448,
      "Ġpha": 6449,
      "ito": 6450,
      "Ġgained": 6451,
      "Ġlem": 6452,
      "asant": 6453,
      "Ġnuc": 6454,
      "otic": 6455,
      "ache": 6456,
      "Ġstress": 6457,
      "sters": 6458,
      "aded": 6459,
      "Ġsevere": 6460,
      "ilton": 6461,
      "illa": 6462,
      "geme": 6463,
      "Ġloose": 6464,
      "Ġproof": 6465,
      "eman": 6466,
      "ortion": 6467,
      "Ġworker": 6468,
      "Ġgran": 6469,
      "erman": 6470,
      "Ġclients": 6471,
      "Ġcompared": 6472,
      "Ġfold": 6473,
      "Ġaccom": 6474,
      "Ġpocket": 6475,
      "Ġ36": 6476,
      "Ġpreviously": 6477,
      "Ġdepend": 6478,
      "Ġshame": 6479,
      "Ġharm": 6480,
      "Ġattended": 6481,
      "Ġ75": 6482,
      "Ġoblast": 6483,
      "Ġelections": 6484,
      "Ġpersonality": 6485,
      "Ġstandards": 6486,
      "Ġdefend": 6487,
      "Ġ1935": 6488,
      "Ġconfident": 6489,
      "Ġtreasure": 6490,
      "Ġdemocrat": 6491,
      "Ġopera": 6492,
      "Ġdealing": 6493,
      "Ġdelay": 6494,
      "Ġpresented": 6495,
      "Ġbuddy": 6496,
      "Ġcircle": 6497,
      "Ġobjectives": 6498,
      "doesn": 6499,
      "Ġcomedian": 6500,
      "fucking": 6501,
      "Ġmemor": 6502,
      "Ġscientist": 6503,
      "Ġscientific": 6504,
      "Ġreplace": 6505,
      "Ġofficials": 6506,
      "Ġintroduce": 6507,
      "Ġcroat": 6508,
      "better": 6509,
      "Ġpersons": 6510,
      "Ġdetails": 6511,
      "Ġbehalf": 6512,
      "Ġliberal": 6513,
      "Ġstruggle": 6514,
      "Ġfalse": 6515,
      "Ġdespite": 6516,
      "Ġjefferson": 6517,
      "Ġetcetera": 6518,
      "Ġguarant": 6519,
      "Ġwriters": 6520,
      "Ġpregnant": 6521,
      "Ġdoctors": 6522,
      "july": 6523,
      "var": 6524,
      "wick": 6525,
      "Ġub": 6526,
      "Ġurg": 6527,
      "Ġmail": 6528,
      "Ġoak": 6529,
      "orters": 6530,
      "lley": 6531,
      "itors": 6532,
      "Ġyout": 6533,
      "arm": 6534,
      "around": 6535,
      "Ġandre": 6536,
      "Ġisrael": 6537,
      "Ġstake": 6538,
      "stit": 6539,
      "stood": 6540,
      "robert": 6541,
      "Ġsector": 6542,
      "Ġcann": 6543,
      "oker": 6544,
      "Ġalaska": 6545,
      "Ġunlike": 6546,
      "Ġconvention": 6547,
      "Ġmythology": 6548,
      "Ġusual": 6549,
      "Ġproceed": 6550,
      "abe": 6551,
      "abi": 6552,
      "iphaba": 6553,
      "Ġchose": 6554,
      "Ġchris": 6555,
      "ager": 6556,
      "Ġwillis": 6557,
      "arel": 6558,
      "active": 6559,
      "bring": 6560,
      "brother": 6561,
      "ords": 6562,
      "Ġserving": 6563,
      "irect": 6564,
      "force": 6565,
      "Ġbuying": 6566,
      "Ġshad": 6567,
      "Ġdrunk": 6568,
      "Ġsurely": 6569,
      "tony": 6570,
      "Ġsymp": 6571,
      "Ġcapability": 6572,
      "Ġmeters": 6573,
      "ierra": 6574,
      "frank": 6575,
      "Ġ1937": 6576,
      "otted": 6577,
      "Ġcantons": 6578,
      "Ġtrains": 6579,
      "Ġberlin": 6580,
      "Ġriding": 6581,
      "Ġattacks": 6582,
      "Ġelements": 6583,
      "Ġviews": 6584,
      "Ġjerry": 6585,
      "Ġmemories": 6586,
      "Ġdisappeared": 6587,
      "Ġentirely": 6588,
      "Ġphoto": 6589,
      "Ġalexander": 6590,
      "Ġqualified": 6591,
      "Ġgraduated": 6592,
      "Ġrailway": 6593,
      "Ġregarded": 6594,
      "Ġdefeat": 6595,
      "Ġbangl": 6596,
      "Ġessential": 6597,
      "Ġexciting": 6598,
      "consin": 6599,
      "january": 6600,
      "Ġwisconsin": 6601,
      "Ġpromoted": 6602,
      "chuckles": 6603,
      "Ġjewish": 6604,
      "Ġpandemic": 6605,
      "Ġdwellings": 6606,
      "Ġambassador": 6607,
      "bir": 6608,
      "case": 6609,
      "ele": 6610,
      "gam": 6611,
      "jose": 6612,
      "patch": 6613,
      "sounds": 6614,
      "Ġace": 6615,
      "era": 6616,
      "erik": 6617,
      "Ġbart": 6618,
      "Ġbass": 6619,
      "Ġbunch": 6620,
      "Ġbbc": 6621,
      "Ġmouse": 6622,
      "anth": 6623,
      "Ġfaster": 6624,
      "Ġfiction": 6625,
      "Ġdim": 6626,
      "enced": 6627,
      "oral": 6628,
      "ingers": 6629,
      "Ġanno": 6630,
      "Ġgear": 6631,
      "Ġlan": 6632,
      "always": 6633,
      "Ġwebs": 6634,
      "Ġrum": 6635,
      "Ġrug": 6636,
      "Ġrings": 6637,
      "Ġkam": 6638,
      "utter": 6639,
      "stal": 6640,
      "Ġasleep": 6641,
      "Ġalto": 6642,
      "Ġunions": 6643,
      "rif": 6644,
      "iffe": 6645,
      "ohyla": 6646,
      "Ġuser": 6647,
      "Ġproport": 6648,
      "Ġspark": 6649,
      "ipedia": 6650,
      "ardo": 6651,
      "agre": 6652,
      "agne": 6653,
      "Ġwhenever": 6654,
      "Ġwilling": 6655,
      "Ġpron": 6656,
      "Ġgoodbye": 6657,
      "Ġpool": 6658,
      "Ġlaughing": 6659,
      "onsense": 6660,
      "Ġlongest": 6661,
      "Ġflu": 6662,
      "Ġfinding": 6663,
      "Ġgods": 6664,
      "Ġattend": 6665,
      "Ġ79": 6666,
      "Ġcapit": 6667,
      "Ġassume": 6668,
      "Ġcolon": 6669,
      "Ġhearing": 6670,
      "Ġterry": 6671,
      "Ġnearby": 6672,
      "Ġbengal": 6673,
      "Ġestimate": 6674,
      "Ġexplan": 6675,
      "Ġnetworks": 6676,
      "Ġreasonable": 6677,
      "Ġequation": 6678,
      "Ġcontrolled": 6679,
      "Ġavoid": 6680,
      "Ġbatt": 6681,
      "Ġtechnical": 6682,
      "Ġcommonly": 6683,
      "Ġdennis": 6684,
      "Ġcrying": 6685,
      "Ġmaxwell": 6686,
      "Ġideal": 6687,
      "Ġvehicles": 6688,
      "polit": 6689,
      "Ġlaughs": 6690,
      "Ġbottle": 6691,
      "Ġestimated": 6692,
      "personal": 6693,
      "Ġcaptured": 6694,
      "Ġbaxter": 6695,
      "kshire": 6696,
      "ault": 6697,
      "clo": 6698,
      "gers": 6699,
      "hop": 6700,
      "hol": 6701,
      "iest": 6702,
      "march": 6703,
      "nia": 6704,
      "pen": 6705,
      "rs": 6706,
      "rade": 6707,
      "talk": 6708,
      "Ġ*": 6709,
      "Ġtong": 6710,
      "Ġwire": 6711,
      "Ġwings": 6712,
      "haven": 6713,
      "Ġmental": 6714,
      "Ġfake": 6715,
      "Ġdating": 6716,
      "Ġdumb": 6717,
      "oring": 6718,
      "Ġpunt": 6719,
      "Ġanth": 6720,
      "Ġinno": 6721,
      "Ġnerv": 6722,
      "Ġthin": 6723,
      "Ġonline": 6724,
      "Ġwealth": 6725,
      "Ġreject": 6726,
      "Ġrates": 6727,
      "Ġjury": 6728,
      "eaks": 6729,
      "Ġnegot": 6730,
      "Ġund": 6731,
      "ifying": 6732,
      "Ġshout": 6733,
      "oshi": 6734,
      "Ġplate": 6735,
      "Ġsail": 6736,
      "Ġtwin": 6737,
      "ermann": 6738,
      "neath": 6739,
      "Ġministry": 6740,
      "Ġscale": 6741,
      "Ġdisplay": 6742,
      "forget": 6743,
      "Ġ300": 6744,
      "Ġunderneath": 6745,
      "Ġflow": 6746,
      "Ġsmile": 6747,
      "Ġstrateg": 6748,
      "Ġears": 6749,
      "Ġobser": 6750,
      "Ġinvited": 6751,
      "Ġ1965": 6752,
      "Ġkiller": 6753,
      "Ġsouthwest": 6754,
      "france": 6755,
      "Ġentr": 6756,
      "Ġconfused": 6757,
      "Ġconfidence": 6758,
      "Ġsteven": 6759,
      "paul": 6760,
      "Ġgrandpa": 6761,
      "Ġ1926": 6762,
      "Ġexpert": 6763,
      "Ġalbums": 6764,
      "grees": 6765,
      "william": 6766,
      "Ġengineer": 6767,
      "Ġapprox": 6768,
      "Ġpulling": 6769,
      "Ġsleeping": 6770,
      "Ġreplacement": 6771,
      "Ġnomination": 6772,
      "Ġlieutenant": 6773,
      "Ġvolume": 6774,
      "Ġpleased": 6775,
      "Ġbenefits": 6776,
      "Ġrubbish": 6777,
      "Ġlouisiana": 6778,
      "Ġterritories": 6779,
      "Ġperman": 6780,
      "Ġneighbours": 6781,
      "Ġplatform": 6782,
      "Ġkilomet": 6783,
      "Ġemma": 6784,
      "Ġwikipedia": 6785,
      "Ġnervous": 6786,
      "Ġnegoti": 6787,
      ".'": 6788,
      "aug": 6789,
      "fair": 6790,
      "made": 6791,
      "number": 6792,
      "phan": 6793,
      "rc": 6794,
      "rich": 6795,
      "si": 6796,
      "sim": 6797,
      "tgeme": 6798,
      "Ġue": 6799,
      "Ġavenue": 6800,
      "inal": 6801,
      "reet": 6802,
      "Ġcair": 6803,
      "anced": 6804,
      "Ġfol": 6805,
      "Ġinf": 6806,
      "Ġgather": 6807,
      "ashing": 6808,
      "otion": 6809,
      "Ġbeings": 6810,
      "Ġrise": 6811,
      "utional": 6812,
      "unless": 6813,
      "Ġstream": 6814,
      "ando": 6815,
      "ading": 6816,
      "Ġsees": 6817,
      "olas": 6818,
      "Ġdegrees": 6819,
      "istered": 6820,
      "Ġalbert": 6821,
      "Ġloyal": 6822,
      "Ġmood": 6823,
      "ums": 6824,
      "Ġshel": 6825,
      "osa": 6826,
      "Ġpros": 6827,
      "onel": 6828,
      "february": 6829,
      "Ġpear": 6830,
      "Ġchosen": 6831,
      "Ġquote": 6832,
      "Ġrolling": 6833,
      "Ġgrab": 6834,
      "Ġmaria": 6835,
      "uchi": 6836,
      "Ġcomprom": 6837,
      "braska": 6838,
      "Ġpoison": 6839,
      "Ġjohan": 6840,
      "Ġblast": 6841,
      "Ġcontain": 6842,
      "Ġkevin": 6843,
      "Ġdepressed": 6844,
      "Ġharder": 6845,
      "Ġcarefully": 6846,
      "Ġstops": 6847,
      "Ġ82": 6848,
      "Ġ83": 6849,
      "2017": 6850,
      "Ġidiot": 6851,
      "Ġsetting": 6852,
      "Ġfactor": 6853,
      "Ġfactors": 6854,
      "Ġassass": 6855,
      "looking": 6856,
      "Ġheadquar": 6857,
      "Ġ1953": 6858,
      "Ġprofits": 6859,
      "Ġcutter": 6860,
      "Ġcorps": 6861,
      "ographer": 6862,
      "Ġtai": 6863,
      "Ġchecking": 6864,
      "Ġsuffe": 6865,
      "Ġfrequ": 6866,
      "general": 6867,
      "Ġobjects": 6868,
      "Ġvoted": 6869,
      "idae": 6870,
      "Ġsettlements": 6871,
      "Ġruled": 6872,
      "tomorrow": 6873,
      "Ġtreatment": 6874,
      "Ġtradition": 6875,
      "Ġphysical": 6876,
      "Ġcycling": 6877,
      "Ġtickets": 6878,
      "Ġreaction": 6879,
      "Ġdefeated": 6880,
      "Ġtapes": 6881,
      "Ġryan": 6882,
      "Ġbiden": 6883,
      "Ġoptions": 6884,
      "Ġphilippines": 6885,
      "Ġrestaurant": 6886,
      "Ġcolombia": 6887,
      "Ġnurse": 6888,
      "Ġfurniture": 6889,
      "Ġholland": 6890,
      "Ġharaoba": 6891,
      "61": 6892,
      "bus": 6893,
      "gl": 6894,
      "gium": 6895,
      "hus": 6896,
      "kh": 6897,
      "lav": 6898,
      "pra": 6899,
      "pass": 6900,
      "vic": 6901,
      "wind": 6902,
      "Ġug": 6903,
      "Ġwick": 6904,
      "Ġsally": 6905,
      "Ġsack": 6906,
      "Ġiv": 6907,
      "Ġcope": 6908,
      "Ġbos": 6909,
      "Ġbiels": 6910,
      "Ġmall": 6911,
      "Ġmile": 6912,
      "Ġdea": 6913,
      "Ġped": 6914,
      "especially": 6915,
      "itage": 6916,
      "Ġlen": 6917,
      "Ġnom": 6918,
      "Ġnap": 6919,
      "usa": 6920,
      "Ġeve": 6921,
      "Ġrab": 6922,
      "Ġky": 6923,
      "Ġkim": 6924,
      "uno": 6925,
      "acle": 6926,
      "Ġforgive": 6927,
      "start": 6928,
      "Ġfranch": 6929,
      "opher": 6930,
      "Ġalpha": 6931,
      "Ġunknown": 6932,
      "Ġyourselves": 6933,
      "quest": 6934,
      "Ġshif": 6935,
      "aba": 6936,
      "Ġexcellent": 6937,
      "Ġheritage": 6938,
      "Ġpeop": 6939,
      "ously": 6940,
      "Ġroy": 6941,
      "Ġroof": 6942,
      "Ġgray": 6943,
      "ogue": 6944,
      "Ġ35": 6945,
      "Ġcontent": 6946,
      "Ġhelpful": 6947,
      "Ġremained": 6948,
      "Ġcourage": 6949,
      "Ġfinance": 6950,
      "Ġearned": 6951,
      "Ġpope": 6952,
      "Ġedward": 6953,
      "Ġcapable": 6954,
      "Ġaccur": 6955,
      "except": 6956,
      "Ġdrivers": 6957,
      "Ġclasses": 6958,
      "Ġclubs": 6959,
      "scri": 6960,
      "Ġiran": 6961,
      "Ġbergen": 6962,
      "Ġexpecting": 6963,
      "Ġeducated": 6964,
      "Ġindiana": 6965,
      "Ġsending": 6966,
      "Ġpurcha": 6967,
      "poor": 6968,
      "Ġturkey": 6969,
      "Ġtrading": 6970,
      "design": 6971,
      "Ġhungary": 6972,
      "Ġthrowing": 6973,
      "Ġfantastic": 6974,
      "adeshiko": 6975,
      "Ġrodrigo": 6976,
      "Ġprecip": 6977,
      "Ġscotland": 6978,
      "Ġorganisation": 6979,
      "Ġconstituency": 6980,
      "Ġindonesia": 6981,
      "Ġelderly": 6982,
      "Ġcompensation": 6983,
      "Ġdomestic": 6984,
      "Ġsuffered": 6985,
      "37": 6986,
      "38": 6987,
      "99": 6988,
      "cre": 6989,
      "cia": 6990,
      "hye": 6991,
      "kin": 6992,
      "main": 6993,
      "mers": 6994,
      "oft": 6995,
      "point": 6996,
      "rac": 6997,
      "rant": 6998,
      "ses": 6999,
      "sid": 7000,
      "Ġts": 7001,
      "Ġaer": 7002,
      "Ġaired": 7003,
      "Ġwing": 7004,
      "Ġske": 7005,
      "Ġcass": 7006,
      "Ġbin": 7007,
      "Ġbic": 7008,
      "Ġfired": 7009,
      "Ġdump": 7010,
      "orkshire": 7011,
      "Ġpas": 7012,
      "Ġpiss": 7013,
      "Ġtools": 7014,
      "icia": 7015,
      "icious": 7016,
      "Ġhid": 7017,
      "Ġrear": 7018,
      "until": 7019,
      "Ġjour": 7020,
      "imp": 7021,
      "iland": 7022,
      "olen": 7023,
      "Ġaband": 7024,
      "Ġuns": 7025,
      "Ġvas": 7026,
      "bers": 7027,
      "Ġshi": 7028,
      "apers": 7029,
      "november": 7030,
      "Ġtears": 7031,
      "Ġspare": 7032,
      "eline": 7033,
      "uda": 7034,
      "udi": 7035,
      "Ġgram": 7036,
      "ishment": 7037,
      "being": 7038,
      "Ġbooth": 7039,
      "Ġcompound": 7040,
      "Ġpoll": 7041,
      "Ġcru": 7042,
      "Ġshared": 7043,
      "Ġbreast": 7044,
      "Ġfacts": 7045,
      "Ġaccused": 7046,
      "Ġplanets": 7047,
      "Ġcecilia": 7048,
      "Ġunderstanding": 7049,
      "Ġexplos": 7050,
      "Ġtrained": 7051,
      "Ġsolve": 7052,
      "Ġrider": 7053,
      "henom": 7054,
      "Ġhorrible": 7055,
      "cript": 7056,
      "Ġsisters": 7057,
      "Ġbeauty": 7058,
      "Ġdivor": 7059,
      "Ġpanthoibi": 7060,
      "Ġpractical": 7061,
      "Ġappearance": 7062,
      "Ġconnected": 7063,
      "Ġlads": 7064,
      "Ġdefinition": 7065,
      "Ġclaims": 7066,
      "iliar": 7067,
      "Ġpsycho": 7068,
      "Ġminority": 7069,
      "Ġestablish": 7070,
      "Ġdragon": 7071,
      "Ġnaomi": 7072,
      "Ġtroops": 7073,
      "samtgeme": 7074,
      "Ġtunnel": 7075,
      "Ġtransferred": 7076,
      "Ġpuerto": 7077,
      "Ġparamount": 7078,
      "Ġcraw": 7079,
      "vellous": 7080,
      "Ġigno": 7081,
      "Ġillegal": 7082,
      "Ġazerbaijan": 7083,
      "100": 7084,
      "bac": 7085,
      "equ": 7086,
      "fun": 7087,
      "jud": 7088,
      "morning": 7089,
      "nn": 7090,
      "ras": 7091,
      "same": 7092,
      "tak": 7093,
      "uing": 7094,
      "vak": 7095,
      "Ġtables": 7096,
      "Ġburg": 7097,
      "Ġfuel": 7098,
      "Ġfishing": 7099,
      "Ġpill": 7100,
      "Ġpardon": 7101,
      "Ġpensions": 7102,
      "Ġphenom": 7103,
      "iti": 7104,
      "Ġlung": 7105,
      "Ġnag": 7106,
      "Ġnail": 7107,
      "Ġnadeshiko": 7108,
      "Ġthursday": 7109,
      "Ġrefe": 7110,
      "unte": 7111,
      "Ġstated": 7112,
      "Ġstroke": 7113,
      "Ġjum": 7114,
      "Ġjorge": 7115,
      "stan": 7116,
      "state": 7117,
      "sex": 7118,
      "roit": 7119,
      "Ġaspect": 7120,
      "Ġneut": 7121,
      "george": 7122,
      "ours": 7123,
      "Ġabundant": 7124,
      "Ġalab": 7125,
      "Ġconvin": 7126,
      "Ġexact": 7127,
      "Ġsomehow": 7128,
      "Ġarrow": 7129,
      "Ġchips": 7130,
      "Ġmanchester": 7131,
      "Ġbrid": 7132,
      "Ġgrate": 7133,
      "Ġenorm": 7134,
      "Ġgoods": 7135,
      "osevel": 7136,
      "otherwise": 7137,
      "Ġlaunch": 7138,
      "Ġunderground": 7139,
      "Ġimper": 7140,
      "Ġmonster": 7141,
      "dee": 7142,
      "Ġharvey": 7143,
      "Ġmatt": 7144,
      "Ġnights": 7145,
      "Ġ63": 7146,
      "Ġ88": 7147,
      "Ġtribe": 7148,
      "gery": 7149,
      "inax": 7150,
      "Ġheads": 7151,
      "Ġheaded": 7152,
      "Ġstudios": 7153,
      "Ġintegr": 7154,
      "Ġstands": 7155,
      "Ġbadly": 7156,
      "Ġinterests": 7157,
      "arrondissements": 7158,
      "Ġpatients": 7159,
      "Ġawk": 7160,
      "Ġcontinues": 7161,
      "Ġopposed": 7162,
      "Ġcritique": 7163,
      "Ġbullet": 7164,
      "Ġapproved": 7165,
      "Ġsample": 7166,
      "borah": 7167,
      "Ġlux": 7168,
      "Ġteaching": 7169,
      "Ġaffair": 7170,
      "Ġexisting": 7171,
      "Ġescap": 7172,
      "Ġlyrics": 7173,
      "Ġfixed": 7174,
      "Ġexcited": 7175,
      "Ġknocked": 7176,
      "Ġiniti": 7177,
      "Ġlaboratory": 7178,
      "Ġkhuman": 7179,
      "Ġconstruction": 7180,
      "Ġborders": 7181,
      "Ġknights": 7182,
      "Ġcredit": 7183,
      "billboard": 7184,
      "iversary": 7185,
      "congrat": 7186,
      "through": 7187,
      "Ġintelligence": 7188,
      "Ġliquid": 7189,
      "quiry": 7190,
      "Ġenemy": 7191,
      "lahoma": 7192,
      "Ġnuclear": 7193,
      "Ġheadquarters": 7194,
      "Ġpeoples": 7195,
      "\"),": 7196,
      ",,": 7197,
      "42": 7198,
      "47": 7199,
      "aire": 7200,
      "burn": 7201,
      "based": 7202,
      "gie": 7203,
      "lig": 7204,
      "mund": 7205,
      "pick": 7206,
      "press": 7207,
      "rical": 7208,
      "sburg": 7209,
      "uan": 7210,
      "Ġtum": 7211,
      "Ġais": 7212,
      "rets": 7213,
      "Ġian": 7214,
      "half": 7215,
      "Ġbust": 7216,
      "Ġmama": 7217,
      "Ġfug": 7218,
      "Ġfingers": 7219,
      "Ġyam": 7220,
      "Ġyorkshire": 7221,
      "itty": 7222,
      "Ġgri": 7223,
      "Ġlin": 7224,
      "isf": 7225,
      "Ġnuts": 7226,
      "Ġthick": 7227,
      "Ġecu": 7228,
      "Ġwelf": 7229,
      "igi": 7230,
      "adel": 7231,
      "outs": 7232,
      "kee": 7233,
      "allel": 7234,
      "urally": 7235,
      "uma": 7236,
      "Ġorders": 7237,
      "Ġteen": 7238,
      "Ġfee": 7239,
      "Ġcoordin": 7240,
      "Ġchop": 7241,
      "Ġdiet": 7242,
      "Ġbrig": 7243,
      "Ġbrings": 7244,
      "Ġroger": 7245,
      "Ġmoreno": 7246,
      "Ġcompare": 7247,
      "Ġcounter": 7248,
      "Ġscar": 7249,
      "Ġ32": 7250,
      "Ġtalks": 7251,
      "Ġwarning": 7252,
      "Ġoklahoma": 7253,
      "Ġshares": 7254,
      "Ġslide": 7255,
      "Ġsupporters": 7256,
      "Ġmatters": 7257,
      "Ġfamiliar": 7258,
      "cese": 7259,
      "vised": 7260,
      "Ġdesper": 7261,
      "Ġengaged": 7262,
      "Ġzone": 7263,
      "Ġ77": 7264,
      "Ġinvasion": 7265,
      "Ġunique": 7266,
      "Ġassign": 7267,
      "Ġbarb": 7268,
      "Ġlocation": 7269,
      "Ġraff": 7270,
      "Ġfollows": 7271,
      "Ġmarked": 7272,
      "Ġshortly": 7273,
      "Ġanniversary": 7274,
      "Ġvoices": 7275,
      "Ġdiscip": 7276,
      "Ġtests": 7277,
      "Ġanswers": 7278,
      "Ġvienna": 7279,
      "Ġadvance": 7280,
      "greg": 7281,
      "Ġpalmer": 7282,
      "Ġcritics": 7283,
      "Ġvictoria": 7284,
      "Ġeconomics": 7285,
      "Ġannounce": 7286,
      "ervation": 7287,
      "follow": 7288,
      "Ġappearances": 7289,
      "Ġmummy": 7290,
      "Ġwalls": 7291,
      "said": 7292,
      "Ġcelebrate": 7293,
      "Ġinstrument": 7294,
      "Ġsomme": 7295,
      "Ġsoftware": 7296,
      "arette": 7297,
      "ographical": 7298,
      "Ġresidential": 7299,
      "Ġcertific": 7300,
      "sarah": 7301,
      "Ġchallenge": 7302,
      "Ġalternative": 7303,
      "Ġarmenian": 7304,
      "Ġgalaxy": 7305,
      "Ġtamil": 7306,
      "Ġdvd": 7307,
      "Ġapproximately": 7308,
      "congratulations": 7309,
      "Ġecuador": 7310,
      "\";": 7311,
      "flo": 7312,
      "fish": 7313,
      "jay": 7314,
      "kansas": 7315,
      "lich": 7316,
      "nal": 7317,
      "och": 7318,
      "ock": 7319,
      "south": 7320,
      "sighs": 7321,
      "wis": 7322,
      "Ġtied": 7323,
      "Ġaid": 7324,
      "intern": 7325,
      "Ġsor": 7326,
      "erg": 7327,
      "hamm": 7328,
      "Ġbub": 7329,
      "Ġfab": 7330,
      "Ġdict": 7331,
      "Ġpow": 7332,
      "Ġpud": 7333,
      "itis": 7334,
      "Ġtod": 7335,
      "Ġgil": 7336,
      "Ġgord": 7337,
      "Ġlorry": 7338,
      "Ġnin": 7339,
      "Ġandro": 7340,
      "Ġbeck": 7341,
      "Ġbearing": 7342,
      "Ġreform": 7343,
      "Ġremove": 7344,
      "Ġrare": 7345,
      "Ġjar": 7346,
      "Ġjay": 7347,
      "rob": 7348,
      "roll": 7349,
      "Ġgoin": 7350,
      "Ġgosh": 7351,
      "oli": 7352,
      "olved": 7353,
      "Ġcanal": 7354,
      "Ġ1920": 7355,
      "Ġunfortunately": 7356,
      "Ġvs": 7357,
      "Ġsheldon": 7358,
      "Ġalloc": 7359,
      "Ġbutton": 7360,
      "akh": 7361,
      "Ġtrin": 7362,
      "Ġbran": 7363,
      "Ġroosevel": 7364,
      "Ġacted": 7365,
      "Ġcarriage": 7366,
      "inton": 7367,
      "Ġcrick": 7368,
      "Ġfinds": 7369,
      "Ġnumer": 7370,
      "Ġconsists": 7371,
      "Ġ85": 7372,
      "Ġcares": 7373,
      "Ġbreaking": 7374,
      "Ġcollap": 7375,
      "Ġmeetings": 7376,
      "raph": 7377,
      "ashi": 7378,
      "Ġsimpl": 7379,
      "Ġeval": 7380,
      "champ": 7381,
      "Ġcoup": 7382,
      "Ġstreets": 7383,
      "Ġromance": 7384,
      "Ġdetroit": 7385,
      "Ġmanagers": 7386,
      "Ġtesting": 7387,
      "Ġcanadians": 7388,
      "Ġfalls": 7389,
      "Ġsocialist": 7390,
      "Ġdivine": 7391,
      "offs": 7392,
      "Ġsilent": 7393,
      "Ġmachines": 7394,
      "Ġmulti": 7395,
      "Ġgrave": 7396,
      "Ġburning": 7397,
      "Ġwalt": 7398,
      "Ġphotograph": 7399,
      "Ġ1861": 7400,
      "Ġmontreal": 7401,
      "Ġhungry": 7402,
      "Ġprinciple": 7403,
      "Ġmaterials": 7404,
      "Ġnursing": 7405,
      "Ġkorean": 7406,
      "Ġhindu": 7407,
      "Ġresigned": 7408,
      "Ġefforts": 7409,
      "Ġpushing": 7410,
      "Ġdiplom": 7411,
      "martin": 7412,
      "Ġexperiences": 7413,
      "Ġselby": 7414,
      "Ġaurich": 7415,
      "Ġdiagnosed": 7416,
      "Ġincredible": 7417,
      "apparently": 7418,
      "Ġbielski": 7419,
      "Ġfranchise": 7420,
      "Ġjourney": 7421,
      "samtgemeinde": 7422,
      "Ġawkward": 7423,
      "Ġwelfare": 7424,
      "august": 7425,
      "brian": 7426,
      "du": 7427,
      "fare": 7428,
      "mod": 7429,
      "making": 7430,
      "nik": 7431,
      "named": 7432,
      "oz": 7433,
      "pir": 7434,
      "sub": 7435,
      "via": 7436,
      "wing": 7437,
      "Ġtiger": 7438,
      "helle": 7439,
      "Ġwag": 7440,
      "Ġmick": 7441,
      "Ġdough": 7442,
      "Ġdave": 7443,
      "Ġdude": 7444,
      "encies": 7445,
      "Ġpied": 7446,
      "Ġpony": 7447,
      "Ġyang": 7448,
      "Ġanaly": 7449,
      "Ġtoll": 7450,
      "Ġtoast": 7451,
      "omach": 7452,
      "icing": 7453,
      "Ġhiding": 7454,
      "Ġrural": 7455,
      "Ġkaz": 7456,
      "rov": 7457,
      "illo": 7458,
      "olo": 7459,
      "Ġwhit": 7460,
      "Ġwhist": 7461,
      "Ġnotable": 7462,
      "Ġunif": 7463,
      "uled": 7464,
      "Ġconver": 7465,
      "Ġconven": 7466,
      "Ġpropose": 7467,
      "ategy": 7468,
      "Ġplastic": 7469,
      "Ġspo": 7470,
      "Ġtwilight": 7471,
      "ague": 7472,
      "Ġgraph": 7473,
      "action": 7474,
      "Ġensure": 7475,
      "beat": 7476,
      "nell": 7477,
      "Ġclimb": 7478,
      "Ġdownstairs": 7479,
      "bridge": 7480,
      "ensen": 7481,
      "gold": 7482,
      "Ġletting": 7483,
      "Ġapply": 7484,
      "Ġpresence": 7485,
      "Ġpresents": 7486,
      "leton": 7487,
      "Ġremem": 7488,
      "Ġremains": 7489,
      "Ġmembership": 7490,
      "Ġfounder": 7491,
      "Ġdeser": 7492,
      "Ġ45": 7493,
      "Ġzorin": 7494,
      "2016": 7495,
      "Ġidi": 7496,
      "Ġlisted": 7497,
      "Ġchildhood": 7498,
      "Ġuniversal": 7499,
      "Ġreduction": 7500,
      "Ġlanding": 7501,
      "Ġbrook": 7502,
      "Ġinternal": 7503,
      "Ġrocks": 7504,
      "Ġsolo": 7505,
      "Ġrefurb": 7506,
      "Ġperforming": 7507,
      "Ġeducational": 7508,
      "ipping": 7509,
      "Ġnatalie": 7510,
      "Ġsteps": 7511,
      "Ġfields": 7512,
      "foot": 7513,
      "Ġstronger": 7514,
      "Ġgeneration": 7515,
      "ĠâĢĺ": 7516,
      "Ġsciences": 7517,
      "Ġinspired": 7518,
      "Ġindividuals": 7519,
      "Ġbaek": 7520,
      "Ġbowl": 7521,
      "Ġcustomers": 7522,
      "course": 7523,
      "Ġsurvive": 7524,
      "Ġroughly": 7525,
      "Ġcommissioner": 7526,
      "Ġwrestling": 7527,
      "Ġbentheim": 7528,
      "Ġsequel": 7529,
      "Ġscreaming": 7530,
      "ladies": 7531,
      "Ġknee": 7532,
      "Ġpotatoes": 7533,
      "Ġapplication": 7534,
      "Ġretirement": 7535,
      "Ġdisappointed": 7536,
      "Ġconvinced": 7537,
      "35": 7538,
      "ae": 7539,
      "aid": 7540,
      "boss": 7541,
      "dist": 7542,
      "easy": 7543,
      "gust": 7544,
      "jess": 7545,
      "june": 7546,
      "late": 7547,
      "oge": 7548,
      "park": 7549,
      "sis": 7550,
      "Ġtack": 7551,
      "Ġairl": 7552,
      "Ġwi": 7553,
      "Ġwow": 7554,
      "Ġwore": 7555,
      "rev": 7556,
      "Ġbou": 7557,
      "Ġbare": 7558,
      "Ġpor": 7559,
      "Ġpub": 7560,
      "Ġpiano": 7561,
      "Ġanalysis": 7562,
      "Ġgill": 7563,
      "arus": 7564,
      "Ġnonsense": 7565,
      "icient": 7566,
      "owa": 7567,
      "Ġhee": 7568,
      "Ġhel": 7569,
      "Ġthrew": 7570,
      "Ġhired": 7571,
      "Ġrhy": 7572,
      "Ġkang": 7573,
      "Ġstairs": 7574,
      "Ġstolen": 7575,
      "thomas": 7576,
      "Ġnebraska": 7577,
      "Ġalliance": 7578,
      "inking": 7579,
      "abs": 7580,
      "Ġgotten": 7581,
      "endo": 7582,
      "Ġtel": 7583,
      "Ġsav": 7584,
      "ela": 7585,
      "Ġwanting": 7586,
      "Ġcoff": 7587,
      "Ġtwitch": 7588,
      "Ġargu": 7589,
      "Ġquot": 7590,
      "Ġbrad": 7591,
      "Ġroast": 7592,
      "Ġclay": 7593,
      "Ġminimum": 7594,
      "Ġcontains": 7595,
      "iously": 7596,
      "Ġbelt": 7597,
      "Ġbelgium": 7598,
      "Ġformal": 7599,
      "Ġdram": 7600,
      "Ġstrategy": 7601,
      "Ġbush": 7602,
      "laughing": 7603,
      "Ġobtain": 7604,
      "Ġstopping": 7605,
      "Ġhundreds": 7606,
      "Ġ92": 7607,
      "plan": 7608,
      "Ġjuan": 7609,
      "Ġjuice": 7610,
      "Ġcommunes": 7611,
      "Ġfewer": 7612,
      "Ġtreated": 7613,
      "Ġpassing": 7614,
      "Ġrestrict": 7615,
      "Ġshoe": 7616,
      "Ġvocal": 7617,
      "Ġissued": 7618,
      "Ġmagn": 7619,
      "Ġ1925": 7620,
      "Ġsuicide": 7621,
      "Ġcovering": 7622,
      "Ġacademic": 7623,
      "Ġjudg": 7624,
      "Ġdiscussed": 7625,
      "Ġphysics": 7626,
      "Ġachieved": 7627,
      "Ġteachers": 7628,
      "Ġcriticism": 7629,
      "Ġchemistry": 7630,
      "lovely": 7631,
      "Ġscratch": 7632,
      "Ġlairen": 7633,
      "Ġlegislature": 7634,
      "Ġsavings": 7635,
      "Ġbriefly": 7636,
      "Ġarticle": 7637,
      "Ġteddy": 7638,
      "Ġcigarette": 7639,
      "Ġhollywood": 7640,
      "Ġsweden": 7641,
      "Ġcomfortable": 7642,
      "Ġparagraph": 7643,
      "Ġliverpool": 7644,
      "Ġcolumbia": 7645,
      "Ġfederation": 7646,
      "Ġcapitol": 7647,
      "Ġtaiwan": 7648,
      "Ġalabama": 7649,
      "Ġaisne": 7650,
      "Ġroosevelt": 7651,
      "%.": 7652,
      "31": 7653,
      "49": 7654,
      "cused": 7655,
      "lers": 7656,
      "mou": 7657,
      "pie": 7658,
      "sin": 7659,
      "sat": 7660,
      "uated": 7661,
      "uits": 7662,
      "Ġtorn": 7663,
      "Ġara": 7664,
      "rell": 7665,
      "Ġmes": 7666,
      "Ġosc": 7667,
      "Ġdj": 7668,
      "Ġdent": 7669,
      "Ġdies": 7670,
      "Ġpages": 7671,
      "Ġnam": 7672,
      "atures": 7673,
      "Ġthre": 7674,
      "Ġhugh": 7675,
      "ige": 7676,
      "entine": 7677,
      "ami": 7678,
      "Ġstomach": 7679,
      "Ġjosh": 7680,
      "keith": 7681,
      "uri": 7682,
      "Ġwhitt": 7683,
      "okermann": 7684,
      "Ġloan": 7685,
      "Ġvene": 7686,
      "berta": 7687,
      "Ġsheep": 7688,
      "Ġshirt": 7689,
      "Ġnobel": 7690,
      "Ġsaus": 7691,
      "feld": 7692,
      "inda": 7693,
      "iago": 7694,
      "Ġarthur": 7695,
      "Ġmanning": 7696,
      "Ġnowhere": 7697,
      "Ġroot": 7698,
      "Ġboo": 7699,
      "Ġbored": 7700,
      "Ġclin": 7701,
      "Ġadapt": 7702,
      "Ġserge": 7703,
      "things": 7704,
      "Ġcarr": 7705,
      "getting": 7706,
      "class": 7707,
      "Ġunderstood": 7708,
      "Ġapplied": 7709,
      "Ġwarri": 7710,
      "Ġshak": 7711,
      "Ġshake": 7712,
      "Ġcheaper": 7713,
      "Ġimpressed": 7714,
      "dead": 7715,
      "print": 7716,
      "Ġsword": 7717,
      "Ġsecondary": 7718,
      "Ġ42": 7719,
      "laura": 7720,
      "Ġassets": 7721,
      "Ġfriendly": 7722,
      "Ġcerem": 7723,
      "Ġmedals": 7724,
      "Ġmedium": 7725,
      "Ġdefensive": 7726,
      "Ġtremend": 7727,
      "Ġlightning": 7728,
      "Ġextended": 7729,
      "Ġinterpret": 7730,
      "Ġsoup": 7731,
      "Ġvalu": 7732,
      "Ġillustr": 7733,
      "Ġmode": 7734,
      "Ġhopefully": 7735,
      "Ġlesson": 7736,
      "uku": 7737,
      "Ġradi": 7738,
      "Ġpenins": 7739,
      "henry": 7740,
      "Ġeffective": 7741,
      "Ġeffectively": 7742,
      "Ġrefers": 7743,
      "Ġprotected": 7744,
      "Ġdevil": 7745,
      "Ġstole": 7746,
      "engers": 7747,
      "Ġseventh": 7748,
      "Ġstatue": 7749,
      "Ġsweetheart": 7750,
      "Ġmultip": 7751,
      "Ġsandwich": 7752,
      "Ġprisoners": 7753,
      "Ġarrive": 7754,
      "Ġcharlie": 7755,
      "Ġratio": 7756,
      "Ġglasses": 7757,
      "Ġdigital": 7758,
      "Ġbegins": 7759,
      "panthoibi": 7760,
      "Ġreviews": 7761,
      "Ġprocedure": 7762,
      "Ġtunis": 7763,
      "Ġgranted": 7764,
      "Ġtranslated": 7765,
      "Ġorganisations": 7766,
      "Ġknees": 7767,
      "marsen": 7768,
      "Ġturkish": 7769,
      "Ġnigeria": 7770,
      "Ġresistance": 7771,
      "Ġkentucky": 7772,
      "Ġwebsite": 7773,
      "Ġproportion": 7774,
      "Ġexplanation": 7775,
      "close": 7776,
      "Ġentrance": 7777,
      "Ġprecipitation": 7778,
      "Ġceremony": 7779,
      "56": 7780,
      "76": 7781,
      "80": 7782,
      "89": 7783,
      "bia": 7784,
      "cop": 7785,
      "danny": 7786,
      "hum": 7787,
      "mal": 7788,
      "ni": 7789,
      "uous": 7790,
      "vable": 7791,
      "yers": 7792,
      "Ġtiny": 7793,
      "Ġastr": 7794,
      "Ġsop": 7795,
      "Ġsque": 7796,
      "Ġsierra": 7797,
      "onso": 7798,
      "Ġcbs": 7799,
      "Ġbren": 7800,
      "Ġmcc": 7801,
      "Ġmigr": 7802,
      "Ġdot": 7803,
      "Ġdirt": 7804,
      "Ġpants": 7805,
      "esar": 7806,
      "Ġls": 7807,
      "Ġlis": 7808,
      "Ġlun": 7809,
      "Ġlisa": 7810,
      "arks": 7811,
      "Ġnk": 7812,
      "oming": 7813,
      "Ġthor": 7814,
      "Ġthus": 7815,
      "Ġhal": 7816,
      "Ġhamm": 7817,
      "Ġhond": 7818,
      "Ġhuck": 7819,
      "Ġhits": 7820,
      "Ġkin": 7821,
      "section": 7822,
      "imarel": 7823,
      "add": 7824,
      "Ġdozen": 7825,
      "Ġashes": 7826,
      "Ġframe": 7827,
      "iller": 7828,
      "Ġuninc": 7829,
      "Ġsole": 7830,
      "Ġshift": 7831,
      "aps": 7832,
      "Ġusers": 7833,
      "indy": 7834,
      "Ġchain": 7835,
      "Ġacts": 7836,
      "Ġboats": 7837,
      "Ġblues": 7838,
      "Ġparallel": 7839,
      "Ġremark": 7840,
      "dece": 7841,
      "Ġ1800": 7842,
      "Ġ400": 7843,
      "Ġ86": 7844,
      "Ġsitcom": 7845,
      "Ġsurve": 7846,
      "Ġsurgery": 7847,
      "Ġredund": 7848,
      "Ġproviding": 7849,
      "Ġdefer": 7850,
      "Ġdefined": 7851,
      "Ġconfirm": 7852,
      "Ġlawrence": 7853,
      "central": 7854,
      "Ġevans": 7855,
      "Ġlands": 7856,
      "Ġcutters": 7857,
      "sterdam": 7858,
      "Ġexploded": 7859,
      "flix": 7860,
      "Ġtrave": 7861,
      "Ġtrail": 7862,
      "Ġprogramming": 7863,
      "Ġnetflix": 7864,
      "Ġequals": 7865,
      "Ġcontrovers": 7866,
      "Ġdelhi": 7867,
      "Ġdamaged": 7868,
      "guard": 7869,
      "Ġtechnique": 7870,
      "Ġsexy": 7871,
      "Ġpercentage": 7872,
      "Ġsilence": 7873,
      "Ġrevol": 7874,
      "Ġengineers": 7875,
      "Ġboxes": 7876,
      "Ġarrang": 7877,
      "Ġcooking": 7878,
      "Ġproductions": 7879,
      "Ġexecuted": 7880,
      "Ġjulie": 7881,
      "Ġpremie": 7882,
      "Ġmaximum": 7883,
      "Ġliterally": 7884,
      "Ġsuffer": 7885,
      "Ġhunting": 7886,
      "Ġprints": 7887,
      "Ġforgotten": 7888,
      "Ġloads": 7889,
      "Ġdumped": 7890,
      "Ġsprings": 7891,
      "Ġconcentrate": 7892,
      "Ġacquis": 7893,
      "Ġtypical": 7894,
      "Ġsurrounding": 7895,
      "Ġmeasures": 7896,
      "jamin": 7897,
      "Ġsettled": 7898,
      "baby": 7899,
      "Ġkhamba": 7900,
      "Ġmackenzie": 7901,
      "Ġbangladesh": 7902,
      "Ġcairo": 7903,
      "Ġvenez": 7904,
      "Ġpeninsula": 7905,
      "Ġunincorporated": 7906,
      "dude": 7907,
      "hope": 7908,
      "iques": 7909,
      "lings": 7910,
      "langu": 7911,
      "mun": 7912,
      "mil": 7913,
      "zing": 7914,
      "Ġul": 7915,
      "hered": 7916,
      "Ġak": 7917,
      "inter": 7918,
      "Ġtherap": 7919,
      "Ġwond": 7920,
      "ontain": 7921,
      "Ġbun": 7922,
      "Ġfbi": 7923,
      "Ġfiance": 7924,
      "Ġpic": 7925,
      "Ġpist": 7926,
      "Ġlod": 7927,
      "Ġni": 7928,
      "ati": 7929,
      "Ġbean": 7930,
      "Ġbeep": 7931,
      "ione": 7932,
      "Ġrene": 7933,
      "Ġrud": 7934,
      "Ġknot": 7935,
      "utch": 7936,
      "uther": 7937,
      "Ġsty": 7938,
      "Ġstret": 7939,
      "Ġjin": 7940,
      "rold": 7941,
      "kel": 7942,
      "Ġsections": 7943,
      "Ġassh": 7944,
      "third": 7945,
      "oka": 7946,
      "Ġ\"\"": 7947,
      "Ġallows": 7948,
      "Ġshir": 7949,
      "Ġoutta": 7950,
      "eluj": 7951,
      "ichi": 7952,
      "Ġtrun": 7953,
      "Ġtruman": 7954,
      "nah": 7955,
      "Ġboil": 7956,
      "Ġoverturn": 7957,
      "Ġadjust": 7958,
      "Ġfocused": 7959,
      "Ġguid": 7960,
      "govern": 7961,
      "Ġthoughts": 7962,
      "Ġlifeboat": 7963,
      "Ġcharity": 7964,
      "Ġfounding": 7965,
      "iba": 7966,
      "ibbe": 7967,
      "Ġdesert": 7968,
      "Ġ89": 7969,
      "2013": 7970,
      "Ġpersonally": 7971,
      "Ġcollabor": 7972,
      "Ġrelief": 7973,
      "inares": 7974,
      "harm": 7975,
      "harry": 7976,
      "Ġsouthwestern": 7977,
      "Ġpassengers": 7978,
      "Ġdemocrats": 7979,
      "Ġvariety": 7980,
      "Ġholds": 7981,
      "Ġswear": 7982,
      "Ġbands": 7983,
      "Ġtested": 7984,
      "Ġepic": 7985,
      "Ġdaniel": 7986,
      "Ġcollecting": 7987,
      "licop": 7988,
      "Ġringing": 7989,
      "Ġconstitutional": 7990,
      "Ġfortun": 7991,
      "Ġvolunte": 7992,
      "Ġfitz": 7993,
      "Ġdrove": 7994,
      "Ġtaxes": 7995,
      "Ġcombination": 7996,
      "Ġcolorado": 7997,
      "Ġconfederacy": 7998,
      "Ġenjoyed": 7999,
      "Ġfacing": 8000,
      "Ġbanks": 8001,
      "Ġwatched": 8002,
      "Ġinstructions": 8003,
      "Ġrapid": 8004,
      "Ġnursery": 8005,
      "Ġinitially": 8006,
      "related": 8007,
      "Ġvictims": 8008,
      "Ġproposals": 8009,
      "Ġleadership": 8010,
      "Ġdelegate": 8011,
      "Ġexpanded": 8012,
      "Ġrelatively": 8013,
      "family": 8014,
      "Ġcomplicated": 8015,
      "Ġvincent": 8016,
      "Ġguarantee": 8017,
      "Ġrugby": 8018,
      "Ġpermanent": 8019,
      "Ġfolks": 8020,
      "Ġbicy": 8021,
      "Ġgrateful": 8022,
      "Ġtremendous": 8023,
      "elujah": 8024,
      "32": 8025,
      "aa": 8026,
      "bid": 8027,
      "bea": 8028,
      "cas": 8029,
      "camp": 8030,
      "del": 8031,
      "drop": 8032,
      "find": 8033,
      "gb": 8034,
      "gus": 8035,
      "lia": 8036,
      "lene": 8037,
      "liga": 8038,
      "mel": 8039,
      "nine": 8040,
      "phe": 8041,
      "pare": 8042,
      "rus": 8043,
      "tor": 8044,
      "wi": 8045,
      "wo": 8046,
      "yam": 8047,
      "into": 8048,
      "Ġwax": 8049,
      "Ġwreck": 8050,
      "rez": 8051,
      "remy": 8052,
      "Ġsust": 8053,
      "Ġsons": 8054,
      "onent": 8055,
      "onto": 8056,
      "eric": 8057,
      "Ġcree": 8058,
      "Ġbend": 8059,
      "Ġfern": 8060,
      "Ġfasc": 8061,
      "Ġdensity": 8062,
      "Ġpipe": 8063,
      "llor": 8064,
      "Ġtool": 8065,
      "Ġgym": 8066,
      "atus": 8067,
      "Ġhed": 8068,
      "left": 8069,
      "etic": 8070,
      "Ġhamb": 8071,
      "Ġkra": 8072,
      "acing": 8073,
      "Ġjes": 8074,
      "Ġjur": 8075,
      "Ġjag": 8076,
      "Ġjoking": 8077,
      "lyn": 8078,
      "andal": 8079,
      "roe": 8080,
      "Ġ1000": 8081,
      "Ġseats": 8082,
      "Ġsemi": 8083,
      "illing": 8084,
      "teries": 8085,
      "Ġalc": 8086,
      "Ġ(ï¿½ï¿½ï¿½": 8087,
      "ifer": 8088,
      "quite": 8089,
      "soon": 8090,
      "oslav": 8091,
      "Ġexhib": 8092,
      "Ġpears": 8093,
      "Ġarkansas": 8094,
      "Ġmans": 8095,
      "Ġamsterdam": 8096,
      "tees": 8097,
      "Ġbackwards": 8098,
      "ective": 8099,
      "Ġmarshall": 8100,
      "ressive": 8101,
      "assy": 8102,
      "issa": 8103,
      "Ġmini": 8104,
      "igny": 8105,
      "Ġjoey": 8106,
      "iley": 8107,
      "Ġdisturb": 8108,
      "Ġdisk": 8109,
      "Ġthrone": 8110,
      "Ġ34": 8111,
      "Ġleak": 8112,
      "meet": 8113,
      "Ġchen": 8114,
      "Ġcheek": 8115,
      "Ġparaly": 8116,
      "derer": 8117,
      "Ġflav": 8118,
      "Ġflower": 8119,
      "Ġgoddamn": 8120,
      "cool": 8121,
      "bob": 8122,
      "phia": 8123,
      "Ġbaron": 8124,
      "front": 8125,
      "Ġbusinesses": 8126,
      "Ġsignal": 8127,
      "nedy": 8128,
      "Ġcorrupt": 8129,
      "Ġgrande": 8130,
      "Ġintention": 8131,
      "Ġexperim": 8132,
      "Ġpenny": 8133,
      "Ġclosely": 8134,
      "Ġphiladel": 8135,
      "cription": 8136,
      "Ġindians": 8137,
      "Ġverse": 8138,
      "Ġmessages": 8139,
      "stead": 8140,
      "Ġcells": 8141,
      "Ġangel": 8142,
      "Ġbags": 8143,
      "fielder": 8144,
      "Ġvanmarsen": 8145,
      "Ġprimarily": 8146,
      "Ġlatest": 8147,
      "Ġmcqueen": 8148,
      "Ġdebt": 8149,
      "Ġburned": 8150,
      "Ġcombat": 8151,
      "Ġbucket": 8152,
      "Ġescort": 8153,
      "Ġrent": 8154,
      "Ġbolt": 8155,
      "Ġruined": 8156,
      "Ġrusso": 8157,
      "Ġremaining": 8158,
      "Ġsightings": 8159,
      "Ġfavorite": 8160,
      "Ġjenny": 8161,
      "Ġsubstit": 8162,
      "Ġpartnership": 8163,
      "Ġpursue": 8164,
      "Ġboundary": 8165,
      "Ġclarinet": 8166,
      "Ġarrangements": 8167,
      "Ġsabot": 8168,
      "Ġkirk": 8169,
      "songwriter": 8170,
      "bloody": 8171,
      "respond": 8172,
      "Ġmystery": 8173,
      "Ġphilosophy": 8174,
      "Ġshadow": 8175,
      "Ġstrategic": 8176,
      "Ġalphabet": 8177,
      "Ġvenezuel": 8178,
      "Ġphiladelphia": 8179,
      "39": 8180,
      "ees": 8181,
      "effic": 8182,
      "folk": 8183,
      "jor": 8184,
      "lan": 8185,
      "mble": 8186,
      "mail": 8187,
      "non": 8188,
      "oll": 8189,
      "ova": 8190,
      "pence": 8191,
      "sign": 8192,
      "tes": 8193,
      "tit": 8194,
      "tig": 8195,
      "Ã¦": 8196,
      "Ġing": 8197,
      "Ġtuck": 8198,
      "hears": 8199,
      "Ġwages": 8200,
      "rely": 8201,
      "Ġsno": 8202,
      "oup": 8203,
      "ouch": 8204,
      "Ġira": 8205,
      "hai": 8206,
      "Ġcu": 8207,
      "Ġbure": 8208,
      "Ġmand": 8209,
      "Ġfuj": 8210,
      "Ġdor": 8211,
      "Ġdish": 8212,
      "Ġdrew": 8213,
      "Ġpour": 8214,
      "esome": 8215,
      "eday": 8216,
      "Ġgon": 8217,
      "Ġgag": 8218,
      "Ġlit": 8219,
      "Ġlac": 8220,
      "Ġnan": 8221,
      "athan": 8222,
      "Ġhou": 8223,
      "Ġrit": 8224,
      "Ġrio": 8225,
      "Ġkhan": 8226,
      "uncle": 8227,
      "acher": 8228,
      "stad": 8229,
      "stick": 8230,
      "chi": 8231,
      "Ġfris": 8232,
      "ista": 8233,
      "ulated": 8234,
      "umably": 8235,
      "resden": 8236,
      "osing": 8237,
      "abwe": 8238,
      "Ġsak": 8239,
      "Ġmarie": 8240,
      "Ġmarvellous": 8241,
      "Ġadams": 8242,
      "brid": 8243,
      "whether": 8244,
      "enses": 8245,
      "Ġbetty": 8246,
      "Ġreput": 8247,
      "Ġguin": 8248,
      "angular": 8249,
      "Ġwherever": 8250,
      "ucing": 8251,
      "claim": 8252,
      "Ġnorwe": 8253,
      "Ġthrown": 8254,
      "Ġcontem": 8255,
      "Ġexpression": 8256,
      "anybody": 8257,
      "Ġmonkey": 8258,
      "Ġslip": 8259,
      "Ġsupply": 8260,
      "Ġdesc": 8261,
      "Ġdescent": 8262,
      "Ġzomb": 8263,
      "Ġ78": 8264,
      "lause": 8265,
      "Ġ84": 8266,
      "Ġtries": 8267,
      "Ġinvite": 8268,
      "Ġcaps": 8269,
      "Ġsets": 8270,
      "ontin": 8271,
      "span": 8272,
      "iki": 8273,
      "Ġopens": 8274,
      "Ġhighlight": 8275,
      "Ġsteal": 8276,
      "Ġskills": 8277,
      "Ġcorrespond": 8278,
      "Ġoperated": 8279,
      "Ġlessons": 8280,
      "wasn": 8281,
      "trust": 8282,
      "Ġformerly": 8283,
      "Ġhonored": 8284,
      "Ġsolar": 8285,
      "Ġbernard": 8286,
      "Ġquicker": 8287,
      "Ġmurderer": 8288,
      "Ġdiego": 8289,
      "Ġchancellor": 8290,
      "Ġsatisf": 8291,
      "Ġimage": 8292,
      "ippon": 8293,
      "Ġhallelujah": 8294,
      "Ġconnor": 8295,
      "Ġmoral": 8296,
      "Ġcleaning": 8297,
      "Ġstatist": 8298,
      "Ġmalays": 8299,
      "Ġfortune": 8300,
      "daddy": 8301,
      "keeper": 8302,
      "Ġclosing": 8303,
      "Ġcombine": 8304,
      "smith": 8305,
      "Ġimproved": 8306,
      "Ġbuckingham": 8307,
      "Ġgloves": 8308,
      "Ġjimmy": 8309,
      "Ġcooperation": 8310,
      "besides": 8311,
      "build": 8312,
      "Ġnurses": 8313,
      "imbabwe": 8314,
      "Ġpredict": 8315,
      "Ġnewspapers": 8316,
      "Ġbleeding": 8317,
      "second": 8318,
      "Ġpaintings": 8319,
      "Ġemotions": 8320,
      "Ġwitnesses": 8321,
      "Ġarticles": 8322,
      "Ġmanufacturer": 8323,
      "tripp": 8324,
      "philip": 8325,
      "Ġfetch": 8326,
      "Ġyoutube": 8327,
      "Ġpearl": 8328,
      "Ġcompromise": 8329,
      "designated": 8330,
      "Ġremembered": 8331,
      "Ġwhittaker": 8332,
      "Ġvaluable": 8333,
      "ause": 8334,
      "bat": 8335,
      "cup": 8336,
      "city": 8337,
      "core": 8338,
      "died": 8339,
      "hr": 8340,
      "national": 8341,
      "october": 8342,
      "pull": 8343,
      "rison": 8344,
      "sun": 8345,
      "uations": 8346,
      "vas": 8347,
      "yd": 8348,
      "Ġtwe": 8349,
      "Ġwien": 8350,
      "rep": 8351,
      "Ġsv": 8352,
      "Ġcher": 8353,
      "Ġbros": 8354,
      "Ġmit": 8355,
      "Ġfence": 8356,
      "enough": 8357,
      "Ġpel": 8358,
      "ller": 8359,
      "Ġinch": 8360,
      "Ġinaug": 8361,
      "Ġgulf": 8362,
      "Ġlion": 8363,
      "Ġlingu": 8364,
      "aration": 8365,
      "Ġnest": 8366,
      "Ġnik": 8367,
      "Ġnancy": 8368,
      "vet": 8369,
      "Ġhauts": 8370,
      "Ġhip": 8371,
      "Ġwashed": 8372,
      "Ġec": 8373,
      "Ġrenew": 8374,
      "Ġrig": 8375,
      "Ġkur": 8376,
      "Ġkhor": 8377,
      "Ġkangle": 8378,
      "unting": 8379,
      "amen": 8380,
      "hter": 8381,
      "station": 8382,
      "stream": 8383,
      "sea": 8384,
      "irates": 8385,
      "rops": 8386,
      "rooge": 8387,
      "alled": 8388,
      "Ġdoin": 8389,
      "uras": 8390,
      "throw": 8391,
      "illes": 8392,
      "term": 8393,
      "tering": 8394,
      "Ġdonna": 8395,
      "Ġunfair": 8396,
      "Ġcomic": 8397,
      "Ġvast": 8398,
      "Ġvik": 8399,
      "umin": 8400,
      "Ġshep": 8401,
      "Ġshield": 8402,
      "Ġupdate": 8403,
      "ements": 8404,
      "Ġspect": 8405,
      "raham": 8406,
      "Ġleban": 8407,
      "Ġtruly": 8408,
      "Ġseek": 8409,
      "Ġdiam": 8410,
      "Ġpride": 8411,
      "Ġserves": 8412,
      "Ġputs": 8413,
      "uccess": 8414,
      "clusion": 8415,
      "pelle": 8416,
      "shh": 8417,
      "Ġrecr": 8418,
      "Ġwarrant": 8419,
      "liest": 8420,
      "Ġimpression": 8421,
      "Ġmonte": 8422,
      "Ġbelgian": 8423,
      "Ġdrum": 8424,
      "Ġ1850": 8425,
      "Ġcenturies": 8426,
      "Ġelton": 8427,
      "Ġelimin": 8428,
      "holy": 8429,
      "Ġcleared": 8430,
      "2018": 8431,
      "Ġcauc": 8432,
      "Ġbreathe": 8433,
      "Ġdecent": 8434,
      "Ġuniversities": 8435,
      "Ġlarita": 8436,
      "Ġauto": 8437,
      "Ġmilan": 8438,
      "Ġfiled": 8439,
      "Ġleads": 8440,
      "Ġraising": 8441,
      "Ġlighter": 8442,
      "Ġpasses": 8443,
      "atsu": 8444,
      "Ġsung": 8445,
      "Ġmickey": 8446,
      "Ġdrawn": 8447,
      "working": 8448,
      "Ġreturning": 8449,
      "Ġmadrid": 8450,
      "Ġadvanced": 8451,
      "Ġconcert": 8452,
      "Ġslept": 8453,
      "mingham": 8454,
      "ija": 8455,
      "Ġinsane": 8456,
      "Ġtablets": 8457,
      "Ġtitles": 8458,
      "calm": 8459,
      "Ġmaryland": 8460,
      "Ġcrystal": 8461,
      "ĠâĢĶ": 8462,
      "Ġinvestigate": 8463,
      "Ġoxy": 8464,
      "between": 8465,
      "Ġsharehold": 8466,
      "Ġsmells": 8467,
      "Ġhungarian": 8468,
      "Ġdocuments": 8469,
      "Ġsuffering": 8470,
      "Ġfeatured": 8471,
      "Ġambul": 8472,
      "Ġregarding": 8473,
      "Ġscreenwriter": 8474,
      "Ġaudience": 8475,
      "Ġhunter": 8476,
      "Ġfavourite": 8477,
      "Ġwidely": 8478,
      "Ġvariable": 8479,
      "Ġrussell": 8480,
      "Ġdocumentary": 8481,
      "Ġbesides": 8482,
      "Ġinjury": 8483,
      "Ġinjuries": 8484,
      "election": 8485,
      "Ġresignation": 8486,
      "Ġcartoon": 8487,
      "Ġinvented": 8488,
      "Ġqueens": 8489,
      "Ġbacon": 8490,
      "ordinary": 8491,
      "Ġpushed": 8492,
      "Ġadmitted": 8493,
      "lucy": 8494,
      "Ġrepeat": 8495,
      "Ġtoxin": 8496,
      "Ġdedicated": 8497,
      "Ġunemployed": 8498,
      "Ġunemployment": 8499,
      "Ġcinema": 8500,
      "Ġexplorer": 8501,
      "imetres": 8502,
      "Ġrecovery": 8503,
      "Ġbundes": 8504,
      "Ġneighborhood": 8505,
      "Ġpronoun": 8506,
      "Ġgordon": 8507,
      "Ġcoffin": 8508,
      "Ġjudgment": 8509,
      "december": 8510,
      "Ġdeferred": 8511,
      "language": 8512,
      "bage": 8513,
      "cill": 8514,
      "derson": 8515,
      "eat": 8516,
      "free": 8517,
      "jer": 8518,
      "rit": 8519,
      "rome": 8520,
      "rors": 8521,
      "ridge": 8522,
      "tem": 8523,
      "wil": 8524,
      "word": 8525,
      "yang": 8526,
      "zard": 8527,
      "{\\": 8528,
      "Ġti": 8529,
      "Ġtone": 8530,
      "Ġtamp": 8531,
      "hear": 8532,
      "Ġaux": 8533,
      "inte": 8534,
      "inley": 8535,
      "Ġtheater": 8536,
      "Ġwoo": 8537,
      "rears": 8538,
      "Ġss": 8539,
      "Ġsighs": 8540,
      "hara": 8541,
      "Ġcord": 8542,
      "Ġcable": 8543,
      "Ġcodes": 8544,
      "Ġbom": 8545,
      "Ġbunk": 8546,
      "ania": 8547,
      "Ġfaces": 8548,
      "enne": 8549,
      "Ġpump": 8550,
      "Ġanna": 8551,
      "Ġgin": 8552,
      "Ġgary": 8553,
      "Ġlamb": 8554,
      "otox": 8555,
      "Ġhelicop": 8556,
      "leza": 8557,
      "Ġhud": 8558,
      "Ġbeats": 8559,
      "Ġbeleza": 8560,
      "Ġrehears": 8561,
      "iders": 8562,
      "entin": 8563,
      "Ġkho": 8564,
      "Ġkane": 8565,
      "Ġkaren": 8566,
      "uto": 8567,
      "Ġforth": 8568,
      "andre": 8569,
      "secut": 8570,
      "rock": 8571,
      "Ġarena": 8572,
      "Ġabol": 8573,
      "Ġlover": 8574,
      "Ġva": 8575,
      "hana": 8576,
      "Ġshin": 8577,
      "Ġplain": 8578,
      "ivered": 8579,
      "Ġtear": 8580,
      "Ġsaudi": 8581,
      "pper": 8582,
      "Ġcoeffic": 8583,
      "Ġarrears": 8584,
      "Ġdio": 8585,
      "icking": 8586,
      "activ": 8587,
      "Ġmarion": 8588,
      "been": 8589,
      "Ġcloud": 8590,
      "Ġcompar": 8591,
      "Ġbetray": 8592,
      "ffer": 8593,
      "Ġwhereas": 8594,
      "Ġscrooge": 8595,
      "Ġdistract": 8596,
      "Ġdisorder": 8597,
      "Ġ37": 8598,
      "Ġsuperm": 8599,
      "Ġuf": 8600,
      "shi": 8601,
      "Ġcontained": 8602,
      "Ġkeen": 8603,
      "Ġcrimes": 8604,
      "Ġdepos": 8605,
      "aho": 8606,
      "athy": 8607,
      "anyone": 8608,
      "Ġbelarus": 8609,
      "Ġending": 8610,
      "defin": 8611,
      "hedral": 8612,
      "Ġcharged": 8613,
      "Ġfinishing": 8614,
      "Ġmustn": 8615,
      "Ġearl": 8616,
      "Ġsorted": 8617,
      "Ġ48": 8618,
      "hoo": 8619,
      "Ġsyd": 8620,
      "Ġsyl": 8621,
      "Ġ65": 8622,
      "spect": 8623,
      "Ġsuburb": 8624,
      "Ġcolony": 8625,
      "Ġbarn": 8626,
      "Ġkinds": 8627,
      "conn": 8628,
      "Ġentit": 8629,
      "Ġstealing": 8630,
      "Ġraj": 8631,
      "Ġdriven": 8632,
      "onym": 8633,
      "Ġextension": 8634,
      "Ġcuts": 8635,
      "Ġsupports": 8636,
      "Ġmidnight": 8637,
      "Ġbeds": 8638,
      "Ġforecast": 8639,
      "Ġjacket": 8640,
      "Ġ1921": 8641,
      "Ġ1923": 8642,
      "Ġsentences": 8643,
      "Ġiranian": 8644,
      "richard": 8645,
      "Ġeaten": 8646,
      "Ġpretend": 8647,
      "Ġhealthy": 8648,
      "Ġreceiving": 8649,
      "Ġhorror": 8650,
      "Ġinsist": 8651,
      "Ġbullshit": 8652,
      "Ġpanel": 8653,
      "Ġconduct": 8654,
      "johnny": 8655,
      "Ġamongst": 8656,
      "Ġcombined": 8657,
      "small": 8658,
      "Ġbrave": 8659,
      "Ġpsychiat": 8660,
      "obviously": 8661,
      "Ġslowly": 8662,
      "Ġexception": 8663,
      "police": 8664,
      "Ġarabian": 8665,
      "Ġanticip": 8666,
      "Ġopposition": 8667,
      "Ġinjured": 8668,
      "Ġmotorcy": 8669,
      "Ġpainted": 8670,
      "Ġcontribution": 8671,
      "Ġproposal": 8672,
      "Ġargentine": 8673,
      "contin": 8674,
      "Ġsubstant": 8675,
      "louis": 8676,
      "Ġbulgar": 8677,
      "Ġfuente": 8678,
      "Ġronald": 8679,
      "Ġswedish": 8680,
      "Ġregulator": 8681,
      "Ġcarlos": 8682,
      "Ġdouglas": 8683,
      "Ġprovincial": 8684,
      "apoor": 8685,
      "Ġnearest": 8686,
      "Ġugly": 8687,
      "gusting": 8688,
      "51": 8689,
      ";&": 8690,
      "count": 8691,
      "dale": 8692,
      "eor": 8693,
      "gs": 8694,
      "gins": 8695,
      "hot": 8696,
      "iary": 8697,
      "kind": 8698,
      "lay": 8699,
      "mag": 8700,
      "mater": 8701,
      "mitted": 8702,
      "pur": 8703,
      "phal": 8704,
      "sor": 8705,
      "tra": 8706,
      "taking": 8707,
      "uld": 8708,
      "uine": 8709,
      "wart": 8710,
      "Â¶": 8711,
      "Ġud": 8712,
      "Ġeter": 8713,
      "Ġtang": 8714,
      "Ġape": 8715,
      "instead": 8716,
      "Ġwwe": 8717,
      "Ġsig": 8718,
      "Ġsul": 8719,
      "oured": 8720,
      "oni": 8721,
      "Ġcad": 8722,
      "Ġcure": 8723,
      "Ġcreek": 8724,
      "Ġbuc": 8725,
      "Ġmak": 8726,
      "Ġmuck": 8727,
      "anz": 8728,
      "Ġdub": 8729,
      "enon": 8730,
      "enger": 8731,
      "lli": 8732,
      "itwas": 8733,
      "Ġinner": 8734,
      "Ġlang": 8735,
      "Ġlupin": 8736,
      "iser": 8737,
      "Ġnanny": 8738,
      "Ġbez": 8739,
      "Ġreward": 8740,
      "Ġreception": 8741,
      "Ġras": 8742,
      "Ġrib": 8743,
      "Ġraz": 8744,
      "Ġkon": 8745,
      "Ġkapoor": 8746,
      "amo": 8747,
      "aman": 8748,
      "Ġjord": 8749,
      "Ġjama": 8750,
      "Ġjazz": 8751,
      "Ġmeg": 8752,
      "sect": 8753,
      "ths": 8754,
      "child": 8755,
      "Ġate": 8756,
      "Ġalfred": 8757,
      "Ġ1918": 8758,
      "bery": 8759,
      "quer": 8760,
      "orts": 8761,
      "cker": 8762,
      "cking": 8763,
      "Ġspl": 8764,
      "akpa": 8765,
      "Ġtwist": 8766,
      "Ġchip": 8767,
      "Ġagenda": 8768,
      "Ġtrace": 8769,
      "Ġbrack": 8770,
      "Ġgrade": 8771,
      "Ġpartis": 8772,
      "Ġcler": 8773,
      "Ġscan": 8774,
      "Ġnorway": 8775,
      "doctor": 8776,
      "ansion": 8777,
      "Ġsupper": 8778,
      "Ġappeal": 8779,
      "Ġcontr": 8780,
      "Ġcrus": 8781,
      "Ġdepending": 8782,
      "ahi": 8783,
      "onsay": 8784,
      "Ġphill": 8785,
      "Ġshakes": 8786,
      "Ġcheers": 8787,
      "Ġmaid": 8788,
      "pson": 8789,
      "compos": 8790,
      "Ġshower": 8791,
      "Ġengines": 8792,
      "Ġ500": 8793,
      "Ġconscious": 8794,
      "Ġoblig": 8795,
      "Ġ81": 8796,
      "Ġtribes": 8797,
      "whoo": 8798,
      "2019": 8799,
      "Ġmetro": 8800,
      "Ġcolonel": 8801,
      "Ġtomato": 8802,
      "Ġadding": 8803,
      "Ġoffices": 8804,
      "Ġstepped": 8805,
      "Ġemphas": 8806,
      "Ġrepresenting": 8807,
      "fering": 8808,
      "Ġbasin": 8809,
      "Ġbenjamin": 8810,
      "Ġpossess": 8811,
      "Ġbabies": 8812,
      "Ġmidfielder": 8813,
      "clear": 8814,
      "Ġalongside": 8815,
      "Ġoperate": 8816,
      "incidence": 8817,
      "Ġdiscontin": 8818,
      "Ġjacky": 8819,
      "Ġcosta": 8820,
      "Ġexperiment": 8821,
      "Ġcommitment": 8822,
      "Ġpengu": 8823,
      "Ġbreaks": 8824,
      "guys": 8825,
      "Ġreturns": 8826,
      "Ġlargely": 8827,
      "Ġcathedral": 8828,
      "Ġconcerns": 8829,
      "Ġinvolve": 8830,
      "Ġdesigner": 8831,
      "Ġfemin": 8832,
      "Ġsnout": 8833,
      "Ġterribly": 8834,
      "Ġwalter": 8835,
      "reras": 8836,
      "Ġdeclaration": 8837,
      "Ġfacilities": 8838,
      "north": 8839,
      "Ġmisunder": 8840,
      "Ġsantiago": 8841,
      "Ġthailand": 8842,
      "Ġkennedy": 8843,
      "Ġdressing": 8844,
      "Ġdeputies": 8845,
      "Ġsources": 8846,
      "Ġpermission": 8847,
      "Ġtowers": 8848,
      "Ġforests": 8849,
      "Ġsensitive": 8850,
      "Ġbeside": 8851,
      "Ġbavarian": 8852,
      "Ġhonestly": 8853,
      "Ġsacred": 8854,
      "Ġmechanism": 8855,
      "Ġwarsaw": 8856,
      "Ġbonus": 8857,
      "speed": 8858,
      "Ġrevealed": 8859,
      "Ġpursuit": 8860,
      "Ġemotional": 8861,
      "Ġnongda": 8862,
      "sweet": 8863,
      "Ġprovinces": 8864,
      "Ġantonio": 8865,
      "Ġnyon": 8866,
      "Ġdetermined": 8867,
      "shoot": 8868,
      "Ġemployees": 8869,
      "Ġhampshire": 8870,
      "Ġurgent": 8871,
      "prague": 8872,
      "Ġpsychoan": 8873,
      "international": 8874,
      "Ġbranches": 8875,
      "Ġpiedmont": 8876,
      "Ġdramatic": 8877,
      "Ġalcoh": 8878,
      "Ġdiocese": 8879,
      "(#": 8880,
      "43": 8881,
      "46": 8882,
      "88": 8883,
      "aii": 8884,
      "bast": 8885,
      "bird": 8886,
      "dear": 8887,
      "home": 8888,
      "jing": 8889,
      "kim": 8890,
      "names": 8891,
      "oons": 8892,
      "pay": 8893,
      "rum": 8894,
      "rican": 8895,
      "tin": 8896,
      "tail": 8897,
      "vol": 8898,
      "vide": 8899,
      "ws": 8900,
      "wau": 8901,
      "||": 8902,
      "ÃŁ": 8903,
      "Ġtab": 8904,
      "Ġtort": 8905,
      "Ġtub": 8906,
      "instein": 8907,
      "Ġwins": 8908,
      "Ġwider": 8909,
      "oning": 8910,
      "Ġcakes": 8911,
      "Ġcaval": 8912,
      "Ġbam": 8913,
      "Ġbach": 8914,
      "Ġfans": 8915,
      "Ġdates": 8916,
      "Ġdresden": 8917,
      "encer": 8918,
      "Ġpharm": 8919,
      "Ġyug": 8920,
      "Ġanx": 8921,
      "Ġtoile": 8922,
      "educ": 8923,
      "Ġlap": 8924,
      "Ġlone": 8925,
      "Ġlinares": 8926,
      "hattan": 8927,
      "Ġnhl": 8928,
      "uster": 8929,
      "usual": 8930,
      "Ġhunt": 8931,
      "Ġeats": 8932,
      "entially": 8933,
      "Ġrally": 8934,
      "Ġrlf": 8935,
      "unts": 8936,
      "olph": 8937,
      "antics": 8938,
      "Ġabraham": 8939,
      "Ġunusual": 8940,
      "Ġmoore": 8941,
      "umes": 8942,
      "herd": 8943,
      "Ġcongr": 8944,
      "Ġconclud": 8945,
      "Ġshy": 8946,
      "Ġplug": 8947,
      "Ġspots": 8948,
      "Ġfella": 8949,
      "Ġcore": 8950,
      "Ġarcha": 8951,
      "Ġlewis": 8952,
      "Ġleimarel": 8953,
      "Ġmanual": 8954,
      "agement": 8955,
      "Ġgoodness": 8956,
      "Ìģ.": 8957,
      "Ġcouncill": 8958,
      "issance": 8959,
      "Ġjoan": 8960,
      "Ġdispos": 8961,
      "Ġresol": 8962,
      "shot": 8963,
      "Ġrecession": 8964,
      "lets": 8965,
      "Ġdrain": 8966,
      "Ġattached": 8967,
      "Ġgenius": 8968,
      "Ġgenuine": 8969,
      "Ġ57": 8970,
      "Ġ72": 8971,
      "2010": 8972,
      "Ġelectoral": 8973,
      "Ġassured": 8974,
      "Ġassault": 8975,
      "Ġsubdiv": 8976,
      "Ġmiller": 8977,
      "Ġ95": 8978,
      "Ġmovements": 8979,
      "Ġstudying": 8980,
      "Ġfunctions": 8981,
      "Ġretrie": 8982,
      "Ġfilip": 8983,
      "Ġcurtain": 8984,
      "Ġconfusion": 8985,
      "Ġminds": 8986,
      "expect": 8987,
      "Ġimportance": 8988,
      "Ġraw": 8989,
      "Ġrepresents": 8990,
      "Ġinterior": 8991,
      "Ġpatri": 8992,
      "Ġsoutheastern": 8993,
      "Ġyoungest": 8994,
      "Ġgrandfather": 8995,
      "Ġvoiced": 8996,
      "Ġmodels": 8997,
      "cleis": 8998,
      "true": 8999,
      "joy": 9000,
      "Ġequally": 9001,
      "Ġcommittees": 9002,
      "Ġdrinks": 9003,
      "Ġbilly": 9004,
      "Ġcompete": 9005,
      "Ġgeorgian": 9006,
      "Ġvision": 9007,
      "Ġvisited": 9008,
      "Ġtemporary": 9009,
      "Ġcattle": 9010,
      "Ġproperties": 9011,
      "Ġpanic": 9012,
      "commit": 9013,
      "Ġwooden": 9014,
      "Ġstructures": 9015,
      "Ġresear": 9016,
      "Ġidentity": 9017,
      "background": 9018,
      "Ġfortress": 9019,
      "Ġblockade": 9020,
      "Ġdrawing": 9021,
      "Ġgraham": 9022,
      "Ġrobin": 9023,
      "Ġheroin": 9024,
      "Ġdeclare": 9025,
      "Ġ1860": 9026,
      "Ġbucks": 9027,
      "uzz": 9028,
      "Ġfarmers": 9029,
      "Ġcelebrated": 9030,
      "Ġlyon": 9031,
      "Ġbodo": 9032,
      "Ġrenamed": 9033,
      "Ġimmediate": 9034,
      "Ġthreatened": 9035,
      "Ġschemes": 9036,
      "Ġcomposite": 9037,
      "Ġdollar": 9038,
      "Ġknife": 9039,
      "Ġpakistan": 9040,
      "Ġestimates": 9041,
      "julien": 9042,
      "Ġhindi": 9043,
      "Ġchilean": 9044,
      "Ġexperienced": 9045,
      "Ġcuba": 9046,
      "Ġnarrow": 9047,
      "Ġlecture": 9048,
      "Ġvirtually": 9049,
      "Ġconvince": 9050,
      "fifty": 9051,
      "Ġlifetime": 9052,
      "Ġagriculture": 9053,
      "Ġoccasionally": 9054,
      "include": 9055,
      "Ġfrightened": 9056,
      "fighter": 9057,
      "Ġuefa": 9058,
      "Ġprosper": 9059,
      "Ġjohann": 9060,
      "Ġabandoned": 9061,
      "Ġunsuccess": 9062,
      "Ġimperial": 9063,
      "Ġkazakh": 9064,
      "Ġuniform": 9065,
      "Ġbarely": 9066,
      "okermannohyla": 9067,
      "Ġentitled": 9068,
      "62": 9069,
      ";/": 9070,
      "cat": 9071,
      "cular": 9072,
      "gun": 9073,
      "gang": 9074,
      "hos": 9075,
      "kov": 9076,
      "kitty": 9077,
      "nity": 9078,
      "none": 9079,
      "rub": 9080,
      "sail": 9081,
      "tar": 9082,
      "tot": 9083,
      "tical": 9084,
      "vian": 9085,
      "vict": 9086,
      "wal": 9087,
      "Ġvel": 9088,
      "Ġald": 9089,
      "oux": 9090,
      "Ġcel": 9091,
      "Ġbite": 9092,
      "Ġbail": 9093,
      "Ġbump": 9094,
      "Ġori": 9095,
      "Ġfi": 9096,
      "Ġfir": 9097,
      "Ġfles": 9098,
      "Ġdna": 9099,
      "Ġdana": 9100,
      "eno": 9101,
      "enes": 9102,
      "Ġpent": 9103,
      "Ġpod": 9104,
      "Ġyard": 9105,
      "ington": 9106,
      "Ġgap": 9107,
      "Ġgab": 9108,
      "Ġgree": 9109,
      "Ġlith": 9110,
      "isy": 9111,
      "isation": 9112,
      "Ġnav": 9113,
      "Ġnico": 9114,
      "Ġnasty": 9115,
      "Ġnaval": 9116,
      "lead": 9117,
      "leima": 9118,
      "usal": 9119,
      "Ġbeating": 9120,
      "Ġemin": 9121,
      "Ġeffic": 9122,
      "igger": 9123,
      "Ġreli": 9124,
      "Ġrs": 9125,
      "Ġrude": 9126,
      "Ġkal": 9127,
      "Ġkay": 9128,
      "Ġforwards": 9129,
      "hta": 9130,
      "street": 9131,
      "september": 9132,
      "thod": 9133,
      "chief": 9134,
      "ilia": 9135,
      "Ġlied": 9136,
      "wealth": 9137,
      "Ġdee": 9138,
      "Ġneil": 9139,
      "Ġcance": 9140,
      "Ġdong": 9141,
      "Ġ(ï¿½ï¿½ï¿½ï¿½": 9142,
      "Ġvod": 9143,
      "qual": 9144,
      "Ġsoap": 9145,
      "Ġconce": 9146,
      "Ġbutcher": 9147,
      "Ġouter": 9148,
      "Ġspike": 9149,
      "ipak": 9150,
      "feel": 9151,
      "Ġtheme": 9152,
      "loc": 9153,
      "Ġaggress": 9154,
      "ousers": 9155,
      "Ġoffering": 9156,
      "actor": 9157,
      "Ġchase": 9158,
      "Ġmarsh": 9159,
      "Ġclinton": 9160,
      "Ġoversp": 9161,
      "Ġpolo": 9162,
      "Ġguide": 9163,
      "Ġcarbon": 9164,
      "Ġcarrier": 9165,
      "Ġsecrets": 9166,
      "Ġdistinct": 9167,
      "rents": 9168,
      "ultan": 9169,
      "Ġblows": 9170,
      "Ġchang": 9171,
      "Ġregistered": 9172,
      "Ġmonk": 9173,
      "Ġmonarch": 9174,
      "Ġmonitor": 9175,
      "Ġharlow": 9176,
      "Ġformat": 9177,
      "Ġstronsay": 9178,
      "Ġsworn": 9179,
      "Ġowns": 9180,
      "Ġearnings": 9181,
      "Ġdifferences": 9182,
      "hole": 9183,
      "Ġzoo": 9184,
      "Ġ51": 9185,
      "Ġtriangle": 9186,
      "gerton": 9187,
      "Ġgovernments": 9188,
      "Ġdepartments": 9189,
      "Ġbreat": 9190,
      "Ġplanes": 9191,
      "Ġrelatives": 9192,
      "Ġheading": 9193,
      "Ġ93": 9194,
      "Ġ97": 9195,
      "Ġcald": 9196,
      "Ġdaught": 9197,
      "Ġbasement": 9198,
      "Ġbirmingham": 9199,
      "Ġbabe": 9200,
      "Ġmichelle": 9201,
      "Ġlesser": 9202,
      "Ġequations": 9203,
      "Ġ1924": 9204,
      "Ġhurts": 9205,
      "Ġdelivered": 9206,
      "Ġrocky": 9207,
      "marie": 9208,
      "Ġfallen": 9209,
      "Ġwondering": 9210,
      "wouldn": 9211,
      "Ġimmort": 9212,
      "Ġlimits": 9213,
      "Ġdevast": 9214,
      "Ġfax": 9215,
      "Ġobjective": 9216,
      "Ġpainter": 9217,
      "Ġvideos": 9218,
      "Ġchurchill": 9219,
      "Ġduties": 9220,
      "Ġhypot": 9221,
      "Ġmales": 9222,
      "Ġdarkness": 9223,
      "Ġindustries": 9224,
      "Ġrecognise": 9225,
      "Ġrecognition": 9226,
      "Ġtracks": 9227,
      "Ġproductivity": 9228,
      "Ġfranklin": 9229,
      "onlyinclude": 9230,
      "couldn": 9231,
      "Ġcomputers": 9232,
      "Ġpremier": 9233,
      "Ġcloses": 9234,
      "Ġvalle": 9235,
      "Ġexisted": 9236,
      "Ġconsideration": 9237,
      "Ġarabia": 9238,
      "Ġregularly": 9239,
      "Ġbothered": 9240,
      "Ġinitial": 9241,
      "evic": 9242,
      "Ġdummy": 9243,
      "Ġdiagram": 9244,
      "Ġtoronto": 9245,
[...]
